[<PAD>]	0
[<UNK>]	0
[<SOS>]	0
[<EOS>]	0
▁s	-0
in	-1
de	-2
at	-3
an	-4
ar	-5
er	-6
▁o	-7
en	-8
▁m	-9
et	-10
ll	-11
▁f	-12
▁d	-13
as	-14
▁b	-15
▁g	-16
am	-17
▁l	-18
id	-19
is	-20
uo	-21
ah	-22
al	-23
tt	-24
▁j	-25
▁v	-26
ing	-27
it	-28
▁r	-29
ör	-30
▁k	-31
▁de	-32
us	-33
ig	-34
om	-35
or	-36
ea	-37
ka	-38
on	-39
▁n	-40
▁ja	-41
▁h	-42
▁p	-43
▁sá	-44
▁sam	-45
▁i	-46
▁oc	-47
ed	-48
te	-49
▁för	-50
ti	-51
▁och	-52
▁a	-53
aš	-54
uv	-55
▁.	-56
ie	-57
▁sám	-58
att	-59
är	-60
ag	-61
ál	-62
▁e	-63
dd	-64
▁u	-65
kk	-66
st	-67
ii	-68
▁att	-69
kt	-70
ning	-71
na	-72
ol	-73
ra	-74
▁in	-75
▁av	-76
il	-77
ár	-78
es	-79
ta	-80
▁lea	-81
▁2	-82
aid	-83
▁,	-84
▁st	-85
uvv	-86
gi	-87
rå	-88
un	-89
pp	-90
▁le	-91
áh	-92
iv	-93
gg	-94
▁an	-95
ur	-96
▁1	-97
iska	-98
▁ti	-99
än	-100
el	-101
▁t	-102
án	-103
ul	-104
iid	-105
oa	-106
▁en	-107
ut	-108
▁till	-109
ái	-110
ter	-111
eg	-112
▁č	-113
uođ	-114
sk	-115
▁som	-116
ih	-117
ro	-118
ad	-119
uh	-120
▁leat	-121
▁om	-122
ande	-123
omm	-124
▁20	-125
▁sámed	-126
▁är	-127
▁det	-128
▁ov	-129
der	-130
▁ut	-131
▁á	-132
▁med	-133
iel	-134
▁sámi	-135
inget	-136
bm	-137
ir	-138
▁samiska	-139
tta	-140
ahte	-141
▁samet	-142
▁sametinget	-143
▁go	-144
je	-145
▁ahte	-146
ion	-147
ot	-148
ear	-149
oh	-150
lig	-151
mm	-152
▁har	-153
uov	-154
em	-155
eh	-156
ss	-157
▁på	-158
pm	-159
ult	-160
and	-161
▁nor	-162
od	-163
ui	-164
lla	-165
▁komm	-166
ck	-167
vuođ	-168
ks	-169
▁sk	-170
▁den	-171
▁kult	-172
ev	-173
ov	-174
oj	-175
ation	-176
ett	-177
uor	-178
het	-179
da	-180
▁bar	-181
alaš	-182
uoh	-183
ätt	-184
oah	-185
og	-186
år	-187
▁sámedig	-188
ás	-189
den	-190
▁un	-191
dus	-192
vv	-193
isk	-194
ent	-195
ass	-196
inn	-197
os	-198
čč	-199
▁ar	-200
för	-201
▁pro	-202
▁ett	-203
ok	-204
ver	-205
bet	-206
ast	-207
ens	-208
uvvon	-209
im	-210
đđ	-211
▁kultur	-212
ist	-213
ga	-214
00	-215
áv	-216
ru	-217
re	-218
▁vi	-219
eav	-220
▁var	-221
▁(	-222
▁gal	-223
▁sp	-224
▁ö	-225
ade	-226
eah	-227
▁201	-228
are	-229
šš	-230
ide	-231
▁maid	-232
ikk	-233
▁dá	-234
▁må	-235
ud	-236
ort	-237
▁frå	-238
▁oah	-239
▁3	-240
oai	-241
gá	-242
dning	-243
ve	-244
kka	-245
▁200	-246
uid	-247
go	-248
ri	-249
val	-250
ska	-251
ek	-252
erna	-253
ain	-254
▁rá	-255
äll	-256
▁vuo	-257
um	-258
sp	-259
ann	-260
ahus	-261
ste	-262
▁ol	-263
olaš	-264
▁-	-265
uin	-266
sl	-267
ell	-268
bb	-269
dj	-270
▁do	-271
all	-272
▁mear	-273
▁or	-274
▁sáh	-275
▁upp	-276
▁finn	-277
▁kon	-278
ling	-279
äl	-280
▁ál	-281
det	-282
eam	-283
del	-284
▁sámedikk	-285
▁guov	-286
iin	-287
ej	-288
▁ovdd	-289
▁sámediggi	-290
sen	-291
ačč	-292
råk	-293
▁mii	-294
ering	-295
▁ge	-296
kan	-297
▁ear	-298
pmi	-299
áhus	-300
▁mat	-301
uvvo	-302
▁från	-303
aga	-304
ja	-305
▁inte	-306
▁nu	-307
eal	-308
gan	-309
▁detta	-310
vän	-311
▁doai	-312
▁kommer	-313
▁dan	-314
olit	-315
áldd	-316
kti	-317
▁kan	-318
▁bir	-319
▁ár	-320
rá	-321
▁min	-322
itt	-323
uol	-324
ningen	-325
▁sametingets	-326
▁dat	-327
arj	-328
res	-329
▁ii	-330
▁c	-331
ik	-332
▁re	-333
▁pl	-334
▁bid	-335
▁språk	-336
ge	-337
äm	-338
ddj	-339
veck	-340
žž	-341
▁die	-342
ást	-343
åll	-344
ger	-345
▁under	-346
▁sámedikki	-347
▁över	-348
▁4	-349
▁sáhtt	-350
▁okt	-351
bil	-352
▁ean	-353
uš	-354
ier	-355
▁er	-356
▁5	-357
vuođa	-358
▁ovd	-359
▁arbet	-360
ttas	-361
▁miel	-362
get	-363
ser	-364
uot	-365
▁19	-366
ighet	-367
run	-368
oš	-369
ahtt	-370
bar	-371
▁vuođ	-372
áš	-373
se	-374
▁mán	-375
▁ie	-376
egiel	-377
▁galgá	-378
▁kommun	-379
llu	-380
av	-381
.1	-382
▁reg	-383
gga	-384
oahkk	-385
álaš	-386
▁ren	-387
▁al	-388
aččat	-389
▁ea	-390
nas	-391
áid	-392
▁ášš	-393
bildning	-394
▁dah	-395
▁birra	-396
▁ma	-397
ef	-398
▁ska	-399
áld	-400
liga	-401
▁gen	-402
▁áig	-403
▁dár	-404
ask	-405
▁måste	-406
▁mö	-407
ras	-408
tal	-409
var	-410
ft	-411
ab	-412
▁å	-413
▁ell	-414
▁oahp	-415
ihk	-416
par	-417
kså	-418
▁också	-419
ilj	-420
▁doarj	-421
▁:	-422
000	-423
▁da	-424
ma	-425
▁/	-426
pl	-427
eavah	-428
dra	-429
▁eará	-430
▁boa	-431
uvn	-432
uđ	-433
▁kr	-434
▁år	-435
ån	-436
ám	-437
▁områ	-438
ans	-439
ligt	-440
▁använ	-441
ram	-442
▁má	-443
orm	-444
▁rätt	-445
nings	-446
▁finnm	-447
▁ber	-448
min	-449
▁sámegiel	-450
ff	-451
la	-452
▁samisk	-453
▁oa	-454
▁utveck	-455
ningar	-456
slag	-457
▁boaz	-458
áll	-459
▁ny	-460
uvvot	-461
▁dán	-462
ister	-463
▁tr	-464
▁genom	-465
ull	-466
▁doaibm	-467
olk	-468
uohta	-469
itet	-470
ark	-471
▁del	-472
rag	-473
▁där	-474
▁oahpp	-475
ean	-476
▁gie	-477
ord	-478
tem	-479
rat	-480
▁per	-481
vtt	-482
▁så	-483
ala	-484
ien	-485
▁geavah	-486
ivv	-487
▁barg	-488
▁mielde	-489
▁res	-490
áikk	-491
▁när	-492
eaddj	-493
tion	-494
arbet	-495
igt	-496
kon	-497
rid	-498
ven	-499
dái	-500
▁beh	-501
▁nj	-502
▁stat	-503
sam	-504
▁giel	-505
▁das	-506
fter	-507
håll	-508
▁maiddái	-509
ávde	-510
▁ođđ	-511
yn	-512
yl	-513
ssa	-514
iguin	-515
pro	-516
▁ovttas	-517
ahk	-518
uht	-519
.2	-520
▁utbildning	-521
áhka	-522
▁par	-523
ojit	-524
ávdego	-525
▁ra	-526
▁š	-527
▁rå	-528
▁ans	-529
sa	-530
▁kun	-531
ill	-532
▁okta	-533
iskt	-534
▁norska	-535
iet	-536
usa	-537
ret	-538
▁lei	-539
▁háldd	-540
äk	-541
tiv	-542
▁000	-543
▁vid	-544
▁sáhttá	-545
igat	-546
▁vikt	-547
usat	-548
tall	-549
▁ser	-550
▁eller	-551
giid	-552
▁bet	-553
▁fer	-554
▁andra	-555
ob	-556
ella	-557
eapmi	-558
▁muht	-559
eami	-560
ieh	-561
▁)	-562
ganis	-563
▁grun	-564
▁led	-565
cc	-566
▁oh	-567
iide	-568
▁0	-569
▁inom	-570
man	-571
▁jo	-572
▁polit	-573
ne	-574
▁ođđa	-575
▁rie	-576
ald	-577
ág	-578
ang	-579
ála	-580
ds	-581
▁6	-582
ága	-583
ler	-584
▁boazod	-585
▁buor	-586
▁eal	-587
▁sis	-588
est	-589
át	-590
▁sin	-591
bmot	-592
▁mánáid	-593
yr	-594
land	-595
▁ás	-596
öl	-597
mma	-598
oahp	-599
▁milj	-600
ami	-601
▁vuođđ	-602
vuohta	-603
skap	-604
atn	-605
dit	-606
esl	-607
▁barn	-608
kkár	-609
ust	-610
ekt	-611
itté	-612
▁ferte	-613
▁lär	-614
▁lag	-615
oall	-616
▁váld	-617
▁dál	-618
▁dag	-619
.0	-620
▁dát	-621
ats	-622
▁§	-623
itu	-624
äg	-625
partem	-626
▁dahje	-627
ádus	-628
usaid	-629
▁for	-630
▁guo	-631
oll	-632
ána	-633
▁vár	-634
▁än	-635
ggad	-636
▁duo	-637
▁čoahkk	-638
đih	-639
ci	-640
▁ealáhus	-641
sb	-642
uvr	-643
oav	-644
áhta	-645
▁stuor	-646
uvvojit	-647
▁all	-648
ket	-649
▁nord	-650
områ	-651
▁7	-652
ost	-653
ai	-654
igheter	-655
▁juo	-656
yck	-657
▁utveckling	-658
tii	-659
ika	-660
▁vara	-661
▁nam	-662
arna	-663
jekt	-664
▁evtt	-665
▁jagi	-666
▁evttoh	-667
▁du	-668
kl	-669
▁guovll	-670
▁ráđđ	-671
rä	-672
▁bidrag	-673
dn	-674
ahit	-675
sta	-676
▁rii	-677
▁skuv	-678
▁vis	-679
▁ka	-680
áž	-681
dan	-682
form	-683
gerá	-684
ihkk	-685
▁sámediggerá	-686
jj	-687
▁ovddid	-688
▁pr	-689
des	-690
▁hö	-691
partemean	-692
uohk	-693
▁iež	-694
▁vej	-695
▁oll	-696
ikt	-697
▁eai	-698
▁förslag	-699
áht	-700
ärder	-701
▁grund	-702
áig	-703
du	-704
▁mo	-705
ohk	-706
ama	-707
▁ha	-708
dea	-709
▁maŋ	-710
▁finns	-711
efolk	-712
uohkan	-713
uvvui	-714
▁fyl	-715
ök	-716
▁ča	-717
oal	-718
häll	-719
vod	-720
ölj	-721
▁inst	-722
▁man	-723
uovv	-724
pmái	-725
▁dea	-726
▁inter	-727
oam	-728
tg	-729
ång	-730
▁almm	-731
▁gas	-732
▁ieš	-733
▁sy	-734
ts	-735
▁nation	-736
isteriet	-737
aj	-738
vuođas	-739
▁lass	-740
▁vejolaš	-741
▁nr	-742
▁hálddaš	-743
▁efter	-744
▁mar	-745
skil	-746
▁skol	-747
adj	-748
▁ovddas	-749
quot	-750
▁mearrid	-751
tti	-752
▁organis	-753
son	-754
bru	-755
ddi	-756
▁siid	-757
ahall	-758
dda	-759
eaddji	-760
iga	-761
vis	-762
▁rapp	-763
ende	-764
erade	-765
▁te	-766
▁regi	-767
sätt	-768
ic	-769
▁9	-770
eavtt	-771
ställ	-772
bu	-773
01	-774
▁mus	-775
▁vuoigat	-776
sm	-777
áhtt	-778
▁alla	-779
agas	-780
▁fram	-781
▁199	-782
lam	-783
▁bok	-784
▁kom	-785
öd	-786
▁men	-787
▁samarbet	-788
▁eanet	-789
▁se	-790
rupp	-791
andet	-792
▁čuovv	-793
iehta	-794
polit	-795
▁oažž	-796
▁8	-797
▁oahpahus	-798
áikkuh	-799
▁resur	-800
▁–	-801
stem	-802
▁daid	-803
▁servod	-804
ktui	-805
rádus	-806
▁galget	-807
nat	-808
▁mell	-809
lighet	-810
uvnna	-811
árkk	-812
đđi	-813
▁bå	-814
▁län	-815
▁ektui	-816
skol	-817
ittén	-818
vd	-819
ánu	-820
▁kl	-821
▁dasa	-822
▁me	-823
▁ing	-824
ber	-825
ster	-826
▁jag	-827
anne	-828
▁kultuvr	-829
▁čađ	-830
uolggad	-831
▁10	-832
uora	-833
oštall	-834
istr	-835
▁val	-836
▁2010	-837
▁mer	-838
▁ta	-839
▁mellan	-840
uide	-841
dr	-842
▁árvv	-843
▁váikkuh	-844
▁ad	-845
ida	-846
▁dut	-847
kkas	-848
konom	-849
▁davv	-850
▁dieđ	-851
▁norgga	-852
asaš	-853
jäl	-854
arvv	-855
▁ekonom	-856
tgärder	-857
kkaš	-858
▁dih	-859
ojuvvo	-860
▁tv	-861
gor	-862
▁iežas	-863
▁2011	-864
▁rek	-865
▁oass	-866
▁mas	-867
▁bea	-868
▁ollu	-869
▁boah	-870
▁samhäll	-871
▁dárbb	-872
talet	-873
dust	-874
▁tid	-875
▁plan	-876
uhta	-877
▁områden	-878
pres	-879
▁muhto	-880
enoam	-881
enter	-882
▁sámegiela	-883
ju	-884
▁doarjja	-885
▁add	-886
▁stor	-887
čoahkk	-888
▁el	-889
oms	-890
▁region	-891
▁säk	-892
▁fin	-893
▁forsk	-894
alt	-895
▁bokte	-896
▁möj	-897
▁inn	-898
vuođaid	-899
▁proš	-900
▁gáv	-901
▁gea	-902
ers	-903
▁dessa	-904
▁ovttasbar	-905
ojuvvon	-906
ggu	-907
▁oktavuođas	-908
ktion	-909
▁geat	-910
itution	-911
lament	-912
▁deaŧ	-913
ingar	-914
laš	-915
ämn	-916
▁sihk	-917
▁projekt	-918
ak	-919
andling	-920
iella	-921
▁seam	-922
▁norge	-923
end	-924
▁mearkkaš	-925
▁sihkk	-926
ád	-927
▁joh	-928
aren	-929
era	-930
▁kunskap	-931
iva	-932
alaččat	-933
▁ver	-934
▁geah	-935
jän	-936
▁bud	-937
▁ohc	-938
▁ur	-939
▁leam	-940
åg	-941
▁gäll	-942
eringen	-943
▁bör	-944
álval	-945
▁mån	-946
▁suohkan	-947
ima	-948
▁hel	-949
▁sig	-950
▁vuor	-951
valt	-952
▁mearrádus	-953
.3	-954
no	-955
▁giell	-956
▁álgg	-957
iteh	-958
▁parlament	-959
lä	-960
▁buot	-961
ástádus	-962
▁ái	-963
▁råd	-964
▁kap	-965
▁viid	-966
▁dearvv	-967
ygg	-968
▁samiskt	-969
ij	-970
▁sihke	-971
gár	-972
▁följ	-973
▁pres	-974
▁buš	-975
▁br	-976
▁jord	-977
▁jien	-978
dna	-979
▁unn	-980
▁intern	-981
▁få	-982
io	-983
▁finnmárkk	-984
▁jus	-985
▁gir	-986
▁renhåll	-987
▁sär	-988
ihtt	-989
sr	-990
▁11	-991
▁leamaš	-992
ycket	-993
▁särskil	-994
vuo	-995
▁stáhta	-996
▁jordbru	-997
▁ášši	-998
▁vill	-999
▁mål	-1000
▁besl	-1001
▁ansvar	-1002
▁jahk	-1003
▁denna	-1004
egi	-1005
▁15	-1006
ggas	-1007
iidda	-1008
▁häl	-1009
bl	-1010
▁sihkkar	-1011
▁suo	-1012
amis	-1013
▁olika	-1014
ten	-1015
ealde	-1016
▁åtgärder	-1017
ohkk	-1018
▁gäller	-1019
ktiv	-1020
▁mánáidgár	-1021
eras	-1022
).	-1023
▁ul	-1024
▁he	-1025
▁användning	-1026
▁nann	-1027
änn	-1028
▁mot	-1029
▁rel	-1030
dag	-1031
▁rapport	-1032
tag	-1033
đi	-1034
▁w	-1035
▁land	-1036
▁doaimm	-1037
▁hög	-1038
▁både	-1039
▁vuos	-1040
ål	-1041
▁kons	-1042
▁bor	-1043
ihkalaš	-1044
▁fort	-1045
etens	-1046
vástádus	-1047
ott	-1048
▁ráđđeh	-1049
sf	-1050
▁ex	-1051
askuv	-1052
▁oažžut	-1053
▁vá	-1054
▁vuođul	-1055
▁et	-1056
▁máŋ	-1057
▁admin	-1058
oalu	-1059
▁ulbm	-1060
▁inform	-1061
tet	-1062
uks	-1063
erat	-1064
▁nya	-1065
ess	-1066
▁doaibmab	-1067
▁su	-1068
▁2009	-1069
▁fler	-1070
dom	-1071
ynd	-1072
▁liv	-1073
▁čiel	-1074
▁gör	-1075
ør	-1076
▁samer	-1077
▁stuorra	-1078
iehtadus	-1079
▁sámedigg	-1080
▁gul	-1081
áib	-1082
▁árvvoštall	-1083
▁čá	-1084
▁behov	-1085
/1	-1086
▁guosk	-1087
▁dáid	-1088
▁sier	-1089
▁gol	-1090
tn	-1091
▁deaŧalaš	-1092
ant	-1093
▁guovdd	-1094
edje	-1095
▁säker	-1096
▁giella	-1097
▁dás	-1098
rätt	-1099
▁budget	-1100
▁sámediggeráđđi	-1101
jeh	-1102
▁ledje	-1103
alis	-1104
djal	-1105
eb	-1106
▁eg	-1107
▁genomför	-1108
ch	-1109
▁beslut	-1110
▁ovdán	-1111
▁fr	-1112
▁kar	-1113
skomm	-1114
▁möte	-1115
else	-1116
iija	-1117
▁dearvvaš	-1118
olog	-1119
▁áv	-1120
va	-1121
▁ráj	-1122
plána	-1123
▁rättigheter	-1124
▁samrå	-1125
▁riikka	-1126
rän	-1127
▁stu	-1128
▁12	-1129
▁repres	-1130
bmo	-1131
anden	-1132
▁fisk	-1133
bmog	-1134
agat	-1135
▁lok	-1136
▁dig	-1137
ivers	-1138
esk	-1139
istor	-1140
▁diev	-1141
▁erenoam	-1142
▁han	-1143
▁därför	-1144
▁finnmark	-1145
ken	-1146
▁troms	-1147
uvdna	-1148
▁fl	-1149
▁čáll	-1150
cent	-1151
utveck	-1152
sii	-1153
uovll	-1154
álald	-1155
▁ásah	-1156
fatt	-1157
▁lávdego	-1158
uhit	-1159
▁kont	-1160
astit	-1161
▁komp	-1162
▁dakkár	-1163
▁tra	-1164
▁bušeah	-1165
▁kron	-1166
▁univers	-1167
▁dain	-1168
▁ovddasvástádus	-1169
ieđ	-1170
oas	-1171
dde	-1172
irekt	-1173
▁njuolggad	-1174
ick	-1175
▁čađah	-1176
▁so	-1177
▁best	-1178
▁bear	-1179
▁boh	-1180
gram	-1181
idea	-1182
pmel	-1183
▁veah	-1184
uđet	-1185
▁luo	-1186
▁&	-1187
▁någ	-1188
per	-1189
idit	-1190
▁ráhka	-1191
▁ulbmil	-1192
▁viktigt	-1193
▁vår	-1194
▁iešg	-1195
▁maŋŋ	-1196
▁får	-1197
▁två	-1198
▁láhka	-1199
▁samt	-1200
▁várás	-1201
eapmái	-1202
edel	-1203
▁mu	-1204
tas	-1205
▁enligt	-1206
ationer	-1207
▁ožž	-1208
add	-1209
ydd	-1210
▁strat	-1211
▁guh	-1212
ationen	-1213
▁vál	-1214
nader	-1215
▁stort	-1216
▁bl	-1217
▁sl	-1218
ets	-1219
▁sáhttet	-1220
-2	-1221
kta	-1222
ytt	-1223
▁häls	-1224
▁danne	-1225
itehta	-1226
▁oahpah	-1227
ingen	-1228
▁ru	-1229
▁arbete	-1230
▁många	-1231
▁18	-1232
▁deh	-1233
älla	-1234
▁ovdal	-1235
grá	-1236
▁dárbbaš	-1237
▁stör	-1238
led	-1239
▁vil	-1240
inj	-1241
rin	-1242
por	-1243
▁stär	-1244
yd	-1245
▁bland	-1246
tte	-1247
▁gáib	-1248
▁befolk	-1249
bj	-1250
▁vai	-1251
fer	-1252
▁hade	-1253
▁juohk	-1254
ttis	-1255
ämm	-1256
▁kulturm	-1257
▁utan	-1258
▁sear	-1259
▁int	-1260
▁off	-1261
partemeanta	-1262
áhk	-1263
▁sådan	-1264
▁kronor	-1265
dition	-1266
ahusa	-1267
▁16	-1268
komm	-1269
▁gask	-1270
▁ung	-1271
▁fall	-1272
▁miljon	-1273
utbildning	-1274
eddj	-1275
osit	-1276
▁frågor	-1277
▁gos	-1278
▁nok	-1279
kte	-1280
▁dil	-1281
▁mark	-1282
▁kv	-1283
▁ministeriet	-1284
▁čájeh	-1285
spl	-1286
▁nat	-1287
▁boazodoall	-1288
▁árb	-1289
ovdd	-1290
▁represent	-1291
▁meann	-1292
▁cent	-1293
▁rev	-1294
▁álgo	-1295
elbb	-1296
arande	-1297
ejuvvon	-1298
odaga	-1299
elbbolaš	-1300
▁ain	-1301
▁máhtt	-1302
▁·	-1303
eall	-1304
kas	-1305
▁dievas	-1306
▁gull	-1307
▁2012	-1308
▁rievd	-1309
▁iešguđet	-1310
▁sierra	-1311
edan	-1312
▁hur	-1313
▁gieldd	-1314
▁natur	-1315
ortn	-1316
▁mycket	-1317
dig	-1318
▁lá	-1319
tivr	-1320
evaš	-1321
anta	-1322
utveckling	-1323
ari	-1324
▁samarbete	-1325
▁hál	-1326
ošt	-1327
▁sii	-1328
oavkk	-1329
▁14	-1330
spro	-1331
▁joat	-1332
utom	-1333
▁förhåll	-1334
▁förvalt	-1335
rift	-1336
rung	-1337
▁inkl	-1338
▁rájes	-1339
ksam	-1340
já	-1341
▁ären	-1342
agaid	-1343
▁bo	-1344
▁guovlluin	-1345
bell	-1346
.4	-1347
jit	-1348
odat	-1349
▁álbmot	-1350
sprung	-1351
▁ursprung	-1352
ellt	-1353
arv	-1354
ku	-1355
▁tradition	-1356
giin	-1357
▁språket	-1358
▁dohkk	-1359
▁föret	-1360
▁fuol	-1361
ástal	-1362
▁álgoál	-1363
dent	-1364
▁ä	-1365
aste	-1366
imis	-1367
▁main	-1368
▁báikk	-1369
san	-1370
▁nuora	-1371
▁la	-1372
vention	-1373
ön	-1374
uhtt	-1375
▁regeringen	-1376
ild	-1377
▁registr	-1378
▁soci	-1379
▁kompetens	-1380
▁sápmel	-1381
▁doaibmabij	-1382
▁institution	-1383
ital	-1384
alle	-1385
▁särskilt	-1386
▁arti	-1387
iss	-1388
deapmi	-1389
gör	-1390
▁jienast	-1391
▁system	-1392
skö	-1393
▁huks	-1394
▁sä	-1395
▁almmolaš	-1396
▁aktiv	-1397
okum	-1398
▁information	-1399
▁internation	-1400
llii	-1401
▁öka	-1402
▁dagis	-1403
uoht	-1404
▁dievasčoahkk	-1405
gång	-1406
rikt	-1407
▁mynd	-1408
agen	-1409
▁bev	-1410
▁fylkka	-1411
▁dohkkeh	-1412
▁ráđđehus	-1413
▁rom	-1414
kor	-1415
unkt	-1416
ial	-1417
▁mov	-1418
▁fá	-1419
▁duodj	-1420
▁lä	-1421
▁hástal	-1422
▁earret	-1423
▁álggah	-1424
uj	-1425
▁väl	-1426
▁renskö	-1427
▁utman	-1428
erad	-1429
▁deatt	-1430
ia	-1431
ojuvvot	-1432
iell	-1433
▁aff	-1434
▁13	-1435
▁indust	-1436
▁område	-1437
äng	-1438
▁sen	-1439
▁offent	-1440
▁kultuvrra	-1441
▁id	-1442
▁%	-1443
▁ungdom	-1444
aht	-1445
▁fok	-1446
▁árval	-1447
sten	-1448
▁rievdad	-1449
▁bygg	-1450
grupp	-1451
isev	-1452
▁forskning	-1453
ealáhus	-1454
▁ram	-1455
▁affär	-1456
▁vär	-1457
ohku	-1458
▁ord	-1459
▁sö	-1460
vuođat	-1461
▁föresl	-1462
▁kommuner	-1463
▁ann	-1464
neb	-1465
▁biv	-1466
▁pri	-1467
▁disk	-1468
▁varit	-1469
▁son	-1470
▁kval	-1471
iš	-1472
män	-1473
sn	-1474
▁30	-1475
▁vuostt	-1476
▁dáss	-1477
▁álbmog	-1478
▁dist	-1479
▁be	-1480
▁dem	-1481
▁sámedikkis	-1482
▁baj	-1483
▁plána	-1484
ttar	-1485
▁vás	-1486
vr	-1487
yrel	-1488
▁áigu	-1489
uolást	-1490
▁god	-1491
amear	-1492
uovdd	-1493
▁grupp	-1494
rukt	-1495
oarj	-1496
▁ovtta	-1497
▁person	-1498
duktion	-1499
le	-1500
pa	-1501
▁váll	-1502
▁bargg	-1503
ministeriet	-1504
ema	-1505
riv	-1506
▁ovddidit	-1507
ym	-1508
andl	-1509
ksamhet	-1510
iij	-1511
edö	-1512
▁prior	-1513
▁gelbbolaš	-1514
nu	-1515
ámi	-1516
▁arbets	-1517
▁hän	-1518
bjud	-1519
jord	-1520
▁första	-1521
▁50	-1522
▁dutk	-1523
▁seamma	-1524
ib	-1525
▁”	-1526
▁uppf	-1527
gas	-1528
fr	-1529
▁gi	-1530
deami	-1531
▁viktig	-1532
aide	-1533
▁slut	-1534
▁dárbu	-1535
▁17	-1536
▁muse	-1537
▁använd	-1538
▁rekomm	-1539
ry	-1540
▁fokus	-1541
rum	-1542
▁arbetet	-1543
ades	-1544
plan	-1545
ara	-1546
▁form	-1547
eavv	-1548
ođih	-1549
▁ök	-1550
ovaš	-1551
gu	-1552
▁prose	-1553
▁rensköts	-1554
▁dess	-1555
ht	-1556
▁dihte	-1557
▁sti	-1558
und	-1559
▁čuj	-1560
▁háliid	-1561
▁ruđ	-1562
▁själ	-1563
▁lág	-1564
▁möjlighet	-1565
oallu	-1566
▁lassin	-1567
ige	-1568
▁máks	-1569
ivå	-1570
obealde	-1571
▁buv	-1572
▁kár	-1573
▁«	-1574
▁guovddáš	-1575
▁2005	-1576
▁renskötsel	-1577
eren	-1578
▁fág	-1579
▁eanad	-1580
kes	-1581
iseváldd	-1582
ran	-1583
▁as	-1584
▁dušš	-1585
▁šadd	-1586
ställa	-1587
samiska	-1588
idd	-1589
▁samerna	-1590
▁sami	-1591
▁flera	-1592
▁ohpp	-1593
▁heiv	-1594
▁jođih	-1595
▁området	-1596
ilg	-1597
ukt	-1598
istrat	-1599
▁ovdan	-1600
ke	-1601
llas	-1602
▁först	-1603
tering	-1604
▁are	-1605
▁histor	-1606
akt	-1607
▁spe	-1608
▁konst	-1609
▁geavahit	-1610
▁samman	-1611
▁administrat	-1612
ahttit	-1613
▁2008	-1614
▁eavtt	-1615
▁hälso	-1616
jänster	-1617
▁vuođđo	-1618
område	-1619
▁allmän	-1620
▁rikt	-1621
▁dutkan	-1622
ásaš	-1623
▁duodji	-1624
ovd	-1625
arks	-1626
▁ruhta	-1627
iiguin	-1628
árr	-1629
by	-1630
ihka	-1631
.201	-1632
▁sina	-1633
▁bas	-1634
lägg	-1635
▁posit	-1636
över	-1637
ašt	-1638
▁rådet	-1639
▁iežaset	-1640
öst	-1641
▁okti	-1642
▁evttohus	-1643
ihttom	-1644
▁annat	-1645
▁ämn	-1646
atneg	-1647
emin	-1648
▁dehálaš	-1649
▁priorit	-1650
▁här	-1651
ystem	-1652
▁namm	-1653
isti	-1654
▁guoská	-1655
ážit	-1656
▁stáht	-1657
ine	-1658
▁beaivv	-1659
▁finans	-1660
▁förs	-1661
ašuvnna	-1662
▁viidás	-1663
amii	-1664
▁searv	-1665
▁sätt	-1666
ŋgi	-1667
▁hui	-1668
▁miljoner	-1669
amiid	-1670
uha	-1671
▁kra	-1672
▁servodat	-1673
doai	-1674
tá	-1675
▁elev	-1676
yg	-1677
▁rádj	-1678
uovtt	-1679
▁beal	-1680
uvdn	-1681
▁dearvvašvuođa	-1682
områden	-1683
eder	-1684
egiella	-1685
▁berošt	-1686
▁följande	-1687
eamis	-1688
▁biddj	-1689
sbefolk	-1690
ars	-1691
▁plen	-1692
ira	-1693
▁áss	-1694
▁duođ	-1695
ortneg	-1696
▁beg	-1697
▁omfatt	-1698
▁stärka	-1699
▁stöd	-1700
roll	-1701
▁finnmárkku	-1702
-1	-1703
reg	-1704
▁árbev	-1705
pe	-1706
▁nsr	-1707
lávdego	-1708
▁inve	-1709
partemeantta	-1710
▁anser	-1711
splan	-1712
▁dieht	-1713
▁jul	-1714
▁rapor	-1715
▁oahppo	-1716
ordning	-1717
▁skydd	-1718
▁parlamentar	-1719
jan	-1720
▁håll	-1721
egillii	-1722
▁bedö	-1723
▁dušše	-1724
▁ruo	-1725
gád	-1726
▁dokum	-1727
ráig	-1728
▁vidare	-1729
▁ärendet	-1730
dall	-1731
▁ursprungsbefolk	-1732
erar	-1733
▁oaid	-1734
inst	-1735
oneavv	-1736
rušš	-1737
▁inneh	-1738
▁gávdn	-1739
▁kommittén	-1740
▁vuosttaš	-1741
uhtii	-1742
▁luon	-1743
▁guolást	-1744
▁2007	-1745
▁oaivv	-1746
▁större	-1747
▁befolkningen	-1748
▁1.	-1749
verk	-1750
▁mánáidgárdd	-1751
ŋgirušš	-1752
ode	-1753
▁bur	-1754
frå	-1755
▁antalet	-1756
▁jäm	-1757
ttad	-1758
▁jos	-1759
▁olbm	-1760
ráigeah	-1761
▁ansök	-1762
▁ellen	-1763
▁prošea	-1764
kč	-1765
▁anti	-1766
▁sitt	-1767
▁25	-1768
▁čuo	-1769
▁opp	-1770
▁bi	-1771
indust	-1772
hem	-1773
ki	-1774
gifter	-1775
vuoigat	-1776
▁berre	-1777
▁sámiid	-1778
org	-1779
▁boahtte	-1780
organis	-1781
øn	-1782
▁fast	-1783
ká	-1784
sti	-1785
ativ	-1786
ágan	-1787
▁allaskuv	-1788
▁ger	-1789
eavtta	-1790
▁oahpponeavv	-1791
▁oktasaš	-1792
ahttin	-1793
▁stuora	-1794
ektiv	-1795
▁intres	-1796
▁rekommend	-1797
▁säger	-1798
band	-1799
▁movt	-1800
ieđáhus	-1801
som	-1802
▁2000	-1803
▁strateg	-1804
▁tot	-1805
▁heiveh	-1806
ana	-1807
oavku	-1808
▁huv	-1809
▁även	-1810
ojuvvojit	-1811
emens	-1812
áhp	-1813
▁log	-1814
▁suodjal	-1815
området	-1816
▁säkerställa	-1817
▁riikkaid	-1818
▁bra	-1819
▁jur	-1820
odagas	-1821
opp	-1822
▁luondd	-1823
▁direkt	-1824
▁guor	-1825
▁nugo	-1826
▁nuor	-1827
amat	-1828
isson	-1829
▁kunna	-1830
▁seamm	-1831
ihkka	-1832
▁ruovtt	-1833
llud	-1834
▁las	-1835
▁badj	-1836
imus	-1837
▁nöd	-1838
▁siskk	-1839
▁vuost	-1840
dem	-1841
log	-1842
▁lassán	-1843
▁vuol	-1844
ásahus	-1845
bálval	-1846
gask	-1847
▁vuođđun	-1848
vår	-1849
▁báikkálaš	-1850
dre	-1851
▁sos	-1852
▁prin	-1853
▁eira	-1854
▁vad	-1855
sättning	-1856
bea	-1857
▁ga	-1858
▁makkár	-1859
▁gár	-1860
giel	-1861
▁eiseváldd	-1862
fálald	-1863
▁politihkalaš	-1864
▁inneb	-1865
jell	-1866
▁olgg	-1867
▁nupp	-1868
▁bidra	-1869
ášš	-1870
denter	-1871
▁centr	-1872
▁vuoll	-1873
▁ungdomar	-1874
▁eall	-1875
oritet	-1876
▁bargat	-1877
▁dessutom	-1878
▁ro	-1879
▁oas	-1880
▁nationella	-1881
▁mun	-1882
alávdego	-1883
skolan	-1884
▁utvecklingen	-1885
skuv	-1886
▁sida	-1887
▁fun	-1888
▁gym	-1889
▁bie	-1890
álaččat	-1891
▁företag	-1892
kom	-1893
▁sm	-1894
▁gemens	-1895
▁peder	-1896
ahkii	-1897
eapp	-1898
art	-1899
kn	-1900
ddji	-1901
▁nödvän	-1902
▁norggas	-1903
▁boazodoalu	-1904
▁förhållande	-1905
▁ođ	-1906
ekret	-1907
▁hea	-1908
▁visar	-1909
tog	-1910
▁tre	-1911
▁loahp	-1912
▁oaidn	-1913
ba	-1914
▁sámediggái	-1915
▁åter	-1916
▁nisson	-1917
bma	-1918
asto	-1919
▁innebär	-1920
/0	-1921
▁geain	-1922
▁kvinn	-1923
▁geatneg	-1924
▁198	-1925
▁folk	-1926
▁doaibma	-1927
ession	-1928
▁21	-1929
vä	-1930
kap	-1931
▁dii	-1932
▁badjel	-1933
▁finnmarks	-1934
▁krä	-1935
▁sosi	-1936
▁mihttom	-1937
▁ásahus	-1938
▁utveckla	-1939
idn	-1940
ogi	-1941
upmi	-1942
▁gaskkas	-1943
▁huvud	-1944
ili	-1945
▁dáv	-1946
aččaid	-1947
rev	-1948
sikt	-1949
▁konsult	-1950
▁parlamentariska	-1951
dje	-1952
▁dalle	-1953
▁regler	-1954
▁samråd	-1955
met	-1956
▁samband	-1957
räck	-1958
asm	-1959
ligare	-1960
▁juollud	-1961
▁juohke	-1962
juvvon	-1963
ábm	-1964
▁doarjaga	-1965
▁áŋgirušš	-1966
▁nä	-1967
▁syn	-1968
▁bukt	-1969
▁skyl	-1970
▁gymnas	-1971
▁gemensam	-1972
▁bestämm	-1973
▁bis	-1974
emus	-1975
▁geahčč	-1976
imii	-1977
▁beton	-1978
utt	-1979
▁atn	-1980
▁vir	-1981
ovn	-1982
▁tal	-1983
▁speci	-1984
gen	-1985
▁forts	-1986
stad	-1987
▁osl	-1988
amánu	-1989
earri	-1990
▁kontroll	-1991
▁stud	-1992
▁digit	-1993
▁undervis	-1994
▁kommunerna	-1995
▁riikkaidgask	-1996
ihit	-1997
op	-1998
ttá	-1999
▁bálval	-2000
ráigeahčč	-2001
tar	-2002
▁prof	-2003
nad	-2004
▁verksamhet	-2005
▁hálddahus	-2006
▁ytt	-2007
ligen	-2008
50	-2009
▁stortinget	-2010
emánu	-2011
▁industri	-2012
bbo	-2013
ámuš	-2014
ive	-2015
proš	-2016
räns	-2017
▁fága	-2018
▁hela	-2019
gir	-2020
▁plán	-2021
▁22	-2022
▁giellag	-2023
▁idag	-2024
▁affärs	-2025
▁eam	-2026
▁oaivvil	-2027
▁jordbruks	-2028
201	-2029
▁vel	-2030
idigt	-2031
▁sedan	-2032
ind	-2033
jag	-2034
▁administrativa	-2035
bas	-2036
mmoš	-2037
▁dadj	-2038
asj	-2039
▁förut	-2040
bmogiid	-2041
▁enlighet	-2042
▁sámegiella	-2043
▁muhtun	-2044
ges	-2045
▁organ	-2046
▁erenoamážit	-2047
99	-2048
▁27	-2049
▁ceal	-2050
▁miljö	-2051
▁siida	-2052
▁fördel	-2053
sför	-2054
ahallan	-2055
▁distrikt	-2056
▁geahč	-2057
tr	-2058
▁tidig	-2059
▁barggu	-2060
▁nuoraid	-2061
irjj	-2062
▁innehåll	-2063
▁sámediggeráđi	-2064
.10	-2065
kel	-2066
ändr	-2067
▁sihkkarastit	-2068
▁samma	-2069
ará	-2070
▁utv	-2071
rådet	-2072
▁bedöm	-2073
itel	-2074
▁dáb	-2075
▁meah	-2076
uvra	-2077
▁stora	-2078
▁offentliga	-2079
rie	-2080
▁drift	-2081
udd	-2082
▁of	-2083
▁ter	-2084
imat	-2085
▁skolan	-2086
oahpp	-2087
▁oro	-2088
uorgg	-2089
▁ollis	-2090
▁erenoamáš	-2091
▁eami	-2092
▁juollu	-2093
ätta	-2094
▁nannet	-2095
kav	-2096
▁eamiál	-2097
▁oss	-2098
▁skuvla	-2099
▁davvi	-2100
▁gitta	-2101
▁norsk	-2102
▁samhället	-2103
osaš	-2104
▁2016	-2105
▁geaž	-2106
iken	-2107
▁gust	-2108
▁árbevir	-2109
sst	-2110
▁dahkk	-2111
pass	-2112
▁skuvl	-2113
eaddjit	-2114
▁främ	-2115
▁läm	-2116
▁maj	-2117
▁meannu	-2118
nor	-2119
uovddáž	-2120
▁statisti	-2121
▁on	-2122
▁váldit	-2123
▁sju	-2124
▁ortn	-2125
ilis	-2126
▁stö	-2127
▁rapporten	-2128
pel	-2129
▁lull	-2130
eappot	-2131
▁ytter	-2132
juolggad	-2133
med	-2134
▁čál	-2135
grámma	-2136
▁ohcan	-2137
▁olles	-2138
▁dieđuid	-2139
ádat	-2140
▁2.	-2141
linj	-2142
žald	-2143
▁buoh	-2144
▁eanand	-2145
▁dasto	-2146
▁studenter	-2147
slagen	-2148
itn	-2149
änd	-2150
▁vuostá	-2151
▁renhållning	-2152
▁láh	-2153
▁lagen	-2154
ostnader	-2155
▁oassi	-2156
▁själv	-2157
▁sámegillii	-2158
▁njuolggadusaid	-2159
▁ytterligare	-2160
▁ruvn	-2161
▁addit	-2162
▁vård	-2163
▁maŋŋá	-2164
bukt	-2165
▁stivr	-2166
▁vuoruh	-2167
ater	-2168
▁inför	-2169
▁fy	-2170
▁utt	-2171
amm	-2172
▁máŋgga	-2173
idan	-2174
rapp	-2175
▁nivå	-2176
sh	-2177
▁skull	-2178
▁giela	-2179
▁čoahkking	-2180
▁romssa	-2181
▁ekonomalaš	-2182
orter	-2183
varande	-2184
▁behandl	-2185
▁tidigare	-2186
sliv	-2187
▁fas	-2188
▁reh	-2189
▁deltag	-2190
▁nil	-2191
▁čilg	-2192
▁bearráigeahčč	-2193
▁lean	-2194
▁väg	-2195
ege	-2196
▁div	-2197
▁bivd	-2198
▁eakt	-2199
▁bái	-2200
▁muđ	-2201
anu	-2202
industrin	-2203
lo	-2204
▁ind	-2205
▁2006	-2206
▁antal	-2207
▁rekommendation	-2208
▁beass	-2209
ces	-2210
▁sir	-2211
▁ožžot	-2212
▁pedersen	-2213
▁användningen	-2214
ttaid	-2215
▁bos	-2216
kommittén	-2217
agiid	-2218
▁fertejit	-2219
venš	-2220
jat	-2221
eddjiid	-2222
▁exem	-2223
▁skulle	-2224
▁eambbo	-2225
▁čielggad	-2226
iks	-2227
mmaid	-2228
tid	-2229
▁1999	-2230
förande	-2231
▁samtidigt	-2232
▁23	-2233
▁áššis	-2234
▁2001	-2235
▁godk	-2236
amuš	-2237
ioden	-2238
áide	-2239
ående	-2240
▁projektet	-2241
▁boahtteáig	-2242
▁geažil	-2243
▁relev	-2244
▁inklu	-2245
ppe	-2246
žžan	-2247
snitt	-2248
▁ident	-2249
syn	-2250
väg	-2251
▁th	-2252
▁behandling	-2253
▁nubb	-2254
▁árbevirolaš	-2255
▁arbeta	-2256
▁lö	-2257
almm	-2258
▁medel	-2259
▁2013	-2260
▁čállit	-2261
ug	-2262
▁lága	-2263
lev	-2264
▁pra	-2265
ekreter	-2266
ášj	-2267
adit	-2268
assen	-2269
imin	-2270
▁hjäl	-2271
▁olmmoš	-2272
▁sihkkarast	-2273
ánn	-2274
▁01	-2275
▁fil	-2276
ubl	-2277
skolor	-2278
▁čoahkkin	-2279
▁gj	-2280
ålla	-2281
tivra	-2282
▁nödvänd	-2283
klar	-2284
▁kárášj	-2285
▁inga	-2286
▁resurser	-2287
▁eftersom	-2288
ideami	-2289
▁separ	-2290
▁dieđih	-2291
▁kvinnor	-2292
▁uts	-2293
▁riktlinj	-2294
ji	-2295
▁semin	-2296
▁exempel	-2297
▁program	-2298
▁administr	-2299
▁produktion	-2300
▁čoahkkingirjj	-2301
▁högre	-2302
▁viktiga	-2303
▁förh	-2304
farande	-2305
▁forsknings	-2306
▁ark	-2307
álddaš	-2308
▁dainna	-2309
▁procent	-2310
▁guv	-2311
▁ansö	-2312
▁31	-2313
olbm	-2314
▁män	-2315
▁muđui	-2316
.00	-2317
▁föräl	-2318
ekreterare	-2319
ruktur	-2320
▁dieđáhus	-2321
for	-2322
▁sn	-2323
▁vissa	-2324
terna	-2325
▁planering	-2326
▁möjligt	-2327
▁änd	-2328
ferens	-2329
fl	-2330
atser	-2331
.12	-2332
ren	-2333
ahan	-2334
ssas	-2335
ssaid	-2336
▁almmuh	-2337
vens	-2338
▁siidu	-2339
▁politiska	-2340
ahtti	-2341
ašuvn	-2342
▁lång	-2343
▁mötes	-2344
▁vuoigatvuođaid	-2345
skott	-2346
uodjal	-2347
ders	-2348
▁eatn	-2349
▁göra	-2350
▁representant	-2351
sám	-2352
uss	-2353
▁publ	-2354
fin	-2355
▁buorre	-2356
▁punkt	-2357
▁erbjud	-2358
▁váikkuhit	-2359
ketd	-2360
yrelsen	-2361
uit	-2362
nads	-2363
▁anpass	-2364
▁gaskka	-2365
▁använda	-2366
▁bušeahtta	-2367
▁utmaningar	-2368
▁männ	-2369
skning	-2370
upp	-2371
▁fakt	-2372
▁roll	-2373
▁separat	-2374
▁tilldel	-2375
▁24	-2376
▁áiggi	-2377
▁lul	-2378
▁landst	-2379
fus	-2380
raf	-2381
▁ges	-2382
▁uppfölj	-2383
serna	-2384
▁oslo	-2385
▁fylkkas	-2386
▁sta	-2387
▁gulask	-2388
▁siiddus	-2389
▁marit	-2390
▁lokal	-2391
ionen	-2392
▁ovdamear	-2393
▁dáfus	-2394
árv	-2395
usive	-2396
▁tromsø	-2397
▁gulaskudd	-2398
ggi	-2399
▁seammás	-2400
▁jordbruk	-2401
▁diskut	-2402
▁duođašt	-2403
▁bestämmel	-2404
▁am	-2405
▁čájeha	-2406
▁00	-2407
rip	-2408
▁kulturarv	-2409
▁vállje	-2410
emat	-2411
▁bohcc	-2412
▁galgg	-2413
▁guovllus	-2414
▁doarjj	-2415
▁váttis	-2416
hang	-2417
fo	-2418
▁institutioner	-2419
ein	-2420
▁akt	-2421
igheterna	-2422
skommun	-2423
▁bargiid	-2424
▁kapitel	-2425
språk	-2426
▁fálald	-2427
▁árvvoštallat	-2428
asp	-2429
▁oahpahusa	-2430
▁šiehtadus	-2431
ojuvvui	-2432
▁renhållnings	-2433
gis	-2434
▁hen	-2435
gat	-2436
ohka	-2437
asjok	-2438
ddis	-2439
20	-2440
rras	-2441
delse	-2442
▁áiras	-2443
rapport	-2444
▁aktivitet	-2445
asta	-2446
tera	-2447
ánus	-2448
▁sa	-2449
▁math	-2450
▁mearkkaša	-2451
▁čoahkkingirjji	-2452
),	-2453
▁syft	-2454
▁guovdag	-2455
kit	-2456
▁máht	-2457
▁rámma	-2458
▁människ	-2459
▁čuovvovaš	-2460
ggus	-2461
▁lit	-2462
▁verk	-2463
▁čuovvol	-2464
if	-2465
áhn	-2466
▁kur	-2467
▁situ	-2468
▁gil	-2469
nes	-2470
▁mag	-2471
▁lärare	-2472
las	-2473
▁julev	-2474
▁sjuk	-2475
▁enskil	-2476
urg	-2477
▁sök	-2478
▁geass	-2479
mmar	-2480
▁livčč	-2481
▁karasjok	-2482
▁várre	-2483
▁presenter	-2484
▁ärende	-2485
▁álgoálbmot	-2486
▁gažald	-2487
▁mathis	-2488
▁fortfarande	-2489
emiid	-2490
▁sáme	-2491
▁lokala	-2492
ekti	-2493
▁rov	-2494
▁poas	-2495
jer	-2496
ultat	-2497
ideapmi	-2498
▁gieldda	-2499
▁rekry	-2500
▁elever	-2501
▁no	-2502
aska	-2503
edag	-2504
▁betal	-2505
umi	-2506
gána	-2507
aha	-2508
▁söder	-2509
▁prošeavtta	-2510
▁myndigheter	-2511
▁priv	-2512
▁unnit	-2513
▁inklusive	-2514
▁människor	-2515
▁40	-2516
▁sull	-2517
oahpahus	-2518
▁meannud	-2519
▁ordförande	-2520
usas	-2521
▁mielas	-2522
▁prošeakta	-2523
▁yr	-2524
▁ožžon	-2525
▁upprätt	-2526
▁hon	-2527
▁loh	-2528
▁dálá	-2529
▁is	-2530
.11	-2531
ånd	-2532
▁anställ	-2533
politihka	-2534
▁förvaltning	-2535
uovd	-2536
giv	-2537
mark	-2538
ttat	-2539
▁relat	-2540
▁oaivvilda	-2541
áb	-2542
▁förl	-2543
.5	-2544
▁deras	-2545
▁oassál	-2546
oalus	-2547
▁váhn	-2548
spolit	-2549
vuođain	-2550
▁guokte	-2551
▁galgga	-2552
▁már	-2553
ferán	-2554
▁konk	-2555
▁skuvlla	-2556
▁fylkkagiel	-2557
▁tor	-2558
▁26	-2559
▁doaimma	-2560
▁ođasm	-2561
▁lávdegotti	-2562
▁bevilj	-2563
▁28	-2564
utok	-2565
▁bel	-2566
sav	-2567
▁ty	-2568
▁dahk	-2569
▁bak	-2570
▁bures	-2571
utokein	-2572
▁ásahit	-2573
▁oainn	-2574
jár	-2575
▁oroh	-2576
ahttu	-2577
▁váldd	-2578
▁dihtii	-2579
vet	-2580
uitt	-2581
▁lika	-2582
▁doaimmaid	-2583
eringar	-2584
atnas	-2585
▁biras	-2586
▁sádde	-2587
th	-2588
edieđáhus	-2589
▁ollislaš	-2590
▁lávdegoddi	-2591
▁konta	-2592
▁sáhte	-2593
▁init	-2594
vik	-2595
▁váldo	-2596
▁vu	-2597
again	-2598
▁minister	-2599
osiid	-2600
▁lärar	-2601
▁joatkk	-2602
▁utanför	-2603
▁sisd	-2604
▁tillh	-2605
šiehtadus	-2606
▁nuv	-2607
▁svar	-2608
▁bef	-2609
minister	-2610
ovnna	-2611
lui	-2612
illi	-2613
amiin	-2614
▁egen	-2615
▁guovdagea	-2616
git	-2617
▁vä	-2618
▁olli	-2619
▁råds	-2620
200	-2621
▁37	-2622
▁pat	-2623
▁earenoam	-2624
▁gar	-2625
▁dáhp	-2626
ođiheaddji	-2627
isám	-2628
øndel	-2629
▁utarbet	-2630
ring	-2631
▁2017	-2632
▁ávkk	-2633
▁bargu	-2634
iehtadall	-2635
▁dárog	-2636
▁fn	-2637
▁fick	-2638
▁något	-2639
ärd	-2640
▁hav	-2641
▁johan	-2642
utokeino	-2643
▁kyr	-2644
▁mát	-2645
▁laht	-2646
▁sáhttit	-2647
eck	-2648
▁röst	-2649
isttar	-2650
pend	-2651
▁kulturen	-2652
jen	-2653
▁og	-2654
▁kust	-2655
▁skyld	-2656
lerna	-2657
alande	-2658
▁utbildnings	-2659
▁inkluder	-2660
aspir	-2661
▁bargo	-2662
▁guovddáž	-2663
▁joatkkaskuv	-2664
lagen	-2665
▁invest	-2666
▁saj	-2667
ralaš	-2668
usain	-2669
▁bety	-2670
▁star	-2671
ningarna	-2672
ember	-2673
▁inrätt	-2674
antta	-2675
▁boraspir	-2676
▁doal	-2677
▁sammanhang	-2678
asa	-2679
mear	-2680
▁bara	-2681
▁dásse	-2682
▁miner	-2683
▁äg	-2684
arbete	-2685
uovllu	-2686
▁plats	-2687
▁viidd	-2688
vändning	-2689
▁mearridit	-2690
rar	-2691
▁láhč	-2692
uta	-2693
▁va	-2694
områdena	-2695
iess	-2696
árrái	-2697
▁máŋga	-2698
▁ekonomiska	-2699
▁doaibmabijuid	-2700
mö	-2701
ievr	-2702
▁muital	-2703
▁förb	-2704
ond	-2705
▁ridd	-2706
mans	-2707
▁regering	-2708
unn	-2709
▁olggobealde	-2710
uorggis	-2711
nalaš	-2712
oallo	-2713
ättre	-2714
▁artih	-2715
▁čađahit	-2716
▁bättre	-2717
▁vilket	-2718
▁galggaš	-2719
▁enskilda	-2720
▁uppgifter	-2721
▁universitet	-2722
bir	-2723
▁strategi	-2724
▁går	-2725
▁hárrái	-2726
▁tabell	-2727
▁hábm	-2728
▁överg	-2729
▁mötesekreterare	-2730
▁gaskal	-2731
▁kautokeino	-2732
vaš	-2733
▁gus	-2734
irektor	-2735
▁váil	-2736
int	-2737
▁politik	-2738
xt	-2739
räd	-2740
▁åren	-2741
▁addá	-2742
▁dock	-2743
▁šaddá	-2744
▁handling	-2745
▁ovtt	-2746
▁stuorát	-2747
▁dokument	-2748
ørn	-2749
▁boar	-2750
▁profession	-2751
ára	-2752
entar	-2753
▁ändr	-2754
▁njuol	-2755
asti	-2756
ssystem	-2757
▁guorahall	-2758
▁39	-2759
eret	-2760
grun	-2761
▁dial	-2762
▁ovttaskas	-2763
▁árv	-2764
▁áirras	-2765
▁bil	-2766
▁rapporter	-2767
institution	-2768
evtt	-2769
▁fes	-2770
ahp	-2771
▁guovlluid	-2772
oavkku	-2773
▁olbmot	-2774
▁grunden	-2775
▁oahpu	-2776
▁värde	-2777
dal	-2778
▁os	-2779
ttiid	-2780
▁etab	-2781
▁bosätt	-2782
▁nationála	-2783
idj	-2784
fjell	-2785
lohku	-2786
▁gáibádus	-2787
▁regionala	-2788
▁finnmárkkus	-2789
▁haft	-2790
▁unders	-2791
▁då	-2792
fisk	-2793
▁namn	-2794
ástall	-2795
erejuvvon	-2796
▁mánát	-2797
▁eret	-2798
drag	-2799
▁öpp	-2800
ollui	-2801
▁staten	-2802
▁ovddidan	-2803
dat	-2804
ktor	-2805
▁artikel	-2806
▁197	-2807
derna	-2808
ektor	-2809
▁sáht	-2810
▁några	-2811
ideanta	-2812
▁sådana	-2813
▁tar	-2814
▁trä	-2815
iering	-2816
▁samråds	-2817
▁álbmoga	-2818
▁områdena	-2819
▁senaste	-2820
▁áigodagas	-2821
▁hálddašang	-2822
osa	-2823
▁eff	-2824
▁tel	-2825
kámuš	-2826
▁dábálaš	-2827
▁válga	-2828
amn	-2829
▁resultat	-2830
▁ovttasbargo	-2831
uella	-2832
▁tillg	-2833
▁beaivvi	-2834
▁sadj	-2835
▁tur	-2836
imuš	-2837
▁2004	-2838
deaddji	-2839
its	-2840
čáll	-2841
▁intressen	-2842
ås	-2843
▁avsl	-2844
▁buori	-2845
atte	-2846
▁john	-2847
▁ämnen	-2848
▁njuolggadusat	-2849
▁..	-2850
▁29	-2851
ortnega	-2852
anter	-2853
▁tekn	-2854
▁brans	-2855
▁rätts	-2856
▁rádjai	-2857
▁statliga	-2858
▁ná	-2859
▁gaska	-2860
▁bidjat	-2861
▁ráđđehusa	-2862
▁siskkobealde	-2863
▁ruoŧ	-2864
▁persp	-2865
kter	-2866
mmah	-2867
▁närvarande	-2868
▁3.	-2869
▁förändr	-2870
tor	-2871
-200	-2872
▁jienastus	-2873
▁vah	-2874
▁läro	-2875
▁inhem	-2876
▁geavaheami	-2877
▁renhållningen	-2878
ider	-2879
▁...	-2880
ista	-2881
emiin	-2882
▁medl	-2883
juvvo	-2884
▁09	-2885
iikk	-2886
▁mis	-2887
▁skick	-2888
ripande	-2889
▁samhällen	-2890
▁riktlinjer	-2891
oende	-2892
▁inled	-2893
▁sámegielat	-2894
▁departemeanta	-2895
ac	-2896
iote	-2897
he	-2898
▁jagis	-2899
▁oažžu	-2900
▁varje	-2901
▁stuorradig	-2902
▁egil	-2903
▁vaikk	-2904
▁tjänster	-2905
vär	-2906
oass	-2907
▁fitn	-2908
▁presi	-2909
▁gusket	-2910
ex	-2911
mär	-2912
▁eroh	-2913
ies	-2914
▁kulturmuit	-2915
▁läns	-2916
barggu	-2917
.05	-2918
iggá	-2919
▁hand	-2920
rument	-2921
▁fiske	-2922
▁perioden	-2923
▁fortsätta	-2924
▁sámegielas	-2925
▁vuoigatvuohta	-2926
▁dialog	-2927
anlávdego	-2928
äck	-2929
▁henri	-2930
▁läroplan	-2931
öv	-2932
aly	-2933
ity	-2934
illkor	-2935
▁ortneg	-2936
evttoh	-2937
▁möten	-2938
▁fe	-2939
deapmái	-2940
projekt	-2941
▁ráhkad	-2942
▁100	-2943
iativ	-2944
▁huksen	-2945
idrag	-2946
▁aren	-2947
▁oačč	-2948
ekvens	-2949
▁sub	-2950
▁tyd	-2951
▁överför	-2952
iff	-2953
emii	-2954
▁ilo	-2955
▁geav	-2956
▁boahtá	-2957
atten	-2958
▁dákkár	-2959
resur	-2960
▁dálkk	-2961
▁oktiib	-2962
▁geatnegas	-2963
▁máná	-2964
▁guoht	-2965
▁gielda	-2966
esam	-2967
▁defin	-2968
▁unnán	-2969
▁villkor	-2970
tok	-2971
umit	-2972
▁bes	-2973
▁indiv	-2974
▁500	-2975
▁princi	-2976
förvalt	-2977
ideapmái	-2978
▁háliida	-2979
▁ovttasbargu	-2980
▁samel	-2981
▁deattuh	-2982
▁dievasčoahkkin	-2983
mmat	-2984
▁totalt	-2985
▁beaiv	-2986
▁skapa	-2987
villkor	-2988
▁oktiibuot	-2989
▁ökad	-2990
▁ruđaid	-2991
▁upplev	-2992
▁áššiid	-2993
▁girjj	-2994
▁riev	-2995
▁internationella	-2996
emis	-2997
áhkk	-2998
▁dadjá	-2999
angaska	-3000
▁oassin	-3001
▁bál	-3002
iváld	-3003
skydd	-3004
▁viidáseappot	-3005
plán	-3006
▁kulturella	-3007
▁fått	-3008
▁mand	-3009
▁dásis	-3010
▁stycket	-3011
fte	-3012
▁doppe	-3013
sih	-3014
uni	-3015
ce	-3016
age	-3017
▁lig	-3018
▁andel	-3019
▁antog	-3020
cka	-3021
▁medan	-3022
▁fastställ	-3023
▁dárbbašlaš	-3024
▁omfattande	-3025
osat	-3026
▁hálddašan	-3027
▁servodagas	-3028
beal	-3029
▁alit	-3030
▁public	-3031
▁mann	-3032
▁guolástus	-3033
▁industrier	-3034
▁ráhkadit	-3035
▁vuođđoskuv	-3036
adan	-3037
anda	-3038
▁sak	-3039
▁dili	-3040
▁allmänhet	-3041
▁medle	-3042
▁jahkái	-3043
▁föräldr	-3044
▁riikkas	-3045
▁mielddis	-3046
▁lo	-3047
ksen	-3048
▁2018	-3049
▁por	-3050
▁musea	-3051
▁mötet	-3052
skommittén	-3053
eahtt	-3054
▁innan	-3055
▁guovllu	-3056
ny	-3057
atet	-3058
pråk	-3059
▁váid	-3060
▁dahkat	-3061
▁áigum	-3062
uovllus	-3063
▁framt	-3064
▁ställ	-3065
▁behovet	-3066
▁gå	-3067
ventionen	-3068
sprogram	-3069
▁olbmuid	-3070
▁ovddast	-3071
▁systemet	-3072
▁konsekvens	-3073
dast	-3074
raft	-3075
▁avs	-3076
rätta	-3077
umiid	-3078
▁sver	-3079
▁ansökan	-3080
▁nuvarande	-3081
pr	-3082
pen	-3083
▁södra	-3084
gruppen	-3085
▁nordland	-3086
.03	-3087
logu	-3088
ställd	-3089
▁proseass	-3090
▁traditionell	-3091
▁traditionella	-3092
▁fylkk	-3093
▁regional	-3094
▁gá	-3095
▁nödvändigt	-3096
ddje	-3097
▁bek	-3098
bealla	-3099
▁tillgäng	-3100
▁doaibmabijut	-3101
▁váikkuhangaska	-3102
vi	-3103
tokoll	-3104
atta	-3105
▁resurs	-3106
▁kvalitet	-3107
▁vejolašvuođa	-3108
kal	-3109
▁girk	-3110
▁buvttad	-3111
▁instrument	-3112
▁inv	-3113
bud	-3114
▁bá	-3115
▁kesk	-3116
▁keskital	-3117
▁geir	-3118
▁mång	-3119
▁yrkes	-3120
▁kommentar	-3121
▁landsting	-3122
▁guovdageainn	-3123
▁kor	-3124
▁skolor	-3125
lán	-3126
ienna	-3127
uovlluin	-3128
▁används	-3129
▁oahppit	-3130
▁övergripande	-3131
vuođad	-3132
▁čujuh	-3133
ningens	-3134
▁mearriduvvon	-3135
▁buvtta	-3136
▁hänvis	-3137
▁jagiid	-3138
▁mienna	-3139
ölja	-3140
▁gávp	-3141
smedel	-3142
▁davvir	-3143
▁national	-3144
ávcc	-3145
▁kir	-3146
▁dohk	-3147
▁lohku	-3148
ingarna	-3149
politihkalaš	-3150
đis	-3151
▁rö	-3152
iskka	-3153
örer	-3154
eamos	-3155
▁jämställd	-3156
▁keskitalo	-3157
lag	-3158
▁produ	-3159
▁endast	-3160
▁avsnitt	-3161
▁kontakt	-3162
▁sosiála	-3163
▁sámediggej	-3164
▁personer	-3165
oluo	-3166
assii	-3167
▁annan	-3168
bellodaga	-3169
▁gutt	-3170
▁jämställdhet	-3171
øy	-3172
▁gr	-3173
▁buhta	-3174
▁rehketd	-3175
▁iešguđetl	-3176
▁mearkkašupmi	-3177
▁danin	-3178
▁mearridan	-3179
▁boaht	-3180
▁gaskk	-3181
▁regionála	-3182
ojedje	-3183
sammans	-3184
▁social	-3185
dikk	-3186
eskriv	-3187
▁guttorm	-3188
.)	-3189
▁fråga	-3190
▁tabealla	-3191
akk	-3192
ilje	-3193
▁gii	-3194
▁gear	-3195
▁gieđ	-3196
trøndel	-3197
ina	-3198
▁mari	-3199
ojuohk	-3200
▁tillsammans	-3201
▁egna	-3202
▁vear	-3203
▁kommitté	-3204
▁tillgång	-3205
▁geog	-3206
▁följa	-3207
aštall	-3208
ejuvvo	-3209
▁guovtti	-3210
hild	-3211
ror	-3212
▁aili	-3213
▁joht	-3214
▁tjän	-3215
sätter	-3216
▁sociala	-3217
▁lös	-3218
▁jurid	-3219
▁gullet	-3220
▁framtida	-3221
▁dom	-3222
▁klimat	-3223
▁syftet	-3224
▁kultuvra	-3225
▁kárášjog	-3226
▁duohta	-3227
dera	-3228
känn	-3229
▁ener	-3230
▁čájehit	-3231
sak	-3232
ašuvdna	-3233
▁duodje	-3234
▁mindre	-3235
▁gelbbolašvuođa	-3236
▁fem	-3237
▁goh	-3238
▁tro	-3239
our	-3240
best	-3241
▁ráv	-3242
heter	-3243
sy	-3244
stift	-3245
▁buoret	-3246
lága	-3247
▁ovdamearkka	-3248
▁1,	-3249
lätta	-3250
▁meahcc	-3251
▁underlätta	-3252
▁organisation	-3253
faren	-3254
▁2014	-3255
▁sprid	-3256
▁mánáidgárde	-3257
stol	-3258
▁gill	-3259
▁styr	-3260
▁mater	-3261
▁minst	-3262
▁ipm	-3263
ierpm	-3264
▁rätten	-3265
▁dilálaš	-3266
ivt	-3267
▁1000	-3268
▁juni	-3269
elas	-3270
▁dáin	-3271
olaččat	-3272
▁uppföljning	-3273
råd	-3274
áss	-3275
▁sv	-3276
▁jordbruket	-3277
▁šiehtadall	-3278
ty	-3279
.09	-3280
usaide	-3281
▁ingen	-3282
▁rievtt	-3283
▁blir	-3284
▁uppn	-3285
oarjaga	-3286
▁minsk	-3287
▁finland	-3288
▁invester	-3289
▁ovttasbarggu	-3290
rad	-3291
red	-3292
▁cir	-3293
▁2019	-3294
suodjal	-3295
▁utskott	-3296
ibm	-3297
▁landet	-3298
▁föreslår	-3299
▁skuvllas	-3300
▁ruovttoluo	-3301
▁dáhpáh	-3302
▁gulahall	-3303
ápm	-3304
▁goa	-3305
▁siv	-3306
tiden	-3307
▁lohk	-3308
▁valk	-3309
▁bajás	-3310
▁birras	-3311
▁beassat	-3312
▁kommunen	-3313
▁livsmedel	-3314
▁kultuvrralaš	-3315
▁vejolašvuohta	-3316
uvvan	-3317
negiid	-3318
▁kruvn	-3319
▁bargoj	-3320
▁miljovnna	-3321
▁minoritet	-3322
hus	-3323
▁2015	-3324
oarjja	-3325
▁säkra	-3326
öj	-3327
alan	-3328
mmet	-3329
▁lön	-3330
▁pol	-3331
▁arkt	-3332
oahpahusa	-3333
prográmma	-3334
imusat	-3335
▁hållbar	-3336
departemeanta	-3337
rel	-3338
▁betes	-3339
▁sullii	-3340
▁vuođđud	-3341
▁säkerställ	-3342
▁?	-3343
▁tana	-3344
birras	-3345
▁delar	-3346
▁fisker	-3347
▁ohppiid	-3348
▁35	-3349
▁2002	-3350
ikation	-3351
▁sápmelaččaid	-3352
▁administration	-3353
▁internationell	-3354
djur	-3355
stånd	-3356
▁målet	-3357
▁renar	-3358
▁instit	-3359
hr	-3360
▁rad	-3361
▁avgör	-3362
▁förstå	-3363
▁livččii	-3364
▁mánáide	-3365
▁eavttuid	-3366
▁samernas	-3367
ied	-3368
ágas	-3369
▁čalmm	-3370
▁förvän	-3371
▁vaikko	-3372
▁reglerna	-3373
amin	-3374
ejuvvot	-3375
▁oaidná	-3376
▁dárogiel	-3377
▁deltagande	-3378
▁láhkaásahus	-3379
▁särskilda	-3380
▁allaskuvla	-3381
ehus	-3382
sträck	-3383
▁lulesam	-3384
▁fáll	-3385
▁servodaga	-3386
blem	-3387
sámi	-3388
eavde	-3389
uvrra	-3390
▁post	-3391
▁doa	-3392
▁fápm	-3393
edagog	-3394
uorggi	-3395
▁areál	-3396
▁någon	-3397
iht	-3398
▁begär	-3399
▁näring	-3400
venšuvnna	-3401
▁statistih	-3402
▁års	-3403
▁muot	-3404
▁sámel	-3405
▁antogs	-3406
▁erfaren	-3407
-201	-3408
.06	-3409
prose	-3410
▁läng	-3411
▁mearr	-3412
▁arbetar	-3413
▁bakgrun	-3414
▁diht	-3415
uvvojedje	-3416
▁vuoigatvuođ	-3417
uđot	-3418
bliote	-3419
▁analy	-3420
▁doall	-3421
▁vilka	-3422
▁jođiheaddji	-3423
nn	-3424
amit	-3425
iffror	-3426
▁bransch	-3427
ávss	-3428
▁alta	-3429
▁álgoálbmogiid	-3430
▁rávv	-3431
avtalet	-3432
skon	-3433
▁krav	-3434
vuhtii	-3435
▁avtal	-3436
▁dávjá	-3437
▁kräver	-3438
▁vuhtii	-3439
▁aina	-3440
▁ofta	-3441
▁namuh	-3442
▁rekrytering	-3443
▁äl	-3444
gái	-3445
sträckning	-3446
▁kommitténs	-3447
▁universitehta	-3448
fjord	-3449
▁ökat	-3450
▁delta	-3451
▁sápmelaččat	-3452
▁utsträckning	-3453
.000	-3454
▁akti	-3455
erades	-3456
▁muotka	-3457
▁barggus	-3458
nar	-3459
pek	-3460
▁od	-3461
etge	-3462
emang	-3463
▁barent	-3464
▁undersök	-3465
ila	-3466
▁plenar	-3467
eavdegir	-3468
▁användas	-3469
▁dásseárv	-3470
sfr	-3471
▁sus	-3472
▁prinsih	-3473
▁sökande	-3474
▁ansöknings	-3475
▁mielddisbukt	-3476
▁43	-3477
bbas	-3478
▁goz	-3479
▁čakč	-3480
▁sverige	-3481
▁by	-3482
▁guđ	-3483
▁uppfy	-3484
▁gulaskuddan	-3485
ejit	-3486
iter	-3487
eann	-3488
▁medi	-3489
▁betyd	-3490
▁påpek	-3491
▁nytt	-3492
▁protokoll	-3493
▁oahppoplána	-3494
går	-3495
iellan	-3496
▁nuppi	-3497
odagaid	-3498
▁evttohusa	-3499
▁gov	-3500
▁geas	-3501
olbmuid	-3502
nhild	-3503
šuvdna	-3504
▁finnas	-3505
▁dálkkádat	-3506
▁boazodoallu	-3507
▁ávžž	-3508
▁máhttu	-3509
▁historjj	-3510
▁ruovttoluotta	-3511
af	-3512
rutt	-3513
ttii	-3514
eaddjin	-3515
▁čujuha	-3516
ada	-3517
tival	-3518
rievtt	-3519
▁guovl	-3520
▁oktavuođa	-3521
▁kulturminn	-3522
▁ansökningar	-3523
▁vuoigatvuođat	-3524
ráf	-3525
kast	-3526
▁met	-3527
arvái	-3528
▁ledam	-3529
asis	-3530
▁sea	-3531
ttiin	-3532
▁datt	-3533
▁veal	-3534
▁doarvái	-3535
▁förslaget	-3536
aset	-3537
▁láv	-3538
▁sird	-3539
▁riekte	-3540
▁dattetge	-3541
erema	-3542
▁kommentarer	-3543
▁áigumuš	-3544
otn	-3545
ssam	-3546
ášii	-3547
▁red	-3548
isten	-3549
▁betydelse	-3550
▁juolludus	-3551
alávdegotti	-3552
iiva	-3553
▁språ	-3554
▁miell	-3555
▁ovddasvástádusa	-3556
▁fágalaš	-3557
▁loahpah	-3558
▁lagstift	-3559
▁undervisning	-3560
▁van	-3561
etter	-3562
▁biss	-3563
▁amund	-3564
▁representanter	-3565
▁sør	-3566
▁guovtt	-3567
ašuvnnaid	-3568
▁vuoigatvuođa	-3569
ango	-3570
▁norr	-3571
▁kraft	-3572
▁ruvnno	-3573
▁fylkkasuohkan	-3574
.02	-3575
▁dec	-3576
▁fuo	-3577
▁förm	-3578
▁special	-3579
▁bidraget	-3580
▁gymnasie	-3581
.6	-3582
tiin	-3583
▁dáidd	-3584
▁bargos	-3585
▁anställda	-3586
▁kostnader	-3587
▁relaterade	-3588
gui	-3589
▁sed	-3590
▁fuolahus	-3591
of	-3592
▁ev	-3593
išuvnna	-3594
▁stipend	-3595
evál	-3596
▁ceav	-3597
▁fievr	-3598
▁begräns	-3599
▁beavdegir	-3600
▁(1	-3601
esta	-3602
▁orgána	-3603
uovlluid	-3604
▁regeringens	-3605
▁funktion	-3606
▁majoritet	-3607
oten	-3608
sper	-3609
▁utn	-3610
▁gjort	-3611
▁kulturmuitt	-3612
▁dilli	-3613
åtgärder	-3614
gr	-3615
kil	-3616
ddái	-3617
▁gener	-3618
punkt	-3619
▁jear	-3620
▁deaivv	-3621
▁följer	-3622
▁jämför	-3623
▁guoskevaš	-3624
han	-3625
▁södersamiska	-3626
jet	-3627
▁resp	-3628
▁sáhka	-3629
▁vuođđu	-3630
ašuvnnat	-3631
▁árvalus	-3632
mann	-3633
▁överväg	-3634
ryck	-3635
▁dul	-3636
▁ruđat	-3637
injođih	-3638
▁háliidit	-3639
▁strategiij	-3640
▁diehtojuohk	-3641
▁finansiering	-3642
alj	-3643
ienter	-3644
▁godkän	-3645
▁centrala	-3646
▁čoahkkimis	-3647
▁doll	-3648
▁neah	-3649
▁inkom	-3650
ledning	-3651
▁golbma	-3652
▁sáhkav	-3653
▁áššiin	-3654
bmab	-3655
▁fam	-3656
▁ste	-3657
proseass	-3658
▁etabler	-3659
▁iešguđetlágan	-3660
iod	-3661
kning	-3662
▁joavkk	-3663
▁veahkk	-3664
▁digaštall	-3665
▁sáhkavuor	-3666
▁fyra	-3667
▁statens	-3668
ings	-3669
växt	-3670
▁far	-3671
rimin	-3672
▁avdel	-3673
▁poasta	-3674
▁sektor	-3675
▁bedömning	-3676
▁golmma	-3677
▁ek	-3678
ttag	-3679
▁máil	-3680
▁lärom	-3681
▁njied	-3682
▁förber	-3683
lá	-3684
▁ål	-3685
alto	-3686
institutioner	-3687
▁lun	-3688
▁göras	-3689
program	-3690
▁läromedel	-3691
▁hástalusat	-3692
▁siffror	-3693
▁förhandling	-3694
mer	-3695
uhttin	-3696
▁moder	-3697
▁muhtin	-3698
edig	-3699
folk	-3700
▁inhemska	-3701
▁gulahallan	-3702
vs	-3703
▁jfr	-3704
idjiide	-3705
etenskap	-3706
▁maŋimuš	-3707
▁utvärder	-3708
▁möjligheter	-3709
▁nrk	-3710
imiid	-3711
▁fann	-3712
▁baserat	-3713
alávdegoddi	-3714
▁ned	-3715
▁valkret	-3716
▁meannudeapmi	-3717
▁mávss	-3718
▁party	-3719
▁uppnå	-3720
▁organisationer	-3721
▁lev	-3722
rifter	-3723
▁anges	-3724
ker	-3725
vva	-3726
▁uh	-3727
finn	-3728
▁lađđ	-3729
alen	-3730
yrels	-3731
▁handlingsplan	-3732
ove	-3733
▁thom	-3734
▁redan	-3735
igheten	-3736
▁framtiden	-3737
mas	-3738
åra	-3739
▁gč	-3740
▁im	-3741
▁mig	-3742
▁nav	-3743
▁dieđut	-3744
▁guhkes	-3745
▁heaitt	-3746
▁buhtadus	-3747
▁nationell	-3748
bygg	-3749
onden	-3750
▁febru	-3751
▁statsb	-3752
▁förbätt	-3753
▁mihttomearri	-3754
,5	-3755
.200	-3756
▁169	-3757
▁jorg	-3758
alágan	-3759
▁rolla	-3760
▁lágiin	-3761
▁specif	-3762
▁galggašii	-3763
▁identitet	-3764
▁situationen	-3765
röst	-3766
oahpah	-3767
▁33	-3768
ehit	-3769
▁biebm	-3770
▁báiken	-3771
▁februari	-3772
/-	-3773
abour	-3774
▁ollaš	-3775
▁bargui	-3776
▁bohtet	-3777
▁största	-3778
bo	-3779
▁and	-3780
áhttu	-3781
▁mieh	-3782
▁nämn	-3783
▁lämna	-3784
▁vásih	-3785
0-	-3786
▁etn	-3787
▁olu	-3788
▁ovddiduvvon	-3789
urggiin	-3790
▁lassánan	-3791
▁meroštall	-3792
oaht	-3793
▁eget	-3794
uovddáš	-3795
▁eaiggá	-3796
▁kapihtt	-3797
▁oppalaš	-3798
▁initiativ	-3799
▁32	-3800
▁mánn	-3801
▁ceavz	-3802
▁gelbbolašvuohta	-3803
amål	-3804
▁dien	-3805
▁norges	-3806
▁bušeahtas	-3807
▁beavdegirj	-3808
▁resurssaid	-3809
▁2.1	-3810
▁mots	-3811
abas	-3812
▁inl	-3813
▁psy	-3814
▁tomm	-3815
eahttun	-3816
ásahusa	-3817
▁romssas	-3818
▁kulturell	-3819
▁doaimmat	-3820
▁president	-3821
▁eamiálbmot	-3822
▁pa	-3823
▁norra	-3824
▁nuorat	-3825
▁slutför	-3826
▁grundval	-3827
▁inkluderar	-3828
up	-3829
kten	-3830
ller	-3831
▁lin	-3832
▁duogá	-3833
▁láhkai	-3834
jur	-3835
▁47	-3836
heim	-3837
▁mearrádusaid	-3838
áhc	-3839
▁ob	-3840
▁čohkk	-3841
▁funger	-3842
▁sosiál	-3843
▁artihkk	-3844
▁kulturminnen	-3845
dá	-3846
esur	-3847
hjäl	-3848
▁ohcc	-3849
arbetet	-3850
▁omröst	-3851
▁totala	-3852
ahálddaš	-3853
eavttuid	-3854
▁oahpponeavvuid	-3855
uma	-3856
▁sápmi	-3857
▁museum	-3858
▁álggahit	-3859
ebut	-3860
ktyg	-3861
vuđot	-3862
▁balto	-3863
išuvdna	-3864
▁čuovvul	-3865
▁prošeakt	-3866
isa	-3867
deamis	-3868
▁láhčit	-3869
eddjiide	-3870
▁avtalet	-3871
▁central	-3872
▁ávkkástall	-3873
žžu	-3874
till	-3875
givare	-3876
amen	-3877
ddas	-3878
ekon	-3879
iikkalaš	-3880
ktivitet	-3881
▁näringsliv	-3882
▁departemeantta	-3883
8.	-3884
alit	-3885
▁små	-3886
▁kopp	-3887
▁nils	-3888
▁deltog	-3889
ologiija	-3890
▁mearriduvvui	-3891
▁kå	-3892
▁196	-3893
uvtta	-3894
▁guovv	-3895
eallima	-3896
▁henrik	-3897
▁hänsyn	-3898
▁čielgas	-3899
▁parterna	-3900
mo	-3901
ašun	-3902
▁sky	-3903
▁helt	-3904
▁fanns	-3905
▁ärenden	-3906
▁överens	-3907
▁čalmmust	-3908
▁lulesamiska	-3909
igg	-3910
▁beräk	-3911
iduvvon	-3912
ssat	-3913
▁ala	-3914
teami	-3915
▁hitt	-3916
▁silje	-3917
▁flesta	-3918
alisering	-3919
▁innov	-3920
▁gemensamma	-3921
▁university	-3922
iggád	-3923
áhter	-3924
▁tove	-3925
▁mänsk	-3926
▁tommy	-3927
▁rádjái	-3928
▁fylkkam	-3929
▁stn	-3930
oahpu	-3931
▁dutkama	-3932
▁rovdjur	-3933
▁eur	-3934
▁gran	-3935
▁oktii	-3936
▁lohkan	-3937
ošiehtadus	-3938
namn	-3939
▁kost	-3940
laččat	-3941
▁giellaguovddáž	-3942
▁rr	-3943
▁rum	-3944
ism	-3945
kar	-3946
▁02	-3947
▁34	-3948
▁pas	-3949
ahttá	-3950
▁skill	-3951
▁nuppást	-3952
lohk	-3953
rott	-3954
gádus	-3955
▁vuollái	-3956
▁prográmma	-3957
bargu	-3958
▁höll	-3959
▁revis	-3960
ologalaš	-3961
▁cealkámuš	-3962
▁heivehuvvon	-3963
vej	-3964
▁4.	-3965
iera	-3966
ámus	-3967
▁lik	-3968
▁fört	-3969
▁ön	-3970
ovår	-3971
▁åtg	-3972
▁vars	-3973
▁trine	-3974
▁amundsen	-3975
▁gieđahall	-3976
▁rättsliga	-3977
▁viktigaste	-3978
mål	-3979
▁juog	-3980
áštall	-3981
▁máilmm	-3982
▁skydda	-3983
▁skickas	-3984
▁bj	-3985
naden	-3986
▁inrätta	-3987
▁socialt	-3988
▁föräldrar	-3989
injođihango	-3990
ža	-3991
eak	-3992
▁nät	-3993
▁šatt	-3994
iduvvo	-3995
▁skrift	-3996
▁digitála	-3997
olága	-3998
▁goll	-3999
▁čovd	-4000
eavttut	-4001
▁tillräck	-4002
▁ry	-4003
gift	-4004
cker	-4005
tade	-4006
▁fádd	-4007
▁maŋŋil	-4008
▁proces	-4009
när	-4010
inar	-4011
grámm	-4012
▁full	-4013
▁mikk	-4014
▁svår	-4015
▁företräd	-4016
amp	-4017
▁event	-4018
resurser	-4019
▁kultuvrii	-4020
▁samarbetsav	-4021
▁hem	-4022
▁roy	-4023
▁tag	-4024
▁arkiv	-4025
▁media	-4026
▁integr	-4027
ober	-4028
andah	-4029
▁marie	-4030
▁sohka	-4031
▁språkcent	-4032
ovis	-4033
▁mångf	-4034
▁ruvdn	-4035
▁förhållanden	-4036
ddu	-4037
ušš	-4038
▁04	-4039
dikki	-4040
frågor	-4041
▁antag	-4042
vejolaš	-4043
▁barents	-4044
▁sámedigge	-4045
ep	-4046
▁36	-4047
ušeah	-4048
▁behöver	-4049
▁oaidnit	-4050
▁eiseválddit	-4051
-,	-4052
iŋ	-4053
inor	-4054
▁šad	-4055
ortnet	-4056
▁aktivt	-4057
▁anders	-4058
▁eallin	-4059
▁fuolahit	-4060
▁aktiviteter	-4061
▁vux	-4062
▁láhk	-4063
ediggi	-4064
▁cirka	-4065
amiidda	-4066
▁gáibidit	-4067
▁jahkásaš	-4068
▁avgörande	-4069
▁eahp	-4070
▁oahpaheaddji	-4071
kin	-4072
điid	-4073
andel	-4074
▁miess	-4075
▁ökning	-4076
▁doaibmag	-4077
▁viidáset	-4078
di	-4079
/10	-4080
áldu	-4081
▁masa	-4082
▁hástalus	-4083
elser	-4084
ioner	-4085
▁privat	-4086
▁doaibmad	-4087
politihkka	-4088
adea	-4089
▁sex	-4090
▁nubbi	-4091
▁oktav	-4092
fálaldaga	-4093
▁álbmogii	-4094
▁we	-4095
earvv	-4096
bidrag	-4097
bmabij	-4098
▁čuogg	-4099
▁själva	-4100
atsen	-4101
eahttá	-4102
▁fjord	-4103
▁minska	-4104
▁nordsamiska	-4105
▁jienasteapmi	-4106
▁fo	-4107
▁tolk	-4108
▁året	-4109
▁demok	-4110
▁plenars	-4111
▁gielddaid	-4112
▁ändringar	-4113
▁hástalusaid	-4114
uhti	-4115
▁2003	-4116
▁nära	-4117
▁gaski	-4118
▁veahk	-4119
ettiin	-4120
▁utgör	-4121
▁genomföra	-4122
▁medlemmar	-4123
arsen	-4124
skola	-4125
▁spel	-4126
olbmot	-4127
▁lundd	-4128
▁norga	-4129
▁vatten	-4130
läggande	-4131
▁koll	-4132
▁meddel	-4133
eskrifter	-4134
▁utvecklas	-4135
▁mihttomear	-4136
departemeantta	-4137
áŋ	-4138
cess	-4139
ddus	-4140
eannu	-4141
▁sara	-4142
▁kunde	-4143
▁buoridit	-4144
▁mearrádusa	-4145
▁grundläggande	-4146
idno	-4147
▁dor	-4148
▁dovdd	-4149
▁pasie	-4150
elasáhus	-4151
▁behandlas	-4152
igen	-4153
▁värl	-4154
▁lasihit	-4155
▁sámelága	-4156
▁myndigheterna	-4157
đus	-4158
▁fig	-4159
▁grän	-4160
▁doaibmaplána	-4161
▁bli	-4162
▁árbed	-4163
▁karine	-4164
▁perman	-4165
▁studie	-4166
▁sámediggejoavku	-4167
gel	-4168
uvvá	-4169
▁mass	-4170
▁påver	-4171
bju	-4172
til	-4173
▁5.	-4174
▁oan	-4175
andda	-4176
pmedel	-4177
▁márkan	-4178
▁sådant	-4179
▁relevanta	-4180
▁strategier	-4181
▁samisktalande	-4182
▁nou	-4183
kalaš	-4184
▁oahppi	-4185
isámegiel	-4186
▁ovdáneami	-4187
▁utskottet	-4188
juolggadusat	-4189
▁bag	-4190
ovdán	-4191
▁oaiv	-4192
▁repl	-4193
▁klass	-4194
▁stude	-4195
bestämm	-4196
▁ligger	-4197
▁joatkka	-4198
prošeavtta	-4199
▁konferens	-4200
tif	-4201
▁kart	-4202
▁linje	-4203
sprojekt	-4204
▁kommunikation	-4205
odling	-4206
▁ráđđi	-4207
▁allmänna	-4208
bin	-4209
eld	-4210
▁em	-4211
tiver	-4212
áiggi	-4213
▁sidan	-4214
▁geavaheapmi	-4215
ierna	-4216
under	-4217
▁báik	-4218
▁luoh	-4219
asvuođa	-4220
▁bidrar	-4221
▁termin	-4222
▁centrum	-4223
▁mánáidsuodjal	-4224
älj	-4225
iivv	-4226
▁rör	-4227
ažžan	-4228
▁ortnega	-4229
▁julevsám	-4230
▁tog	-4231
▁lasih	-4232
▁musik	-4233
▁ansvarar	-4234
▁ealáhusaid	-4235
▁earenoamáš	-4236
jagi	-4237
▁čoav	-4238
▁hjälp	-4239
▁oktan	-4240
▁ramvillkor	-4241
▁sámedikkiin	-4242
.04	-4243
jon	-4244
▁ly	-4245
berg	-4246
uopm	-4247
árbb	-4248
▁nje	-4249
▁tas	-4250
▁evttoha	-4251
▁pedagog	-4252
uda	-4253
elsen	-4254
▁haga	-4255
▁äldre	-4256
▁daidda	-4257
▁främja	-4258
▁princip	-4259
▁geassemánu	-4260
ppl	-4261
▁ingår	-4262
▁magga	-4263
▁áibbas	-4264
▁domstol	-4265
▁kvalitehta	-4266
▁förvaltningen	-4267
▁välj	-4268
áralaš	-4269
▁ramen	-4270
▁skriv	-4271
▁anslag	-4272
▁raporta	-4273
▁rekrutt	-4274
▁mearrida	-4275
▁sápmelačč	-4276
▁subvention	-4277
▁gon	-4278
bargg	-4279
ustit	-4280
▁boht	-4281
ivuođ	-4282
ádall	-4283
▁lite	-4284
▁eanaš	-4285
egat	-4286
▁jon	-4287
ieras	-4288
▁máhtu	-4289
▁boahtteáiggi	-4290
šii	-4291
iljö	-4292
iikka	-4293
▁webb	-4294
ttevaš	-4295
▁gielddain	-4296
▁tillhandah	-4297
▁60	-4298
oasi	-4299
▁etc	-4300
astin	-4301
▁goda	-4302
tivrra	-4303
▁2011.	-4304
▁máksojuvvo	-4305
post	-4306
▁300	-4307
▁nov	-4308
imiin	-4309
▁studier	-4310
▁deattuhit	-4311
odepartemeanta	-4312
istt	-4313
ggašt	-4314
ráđđi	-4315
▁hans	-4316
▁ádde	-4317
ektion	-4318
eratur	-4319
▁ämnes	-4320
▁buohcc	-4321
▁bakgrund	-4322
▁sáv	-4323
▁jørn	-4324
▁labour	-4325
▁utveckl	-4326
▁hálddašeami	-4327
98	-4328
▁datum	-4329
▁várrel	-4330
▁doarjjaoa	-4331
▁ersättning	-4332
ohp	-4333
đii	-4334
olks	-4335
dagen	-4336
ddaid	-4337
regler	-4338
▁našun	-4339
▁buriid	-4340
trä	-4341
öter	-4342
▁pen	-4343
▁1997	-4344
▁ráđi	-4345
▁täck	-4346
aiguin	-4347
▁värdeskap	-4348
▁boazodoalus	-4349
▁grundskolan	-4350
ard	-4351
▁lihk	-4352
▁olgor	-4353
▁motiver	-4354
▁kän	-4355
▁gullá	-4356
▁guvlui	-4357
▁larsen	-4358
baserade	-4359
▁buorebut	-4360
▁nuoraide	-4361
▁guovttegiel	-4362
▁juov	-4363
▁önsk	-4364
▁olbmo	-4365
▁sista	-4366
▁årliga	-4367
▁naturligt	-4368
▁čoahkkima	-4369
;.	-4370
illy	-4371
▁150	-4372
▁meahc	-4373
▁suoma	-4374
▁sámit	-4375
direktor	-4376
ideaddji	-4377
ivve	-4378
udget	-4379
▁betydande	-4380
▁valáštall	-4381
đu	-4382
fäll	-4383
oassi	-4384
▁deattuha	-4385
▁gielddat	-4386
čča	-4387
▁ch	-4388
ddat	-4389
▁hos	-4390
▁soa	-4391
▁coll	-4392
▁stark	-4393
▁främst	-4394
▁eiseválddiid	-4395
▁rog	-4396
▁bort	-4397
▁tran	-4398
▁problem	-4399
▁valkrets	-4400
▁davviriikkalaš	-4401
▁parlamentáralaš	-4402
eke	-4403
▁mol	-4404
▁dárkil	-4405
▁tvåspråk	-4406
adn	-4407
shö	-4408
▁adn	-4409
▁träff	-4410
▁willy	-4411
▁ođđajag	-4412
▁searvat	-4413
▁kommunala	-4414
▁patienter	-4415
▁mearrádusat	-4416
iidd	-4417
▁2010.	-4418
isering	-4419
ppaš	-4420
▁osk	-4421
▁berör	-4422
▁ruoŧa	-4423
▁ságas	-4424
▁stáhtalaš	-4425
vuoigatvuođaid	-4426
omin	-4427
▁bred	-4428
▁börj	-4429
odahkii	-4430
▁oktober	-4431
▁uttryck	-4432
▁budgeten	-4433
▁förskolor	-4434
kade	-4435
báikk	-4436
eamit	-4437
uvlui	-4438
▁gunn	-4439
▁lági	-4440
samling	-4441
▁festival	-4442
fär	-4443
ávd	-4444
▁sán	-4445
▁ton	-4446
árval	-4447
▁1998	-4448
▁överkl	-4449
▁beskriv	-4450
▁föreslag	-4451
▁samhälls	-4452
▁suohkaniin	-4453
anj	-4454
ovuo	-4455
▁hal	-4456
shövd	-4457
▁brist	-4458
handling	-4459
istu	-4460
▁don	-4461
ningsm	-4462
▁handl	-4463
beroende	-4464
▁revider	-4465
/18	-4466
dja	-4467
▁bä	-4468
stan	-4469
márkk	-4470
ulter	-4471
▁teak	-4472
aheami	-4473
▁doibm	-4474
▁loahpp	-4475
▁tillhör	-4476
itteratur	-4477
▁bestämmelser	-4478
zz	-4479
▁avsätt	-4480
▁december	-4481
▁diskrimin	-4482
▁mänskliga	-4483
▁boazodollui	-4484
liv	-4485
men	-4486
oahk	-4487
anger	-4488
betes	-4489
▁våra	-4490
▁vásáhus	-4491
▁gielddas	-4492
utbildningen	-4493
đa	-4494
▁06	-4495
adje	-4496
delning	-4497
▁ulbmilin	-4498
häl	-4499
▁42	-4500
logus	-4501
▁båda	-4502
▁hälsa	-4503
▁maŋŋel	-4504
▁landshövd	-4505
▁rievdadit	-4506
▁mearkkašumit	-4507
kraft	-4508
▁maŋemus	-4509
uhus	-4510
center	-4511
▁ohcat	-4512
▁plenum	-4513
▁status	-4514
▁suohkanis	-4515
▁ságastall	-4516
▁sor	-4517
undet	-4518
▁(201	-4519
emusat	-4520
▁november	-4521
▁investering	-4522
▁eamiálbmogiid	-4523
dás	-4524
nade	-4525
▁vuovd	-4526
▁buktit	-4527
▁doarju	-4528
ortnegiid	-4529
▁fylkkamánn	-4530
▁čađahuvvon	-4531
ank	-4532
▁fys	-4533
▁nystad	-4534
▁politisk	-4535
▁proseanta	-4536
▁prošeavtt	-4537
▁ráđđádall	-4538
▁ins	-4539
lering	-4540
▁guoll	-4541
▁verktyg	-4542
be	-4543
đđái	-4544
▁sep	-4545
sport	-4546
▁klar	-4547
▁mottag	-4548
álašvuođa	-4549
▁ohppiide	-4550
▁oberoende	-4551
▁05	-4552
▁78	-4553
politik	-4554
▁davvig	-4555
▁perspektiv	-4556
▁förändringar	-4557
30	-4558
▁dađ	-4559
▁läs	-4560
▁čil	-4561
▁gymnasiet	-4562
eatn	-4563
▁kön	-4564
eriid	-4565
▁raportta	-4566
▁boahttevaš	-4567
vu	-4568
▁rag	-4569
▁erbju	-4570
▁oaččui	-4571
skommunerna	-4572
▁váldá	-4573
▁styrels	-4574
ordningen	-4575
▁eat	-4576
▁juh	-4577
▁deleg	-4578
▁gräns	-4579
▁oktavuohta	-4580
ohpp	-4581
eller	-4582
llaid	-4583
▁college	-4584
▁gonagas	-4585
▁innehåller	-4586
▁namuhuvvon	-4587
▁ođasmahttin	-4588
juolggadusaid	-4589
▁sámediggevál	-4590
▁ø	-4591
sut	-4592
iden	-4593
smål	-4594
▁til	-4595
▁lämp	-4596
▁skog	-4597
tember	-4598
▁telef	-4599
▁effekt	-4600
▁uppdrag	-4601
▁kommunal	-4602
▁struktur	-4603
▁september	-4604
▁geavahuvvot	-4605
ko	-4606
ött	-4607
ottag	-4608
arvvaš	-4609
▁deanu	-4610
▁vuhti	-4611
▁vuođu	-4612
▁čielga	-4613
▁kultuvrras	-4614
▁föreskrifter	-4615
árvv	-4616
▁kamm	-4617
▁lotn	-4618
▁mudd	-4619
▁röster	-4620
▁stöder	-4621
▁dohkálaš	-4622
▁konferán	-4623
kko	-4624
/201	-4625
heten	-4626
ultur	-4627
▁orro	-4628
emearri	-4629
▁därmed	-4630
▁medvet	-4631
▁senare	-4632
▁juovlam	-4633
▁viiddis	-4634
▁bušeahta	-4635
▁offentlig	-4636
▁mielddisbuktá	-4637
beh	-4638
odit	-4639
uovl	-4640
▁run	-4641
▁tem	-4642
inter	-4643
deamit	-4644
▁dihto	-4645
▁logut	-4646
keahttá	-4647
▁searvv	-4648
▁webbpl	-4649
▁gullevaš	-4650
▁förståelse	-4651
ära	-4652
▁2,	-4653
från	-4654
ritt	-4655
nande	-4656
▁árkt	-4657
▁center	-4658
▁nordlán	-4659
▁ollašuhtt	-4660
▁evttohusat	-4661
/99	-4662
slut	-4663
▁vib	-4664
ativt	-4665
ologi	-4666
ádaga	-4667
▁čadn	-4668
andoai	-4669
▁buohka	-4670
▁familj	-4671
▁frågan	-4672
▁muddui	-4673
▁påverk	-4674
▁geograf	-4675
▁oahppat	-4676
produktion	-4677
▁boahtteáiggis	-4678
▁70	-4679
ustt	-4680
▁sol	-4681
▁allt	-4682
▁soahp	-4683
▁dáidda	-4684
▁heaittih	-4685
▁njiedjan	-4686
▁förutsätt	-4687
▁statistik	-4688
▁oktavuođain	-4689
▁áŋgiruššans	-4690
br	-4691
bmi	-4692
göra	-4693
▁kat	-4694
jänst	-4695
▁lära	-4696
▁dárbbu	-4697
▁vibeke	-4698
gán	-4699
istar	-4700
odagat	-4701
▁nilsen	-4702
utk	-4703
ihkas	-4704
▁veck	-4705
▁undan	-4706
▁utför	-4707
presideanta	-4708
▁presideanta	-4709
hel	-4710
ikš	-4711
smö	-4712
▁art	-4713
ddalaš	-4714
uohtast	-4715
▁godkänn	-4716
▁doaibman	-4717
▁diehtojuohkin	-4718
▁iv	-4719
ator	-4720
ddaš	-4721
▁gokč	-4722
▁mars	-4723
▁nana	-4724
▁eleverna	-4725
▁hálddahuslaš	-4726
.16	-4727
fág	-4728
astá	-4729
ktas	-4730
▁1989	-4731
bušeah	-4732
▁betalas	-4733
▁ovddide	-4734
▁ansvaret	-4735
gedieđáhus	-4736
▁6.	-4737
ásit	-4738
▁jorgal	-4739
▁buohtast	-4740
▁kulturarvs	-4741
tan	-4742
▁olis	-4743
beaivv	-4744
▁gusto	-4745
▁bajásš	-4746
▁boazolog	-4747
▁hálddaša	-4748
▁prinsihp	-4749
▁vuoruhit	-4750
▁proseantta	-4751
▁dohkkehuvvon	-4752
▁árvvoštallan	-4753
▁pre	-4754
egott	-4755
▁forum	-4756
▁fágas	-4757
▁fierpm	-4758
▁gáibida	-4759
styrelsen	-4760
▁föreslås	-4761
▁sámegielaid	-4762
▁álggahuvvui	-4763
egor	-4764
▁eli	-4765
▁girje	-4766
▁somby	-4767
▁försvar	-4768
▁ragnhild	-4769
▁myndighet	-4770
▁unnimusat	-4771
ient	-4772
andra	-4773
▁máŋgg	-4774
▁rabas	-4775
▁árvoh	-4776
▁lahttu	-4777
▁lotnol	-4778
▁šaddet	-4779
▁ovttast	-4780
▁boazodoallo	-4781
eds	-4782
kui	-4783
ivčč	-4784
jien	-4785
odde	-4786
osis	-4787
öcker	-4788
▁ieža	-4789
istaga	-4790
▁duoji	-4791
▁gárvv	-4792
▁syfte	-4793
▁buorit	-4794
▁grupper	-4795
▁ásahusa	-4796
▁dađistaga	-4797
▁ør	-4798
kkis	-4799
teck	-4800
▁sár	-4801
▁golgg	-4802
eaiggád	-4803
▁ruhtad	-4804
▁tidsfr	-4805
▁avsluta	-4806
▁máhtolaš	-4807
.01	-4808
asat	-4809
uvnnas	-4810
▁mångfald	-4811
▁priváhta	-4812
▁guovvamánu	-4813
iner	-4814
▁bell	-4815
▁janu	-4816
instit	-4817
▁vuogi	-4818
▁medlen	-4819
otm	-4820
rol	-4821
tande	-4822
▁brev	-4823
▁atnit	-4824
▁energ	-4825
▁lulli	-4826
▁geahča	-4827
▁vuostta	-4828
jär	-4829
tra	-4830
▁08	-4831
bart	-4832
▁lic	-4833
▁spr	-4834
▁leav	-4835
befolk	-4836
▁kyrkan	-4837
▁översikt	-4838
▁användare	-4839
▁gemensamt	-4840
▁platsnamn	-4841
▁vuhtiiváld	-4842
olut	-4843
parti	-4844
▁oidn	-4845
▁golggotm	-4846
▁nordiska	-4847
▁hálddašit	-4848
▁thomassen	-4849
▁identitehta	-4850
/17	-4851
▁45	-4852
▁gl	-4853
▁före	-4854
▁görs	-4855
▁vice	-4856
▁liten	-4857
▁maidda	-4858
▁ohcama	-4859
▁andelen	-4860
▁váilevaš	-4861
▁lunddolaš	-4862
▁guovddážis	-4863
▁ass	-4864
▁lax	-4865
▁gánn	-4866
▁baseras	-4867
▁betonar	-4868
▁januari	-4869
▁mearras	-4870
▁direktor	-4871
urro	-4872
▁riikk	-4873
▁prakti	-4874
▁sjukvår	-4875
▁effektiv	-4876
▁dokumenter	-4877
ilt	-4878
▁hed	-4879
▁rea	-4880
▁står	-4881
▁čear	-4882
▁stand	-4883
▁befint	-4884
▁festiv	-4885
▁teaksta	-4886
anvuoigat	-4887
▁gávdnojit	-4888
▁litteratur	-4889
▁álbmotrievtt	-4890
jo	-4891
ium	-4892
jut	-4893
kki	-4894
ung	-4895
▁03	-4896
▁jáv	-4897
áhtta	-4898
▁material	-4899
▁relevant	-4900
▁nationellt	-4901
▁genomförandet	-4902
.2010	-4903
▁sisab	-4904
sproces	-4905
▁dagaha	-4906
eavaheami	-4907
▁eanandoallo	-4908
oder	-4909
▁odne	-4910
▁exper	-4911
▁prakt	-4912
▁áigeg	-4913
▁bealit	-4914
▁aktörer	-4915
▁čilgehus	-4916
▁djur	-4917
ábealde	-4918
▁nästan	-4919
▁dárbbuid	-4920
▁vuosttaž	-4921
▁innovation	-4922
▁kárášjogas	-4923
rateg	-4924
peanda	-4925
▁ruošš	-4926
ektiivv	-4927
▁erohus	-4928
▁förutom	-4929
▁oasi	-4930
▁figur	-4931
▁längre	-4932
▁ealáhusovdd	-4933
▁lagstiftning	-4934
rás	-4935
sbas	-4936
▁sád	-4937
emear	-4938
▁háhk	-4939
▁lägg	-4940
▁áššit	-4941
ásaččat	-4942
▁eavttut	-4943
▁giellan	-4944
trøndelag	-4945
▁li	-4946
▁individ	-4947
▁siskkáld	-4948
ehtt	-4949
iila	-4950
iser	-4951
▁vet	-4952
histor	-4953
▁ökade	-4954
▁guhkit	-4955
▁miehtá	-4956
▁övervä	-4957
▁iešmear	-4958
▁påpekar	-4959
▁renodling	-4960
▁allaskuvlla	-4961
fápm	-4962
isámi	-4963
demiid	-4964
▁ändra	-4965
▁garras	-4966
▁sadjái	-4967
forskning	-4968
▁använder	-4969
▁dohkkehit	-4970
▁rättighet	-4971
▁op	-4972
hålla	-4973
ašuvdn	-4974
ension	-4975
▁ander	-4976
▁bidjá	-4977
▁medlem	-4978
▁planerings	-4979
reh	-4980
idnu	-4981
räng	-4982
▁öst	-4983
▁mest	-4984
ivuođa	-4985
sanger	-4986
▁eanemus	-4987
▁förklar	-4988
▁álbmogis	-4989
▁sj	-4990
▁jna	-4991
uvvat	-4992
▁lars	-4993
system	-4994
▁boazo	-4995
▁patient	-4996
▁válljen	-4997
▁stuorámus	-4998
▁samarbetsavtal	-4999
riva	-5000
▁gál	-5001
▁wil	-5002
árren	-5003
▁fören	-5004
▁ørneb	-5005
▁gánnáh	-5006
▁uppfatt	-5007
▁demokrat	-5008
▁doarjjaoažžu	-5009
▁jahkedieđáhus	-5010
gar	-5011
ceal	-5012
jande	-5013
▁jens	-5014
ternat	-5015
▁erkänn	-5016
▁hösten	-5017
▁teáhter	-5018
▁buoremus	-5019
▁historia	-5020
▁samhälle	-5021
ejođiheaddji	-5022
97	-5023
gii	-5024
fall	-5025
▁ske	-5026
▁(200	-5027
▁spec	-5028
▁skábm	-5029
förslag	-5030
▁johnsen	-5031
▁ordning	-5032
stjänster	-5033
▁muitalit	-5034
▁bálvalusaid	-5035
▁internationellt	-5036
▁mud	-5037
arjel	-5038
▁dáhttu	-5039
▁čujuhit	-5040
▁ørnebakk	-5041
kommitténs	-5042
▁porsanger	-5043
▁vejolašvuođaid	-5044
▁07	-5045
fága	-5046
▁hár	-5047
▁film	-5048
▁kombin	-5049
▁samelagen	-5050
▁áigeguovd	-5051
▁šat	-5052
▁asla	-5053
▁fatt	-5054
▁duhta	-5055
▁easta	-5056
▁digitala	-5057
▁undantag	-5058
▁konstitution	-5059
ior	-5060
ämp	-5061
doall	-5062
▁anne	-5063
▁diet	-5064
▁gohč	-5065
▁stol	-5066
uiguin	-5067
aterial	-5068
▁juolludan	-5069
gag	-5070
▁even	-5071
kommitté	-5072
▁ändamål	-5073
▁behandlingen	-5074
▁konsekvenser	-5075
-3	-5076
kv	-5077
åga	-5078
▁bov	-5079
▁buol	-5080
▁sker	-5081
▁barns	-5082
▁beall	-5083
▁skola	-5084
▁areála	-5085
▁bálvalus	-5086
▁bajásšadd	-5087
ukč	-5088
ulär	-5089
▁deb	-5090
▁paul	-5091
▁sisa	-5092
amánus	-5093
aráđđi	-5094
▁njukč	-5095
▁parti	-5096
▁handlar	-5097
politiken	-5098
▁dearvvašvuođad	-5099
▁vål	-5100
▁čav	-5101
ärare	-5102
▁trond	-5103
▁påverkar	-5104
▁suohkana	-5105
▁strategiija	-5106
▁investeringar	-5107
mä	-5108
jor	-5109
máš	-5110
äder	-5111
earvi	-5112
gáhtt	-5113
▁ráđđea	-5114
▁användar	-5115
▁representer	-5116
ohc	-5117
▁ee	-5118
▁väx	-5119
ahtes	-5120
▁flag	-5121
▁orru	-5122
▁vást	-5123
▁roger	-5124
▁utnytt	-5125
▁överen	-5126
▁šaddat	-5127
▁veahkav	-5128
▁stortingets	-5129
▁ovddideapmái	-5130
▁universitetet	-5131
5.	-5132
bel	-5133
efo	-5134
gih	-5135
erhet	-5136
▁sven	-5137
▁bekrä	-5138
▁namma	-5139
▁bevara	-5140
▁gillii	-5141
▁riekti	-5142
▁utöver	-5143
▁vuosttažettiin	-5144
byte	-5145
▁vahk	-5146
▁lágan	-5147
▁tiden	-5148
▁oahppu	-5149
▁čatnas	-5150
▁luonddu	-5151
▁styrelsen	-5152
▁diskriminering	-5153
mus	-5154
ped	-5155
fiske	-5156
iksen	-5157
ägare	-5158
▁lever	-5159
▁radio	-5160
▁barget	-5161
spolitik	-5162
▁sáhtášii	-5163
▁ásahusat	-5164
far	-5165
▁sch	-5166
▁riks	-5167
▁duopm	-5168
▁čoahk	-5169
▁bygger	-5170
skostnader	-5171
▁renskötseln	-5172
▁mánáidgárddiin	-5173
repp	-5174
gående	-5175
▁2012.	-5176
▁långt	-5177
▁regel	-5178
itehtas	-5179
samediggi	-5180
/16	-5181
nsr	-5182
▁co	-5183
nuin	-5184
álat	-5185
▁hör	-5186
ápmel	-5187
▁guhk	-5188
▁elekt	-5189
▁iskka	-5190
▁mátta	-5191
▁stivra	-5192
▁synlig	-5193
▁vilken	-5194
▁lađđasa	-5195
▁njuolga	-5196
▁várrejuvvo	-5197
▁statsbudget	-5198
▁skyldigheter	-5199
▁säkerställer	-5200
▁guovdageainnu	-5201
▁mánáidgárddiid	-5202
ita	-5203
året	-5204
▁dav	-5205
▁läg	-5206
▁bargan	-5207
▁beviljas	-5208
▁árktalaš	-5209
bestämmande	-5210
▁na	-5211
▁prim	-5212
šuvnna	-5213
▁planen	-5214
▁sáddej	-5215
ssystemet	-5216
▁movttiid	-5217
▁56	-5218
▁lob	-5219
▁riv	-5220
▁sla	-5221
betal	-5222
▁barnen	-5223
partemen	-5224
▁jurddaš	-5225
mun	-5226
llat	-5227
▁hus	-5228
deaddj	-5229
▁ledare	-5230
▁utform	-5231
▁tillfäll	-5232
ealáhusaid	-5233
▁samarbetet	-5234
▁guovdageainnus	-5235
0.	-5236
čuo	-5237
itta	-5238
▁dis	-5239
▁ändå	-5240
▁biste	-5241
▁ohcanvuđot	-5242
bi	-5243
▁7.	-5244
amet	-5245
bara	-5246
ieđih	-5247
▁gávnn	-5248
▁čielgg	-5249
▁lasáhus	-5250
▁dárbbašit	-5251
fes	-5252
▁38	-5253
▁2020	-5254
orgána	-5255
▁planer	-5256
▁dáiddár	-5257
spolitiken	-5258
▁geavahuvvon	-5259
-4	-5260
pean	-5261
▁iii	-5262
▁museer	-5263
▁boarrás	-5264
▁eriksen	-5265
▁kruvnnu	-5266
▁sidjiide	-5267
▁erbjudande	-5268
39	-5269
▁fly	-5270
▁nyst	-5271
earvvi	-5272
sfjord	-5273
barggus	-5274
▁fuomáš	-5275
▁ovdánahttit	-5276
▁organisašuvnna	-5277
ssen	-5278
frast	-5279
▁gång	-5280
▁pors	-5281
iduvvot	-5282
nadsför	-5283
▁dagahit	-5284
▁čielgasit	-5285
▁čuovvolit	-5286
▁plenarsession	-5287
xis	-5288
etag	-5289
lätt	-5290
▁4.2	-5291
▁jar	-5292
istan	-5293
▁goluid	-5294
▁gávdnat	-5295
▁personal	-5296
▁árbevier	-5297
▁árvalusa	-5298
ahttojuvvon	-5299
▁konvention	-5300
rån	-5301
andi	-5302
chef	-5303
beall	-5304
▁alltid	-5305
.08	-5306
.2018	-5307
ussii	-5308
▁ingå	-5309
▁vårt	-5310
▁flytt	-5311
▁negat	-5312
stående	-5313
▁helhet	-5314
▁kriter	-5315
▁nammad	-5316
▁seminar	-5317
vetenskap	-5318
▁konstnär	-5319
▁ekonomisk	-5320
▁bestämmelserna	-5321
▁195	-5322
girjj	-5323
▁berit	-5324
▁förny	-5325
čoahkkin	-5326
rapporten	-5327
▁aslaksen	-5328
▁seminára	-5329
▁sisdoalu	-5330
▁ásahuvvon	-5331
▁professionella	-5332
▁51	-5333
iiss	-5334
▁dov	-5335
nasiid	-5336
▁skatte	-5337
▁susanne	-5338
▁bargosaj	-5339
▁naturliga	-5340
ovddas	-5341
▁galggai	-5342
▁minerál	-5343
▁ovdalgo	-5344
▁váikkuhan	-5345
ledes	-5346
▁somm	-5347
álbmot	-5348
▁regul	-5349
ušuvnna	-5350
▁konsulter	-5351
▁veahkehit	-5352
▁guovlluide	-5353
ron	-5354
▁gozih	-5355
▁áššem	-5356
urggiid	-5357
▁bealde	-5358
▁fatnas	-5359
▁period	-5360
▁seaill	-5361
▁ođđasis	-5362
▁således	-5363
▁rådgivare	-5364
helm	-5365
▁válg	-5366
▁juoga	-5367
▁boahtán	-5368
▁goappaš	-5369
▁bibliote	-5370
▁stuoradig	-5371
▁ásahusaid	-5372
▁čielggadit	-5373
▁80	-5374
▁smá	-5375
organ	-5376
uorgi	-5377
▁mode	-5378
formen	-5379
vuogád	-5380
▁almmá	-5381
▁bivdá	-5382
▁geavat	-5383
▁besluta	-5384
▁inkomst	-5385
▁samelag	-5386
▁doarjjas	-5387
▁marianne	-5388
▁nödvändiga	-5389
▁sihkkarastin	-5390
oss	-5391
ekte	-5392
ulbm	-5393
▁uhc	-5394
▁våld	-5395
▁avvik	-5396
▁krist	-5397
▁mátke	-5398
▁ávžžuh	-5399
▁áirasis	-5400
▁ovttajien	-5401
▁sisdoallu	-5402
▁situation	-5403
▁miessemánu	-5404
alága	-5405
astim	-5406
▁2011:	-5407
▁dahká	-5408
▁förordning	-5409
▁utvecklings	-5410
.18	-5411
juo	-5412
rom	-5413
öka	-5414
dens	-5415
ráđi	-5416
▁50%	-5417
▁övr	-5418
▁borg	-5419
▁govv	-5420
▁engag	-5421
▁goalmm	-5422
▁länder	-5423
▁lönsam	-5424
▁tredje	-5425
▁verkar	-5426
ortnegii	-5427
▁wilhelm	-5428
organisationer	-5429
flikt	-5430
omiid	-5431
▁känn	-5432
▁bargá	-5433
▁lagar	-5434
▁hukset	-5435
fálaldat	-5436
▁befintliga	-5437
▁genomföras	-5438
▁wilhelmsen	-5439
anlávdegoddi	-5440
▁överenskomm	-5441
partemeanttas	-5442
bii	-5443
baka	-5444
emål	-5445
▁randi	-5446
▁svårt	-5447
bellodat	-5448
▁oahppan	-5449
delningen	-5450
▁tillbaka	-5451
▁boazologu	-5452
ena	-5453
▁jå	-5454
agis	-5455
▁árjj	-5456
▁bođii	-5457
▁oskal	-5458
▁váldet	-5459
▁joatkit	-5460
finnmárkk	-5461
▁birasgáhtt	-5462
▁företrädare	-5463
▁ráf	-5464
fören	-5465
▁lätt	-5466
▁röstl	-5467
▁dahkan	-5468
▁oainnus	-5469
▁addojuvvo	-5470
förvaltning	-5471
rut	-5472
ägg	-5473
▁9.	-5474
▁90	-5475
ážii	-5476
▁jan	-5477
edoai	-5478
enhet	-5479
istit	-5480
▁pers	-5481
▁suppl	-5482
issionen	-5483
ledningen	-5484
oht	-5485
▁2.2	-5486
▁dra	-5487
▁gam	-5488
▁iige	-5489
▁árja	-5490
▁bisuh	-5491
abálval	-5492
▁samord	-5493
▁supplean	-5494
▁vuosttas	-5495
▁överklag	-5496
▁byggnader	-5497
▁ođđajagim	-5498
▁ovdáneapmi	-5499
▁arbetsgrupp	-5500
▁dokumentation	-5501
kant	-5502
▁gick	-5503
▁2009.	-5504
▁deltar	-5505
▁enhäll	-5506
▁kontor	-5507
▁konkreh	-5508
förvaltningen	-5509
▁utbildningen	-5510
asas	-5511
▁faktum	-5512
▁utmark	-5513
prošeavtt	-5514
▁liknande	-5515
▁geahčadit	-5516
▁erfarenhet	-5517
▁75	-5518
.3.1	-5519
ccep	-5520
färd	-5521
usti	-5522
áiki	-5523
▁närm	-5524
uohkat	-5525
▁dárkk	-5526
ielalaš	-5527
▁berätt	-5528
▁válddi	-5529
undervis	-5530
▁arktiska	-5531
▁ruovttus	-5532
▁doarjagat	-5533
▁transport	-5534
▁finnmárkkuopm	-5535
oga	-5536
▁vän	-5537
▁språkk	-5538
▁bidrags	-5539
▁lotnolas	-5540
▁lösningar	-5541
tes	-5542
▁54	-5543
▁3.2	-5544
▁dáht	-5545
▁skic	-5546
áššiid	-5547
▁borram	-5548
▁porsáŋ	-5549
▁turism	-5550
▁alternat	-5551
▁eliassen	-5552
▁geahččat	-5553
▁oppalaččat	-5554
anlávdegotti	-5555
▁dearvvasvuođa	-5556
▁fylkkagieldda	-5557
áj	-5558
kur	-5559
dentif	-5560
▁fuolah	-5561
▁värdeskapande	-5562
avs	-5563
pril	-5564
▁fár	-5565
oamit	-5566
▁gjor	-5567
▁skap	-5568
eaddje	-5569
otenti	-5570
▁valet	-5571
ogillii	-5572
▁konkur	-5573
struktur	-5574
▁identif	-5575
▁bidragsm	-5576
▁bistevaš	-5577
▁doaimmah	-5578
▁underlätt	-5579
▁čearddalaš	-5580
ös	-5581
raš	-5582
▁41	-5583
ilit	-5584
–201	-5585
▁očč	-5586
▁olaf	-5587
planen	-5588
▁komma	-5589
▁lägga	-5590
▁nystø	-5591
▁johtui	-5592
▁našuvn	-5593
▁váldán	-5594
▁språken	-5595
▁artihkal	-5596
▁ohcanáig	-5597
▁duođaštit	-5598
▁ealáhusat	-5599
▁53	-5600
▁cuo	-5601
budsm	-5602
ihttu	-5603
▁dass	-5604
▁muit	-5605
lohkui	-5606
▁bagad	-5607
▁álttá	-5608
▁början	-5609
▁davvin	-5610
▁detalj	-5611
▁sturro	-5612
ealáhusa	-5613
▁buohkat	-5614
▁jahkásaččat	-5615
▁earenoamážit	-5616
▁förvaltnings	-5617
▁kn	-5618
avuo	-5619
▁čie	-5620
ektii	-5621
▁gustojit	-5622
▁doaimmaide	-5623
ođ	-5624
ppa	-5625
fitn	-5626
kkat	-5627
▁skum	-5628
▁viss	-5629
▁ämnet	-5630
▁váhnen	-5631
hantering	-5632
▁geavahan	-5633
▁positivt	-5634
lávdegotti	-5635
▁eanadoallo	-5636
▁upprätthålla	-5637
ovddasvástádus	-5638
7.	-5639
osii	-5640
▁nie	-5641
áhkan	-5642
▁kort	-5643
irekte	-5644
▁april	-5645
▁nanne	-5646
▁orrot	-5647
▁ortnet	-5648
▁senast	-5649
▁tillgängliga	-5650
▁arbetsgruppen	-5651
átn	-5652
▁fär	-5653
▁nan	-5654
▁álg	-5655
▁blev	-5656
▁infl	-5657
▁hitta	-5658
▁riika	-5659
▁áigái	-5660
▁beaivváš	-5661
▁eanadoall	-5662
▁permanent	-5663
▁programmet	-5664
▁guorahallat	-5665
▁gelbbolašvuođ	-5666
jai	-5667
▁åt	-5668
skog	-5669
▁tan	-5670
allan	-5671
▁fást	-5672
▁olsen	-5673
istrikt	-5674
ministtar	-5675
▁innehållet	-5676
▁siskkáldas	-5677
▁golggotmánu	-5678
▁;	-5679
urn	-5680
▁46	-5681
häls	-5682
▁fidn	-5683
sspråk	-5684
▁ålder	-5685
▁dáruid	-5686
▁čuovvut	-5687
bálvalusa	-5688
ejuvvojit	-5689
▁andersen	-5690
▁doaibmat	-5691
▁ráhkadan	-5692
▁utmaning	-5693
▁eks	-5694
árdus	-5695
▁sluts	-5696
▁veaháš	-5697
▁infrast	-5698
▁doaibmabid	-5699
▁genomfördes	-5700
▁registrerade	-5701
dor	-5702
nje	-5703
▁48	-5704
▁tä	-5705
▁anst	-5706
▁bygga	-5707
▁gáržž	-5708
▁rávis	-5709
ahttima	-5710
▁biebmo	-5711
▁fievrrid	-5712
▁suorggis	-5713
konvention	-5714
▁spridning	-5715
mari	-5716
rade	-5717
▁räk	-5718
avtal	-5719
▁kven	-5720
oahppu	-5721
samisk	-5722
▁lágaid	-5723
▁fálaldat	-5724
▁ovddideami	-5725
▁52	-5726
▁hir	-5727
ihtta	-5728
▁hilg	-5729
▁invån	-5730
▁juhkk	-5731
▁válljet	-5732
▁särskild	-5733
▁kárášjohka	-5734
enn	-5735
▁sf	-5736
▁ahk	-5737
▁dási	-5738
▁grad	-5739
▁juks	-5740
▁påpe	-5741
▁tagit	-5742
▁máttas	-5743
▁utgång	-5744
▁heivehit	-5745
▁politihka	-5746
▁ealáhusdoai	-5747
eahč	-5748
kons	-5749
talaš	-5750
adeapmi	-5751
▁idrott	-5752
▁varier	-5753
▁paulsen	-5754
▁gaskasaš	-5755
läggningar	-5756
▁statsbudgeten	-5757
ämne	-5758
skrid	-5759
▁jåma	-5760
▁2010:	-5761
▁laila	-5762
▁länge	-5763
eddjiin	-5764
▁kirsti	-5765
▁doaimmas	-5766
/11	-5767
anl	-5768
anas	-5769
ific	-5770
sval	-5771
▁400	-5772
▁bii	-5773
iijas	-5774
▁geal	-5775
▁slutet	-5776
▁lihkost	-5777
▁interreg	-5778
▁bargojoavku	-5779
▁befolknings	-5780
▁váikkuhusat	-5781
gå	-5782
åt	-5783
ŋom	-5784
álas	-5785
▁vur	-5786
produ	-5787
▁divv	-5788
▁besök	-5789
▁guhká	-5790
▁tills	-5791
▁bedöma	-5792
▁beliid	-5793
▁diskuss	-5794
▁lágidit	-5795
▁rámmaid	-5796
ställande	-5797
▁hälsovår	-5798
▁álggahan	-5799
▁báikegott	-5800
▁inrättandet	-5801
▁kulturmuittuid	-5802
ral	-5803
bman	-5804
ráđiid	-5805
▁golut	-5806
▁gáldu	-5807
▁betona	-5808
▁hansen	-5809
▁hanter	-5810
šiehtadusa	-5811
▁dilálašvuođaid	-5812
iddu	-5813
▁otn	-5814
ulbmil	-5815
▁mátkk	-5816
áibádus	-5817
▁förtyd	-5818
▁hänvisar	-5819
▁lullisámi	-5820
bálvalusaid	-5821
▁dieđáhusas	-5822
▁guorahallan	-5823
▁hum	-5824
▁omd	-5825
adoai	-5826
▁isak	-5827
▁nästa	-5828
▁boahtit	-5829
▁ollásit	-5830
▁privata	-5831
▁johansen	-5832
▁proseassa	-5833
▁juovlamánu	-5834
▁strategiijat	-5835
▁joatkkaskuvlla	-5836
/05	-5837
kku	-5838
ieht	-5839
pmin	-5840
ádje	-5841
kkaid	-5842
▁atná	-5843
▁liks	-5844
bealde	-5845
▁kompl	-5846
företag	-5847
▁bargit	-5848
▁tillstånd	-5849
▁beaivválaš	-5850
▁bosättning	-5851
▁stáhtabušeah	-5852
oaiv	-5853
čiel	-5854
roald	-5855
▁atnui	-5856
anttaid	-5857
uorggit	-5858
▁försälj	-5859
▁process	-5860
▁renbetes	-5861
▁vägledning	-5862
▁omröstningen	-5863
lar	-5864
eavs	-5865
jahk	-5866
▁3.1	-5867
▁giv	-5868
agiin	-5869
andid	-5870
artyg	-5871
ekomm	-5872
vuođu	-5873
▁fång	-5874
▁joav	-5875
▁vind	-5876
▁överl	-5877
ráfalaš	-5878
▁fertet	-5879
▁liksom	-5880
▁finnmár	-5881
▁čađahan	-5882
verksamhet	-5883
▁eanadoalu	-5884
▁hástalussan	-5885
▁loahpahuvvui	-5886
áldi	-5887
▁nag	-5888
arder	-5889
kalott	-5890
▁orgán	-5891
foandda	-5892
▁cuoŋom	-5893
▁lokalt	-5894
▁jienain	-5895
▁lágádus	-5896
▁mineral	-5897
lávdegoddi	-5898
▁enhälligt	-5899
▁mearrasámi	-5900
▁verksamheten	-5901
dar	-5902
stat	-5903
agaide	-5904
denten	-5905
samhäll	-5906
▁barnet	-5907
▁teater	-5908
▁utkast	-5909
▁diehtit	-5910
▁jämfört	-5911
▁stolten	-5912
▁beroende	-5913
▁konflikt	-5914
▁servodahkii	-5915
▁doarjjaortnega	-5916
▁rø	-5917
▁mor	-5918
eakta	-5919
uohki	-5920
yddet	-5921
álalaš	-5922
▁oaneh	-5923
▁eaktun	-5924
▁mandat	-5925
venšuvdna	-5926
▁ansträng	-5927
▁čakčamánu	-5928
▁bajásšaddan	-5929
▁bidragsmottag	-5930
port	-5931
arium	-5932
ender	-5933
samma	-5934
▁dikš	-5935
▁pris	-5936
person	-5937
▁accep	-5938
▁ovdde	-5939
▁duojár	-5940
▁mánáin	-5941
▁čilget	-5942
▁vuollel	-5943
▁borramuš	-5944
▁olbmuide	-5945
▁förbättra	-5946
▁industrin	-5947
▁lärarhjäl	-5948
▁ovttasráđiid	-5949
▁prioriteringar	-5950
eum	-5951
räk	-5952
tne	-5953
▁97	-5954
vvir	-5955
erats	-5956
kadem	-5957
▁chef	-5958
▁gáiv	-5959
▁beroš	-5960
▁bästa	-5961
▁avslut	-5962
▁gávdno	-5963
▁oainnu	-5964
▁šattai	-5965
▁ásaheami	-5966
▁modersmål	-5967
▁nordkalott	-5968
▁vidareutveck	-5969
▁mj	-5970
alai	-5971
orer	-5972
emien	-5973
ovttas	-5974
▁delen	-5975
▁daghem	-5976
▁šaddan	-5977
▁ellinor	-5978
▁goalmmát	-5979
▁huvudsak	-5980
▁kárášjoga	-5981
▁oahpaheaddjit	-5982
▁fa	-5983
▁jobb	-5984
jänsten	-5985
▁gruppen	-5986
ningarnas	-5987
▁berrejit	-5988
organisation	-5989
▁förutsättning	-5990
skk	-5991
imet	-5992
▁leda	-5993
▁risk	-5994
skraft	-5995
▁divšš	-5996
▁oalle	-5997
▁ovttad	-5998
▁kammaren	-5999
▁luondduv	-6000
▁váikkuha	-6001
▁politiskt	-6002
▁tillräckligt	-6003
▁doaibmabijuide	-6004
▁ko	-6005
▁sna	-6006
▁gáid	-6007
▁samf	-6008
▁dáppe	-6009
ologisk	-6010
▁kontin	-6011
▁intresse	-6012
▁styrelse	-6013
▁överväga	-6014
ktiviteter	-6015
▁dábálaččat	-6016
konvenšuvnna	-6017
▁stuorradikki	-6018
anti	-6019
mynd	-6020
▁1990	-6021
▁goit	-6022
▁antas	-6023
▁jiena	-6024
splanen	-6025
▁ráddje	-6026
▁väljer	-6027
▁matemat	-6028
▁säkerhet	-6029
▁kollektiv	-6030
▁konkrehta	-6031
▁dárogillii	-6032
▁oahpponeavvut	-6033
vin	-6034
dušš	-6035
mmas	-6036
▁11-	-6037
▁gro	-6038
▁nes	-6039
▁insp	-6040
▁rahp	-6041
▁upph	-6042
▁jahke	-6043
rädande	-6044
▁bealis	-6045
▁mikkel	-6046
▁sektorn	-6047
▁stivren	-6048
▁garrasit	-6049
▁inleddes	-6050
▁makkárge	-6051
arvvašvuođa	-6052
▁geavaheddjiid	-6053
vic	-6054
▁ww	-6055
edam	-6056
ssel	-6057
vikt	-6058
ggain	-6059
▁áigi	-6060
áhkkan	-6061
▁fallet	-6062
▁livčče	-6063
▁rektor	-6064
▁gaskamear	-6065
▁tilldelning	-6066
▁váikkuhusaid	-6067
▁institutionerna	-6068
,7	-6069
cke	-6070
▁deav	-6071
▁knut	-6072
vuođđu	-6073
▁ealli	-6074
▁vuogád	-6075
sättningen	-6076
▁našuvnnalaš	-6077
▁hálddašeamis	-6078
▁olmmošvuoigat	-6079
/07	-6080
▁aug	-6081
▁www	-6082
ehketd	-6083
▁infly	-6084
▁unjár	-6085
▁bivdit	-6086
▁dievdd	-6087
▁doavtt	-6088
konferán	-6089
▁doibmii	-6090
▁mariann	-6091
▁vásihit	-6092
▁bohccuid	-6093
▁kostnads	-6094
▁replihkka	-6095
▁suohkanat	-6096
▁villkoren	-6097
▁ásahuvvui	-6098
▁beroštupmi	-6099
▁samordning	-6100
▁skyldighet	-6101
ene	-6102
mmer	-6103
möte	-6104
ahkan	-6105
eanta	-6106
inder	-6107
uellt	-6108
▁fefo	-6109
▁ökar	-6110
folket	-6111
▁håller	-6112
▁ruvnnu	-6113
▁áiggis	-6114
▁maŋimus	-6115
▁nedgång	-6116
▁ealáhusa	-6117
▁långsikt	-6118
▁prográmm	-6119
▁árbedieđ	-6120
▁ställning	-6121
▁genomsnitt	-6122
▁prioritera	-6123
▁oahpaheddjiid	-6124
▁konsultašuvdna	-6125
sreg	-6126
▁ill	-6127
▁lån	-6128
samman	-6129
▁návcc	-6130
▁snabb	-6131
▁andras	-6132
▁bisuhit	-6133
▁skyddas	-6134
▁tillämp	-6135
▁branschen	-6136
▁fortsätter	-6137
▁hálddašeapmi	-6138
▁konventionen	-6139
odepartemeantta	-6140
▁y	-6141
rav	-6142
▁pet	-6143
▁ute	-6144
.2011	-6145
entet	-6146
▁ipmir	-6147
▁korre	-6148
▁heller	-6149
▁ovddida	-6150
skommitté	-6151
▁njukčamánu	-6152
▁skillnader	-6153
▁tillhandahåll	-6154
guo	-6155
yng	-6156
▁hu	-6157
ften	-6158
umis	-6159
–200	-6160
▁vái	-6161
iidna	-6162
▁fátt	-6163
▁lohp	-6164
▁vari	-6165
uvnnat	-6166
▁extra	-6167
beaivvi	-6168
▁duopmost	-6169
▁suodjalus	-6170
▁geavahuvvo	-6171
▁veahkaváldd	-6172
sø	-6173
mme	-6174
ruk	-6175
vár	-6176
ámis	-6177
▁diliid	-6178
▁kategor	-6179
▁position	-6180
▁čađahuvvot	-6181
▁sosiálabálval	-6182
ros	-6183
ddin	-6184
ills	-6185
nämn	-6186
valu	-6187
veah	-6188
▁fal	-6189
joavkk	-6190
unders	-6191
▁earát	-6192
▁evalu	-6193
▁riddog	-6194
▁vihtta	-6195
olávdego	-6196
öp	-6197
säg	-6198
▁eu	-6199
▁uit	-6200
möten	-6201
▁nett	-6202
▁hölls	-6203
▁rihkk	-6204
grupper	-6205
▁njeall	-6206
▁konkret	-6207
▁ruhtadan	-6208
▁minskning	-6209
▁avslutades	-6210
▁ovddideapmi	-6211
▁jienastuslohkui	-6212
47	-6213
skr	-6214
sred	-6215
▁sign	-6216
▁sivv	-6217
anttat	-6218
▁daddj	-6219
▁gohčč	-6220
▁mánná	-6221
▁såsom	-6222
förändr	-6223
▁dáinna	-6224
▁olgorii	-6225
▁hittills	-6226
▁eanemusat	-6227
▁nödvändig	-6228
▁šiehtadusa	-6229
▁kulturásahus	-6230
ese	-6231
barg	-6232
oter	-6233
rang	-6234
umat	-6235
freds	-6236
gihtii	-6237
▁består	-6238
▁juogad	-6239
▁revide	-6240
sområden	-6241
▁började	-6242
▁luonddur	-6243
▁fördelning	-6244
▁doaibmabidju	-6245
▁vejolašvuođat	-6246
39;	-6247
uell	-6248
ánit	-6249
▁10.	-6250
▁via	-6251
▁dean	-6252
▁čuol	-6253
ission	-6254
▁autom	-6255
▁inger	-6256
ektiiva	-6257
▁kurser	-6258
▁skapar	-6259
cealkámuš	-6260
▁förbered	-6261
▁neahttas	-6262
▁ásahuvvo	-6263
▁mearridii	-6264
icy	-6265
ski	-6266
nnas	-6267
ådet	-6268
▁gett	-6269
▁goas	-6270
▁eanas	-6271
▁koppl	-6272
▁snart	-6273
odagain	-6274
sbidrag	-6275
▁duogáš	-6276
▁ovddeš	-6277
▁åtgärd	-6278
▁guohtun	-6279
▁fálaldaga	-6280
injođihangotti	-6281
ere	-6282
fog	-6283
jas	-6284
▁8.	-6285
▁ávd	-6286
bargui	-6287
ssland	-6288
▁preass	-6289
▁čállin	-6290
▁distans	-6291
▁möjliga	-6292
▁bissovaš	-6293
▁válgabii	-6294
▁motsvarande	-6295
▁konvenšuvnna	-6296
▁registrering	-6297
▁finnmarkslagen	-6298
lek	-6299
mul	-6300
ásk	-6301
▁55	-6302
olver	-6303
▁1994	-6304
▁kall	-6305
▁oavs	-6306
emánus	-6307
▁lassi	-6308
▁akadem	-6309
▁veckor	-6310
sredovis	-6311
▁oavsett	-6312
▁čoahkis	-6313
▁försvars	-6314
▁gaskkust	-6315
▁mathisen	-6316
▁utarbeta	-6317
▁váhnemat	-6318
▁inflytande	-6319
▁skábmamánu	-6320
▁stipendier	-6321
▁riktlinjerna	-6322
jos	-6323
ttp	-6324
vás	-6325
▁ses	-6326
▁slä	-6327
▁álk	-6328
marks	-6329
▁1996	-6330
▁bost	-6331
eledam	-6332
▁lágid	-6333
▁boađus	-6334
▁förstär	-6335
▁kontinu	-6336
▁kåfjord	-6337
▁beslutet	-6338
▁doarjjare	-6339
injođiheaddji	-6340
▁fördelningen	-6341
▁landshövdingen	-6342
▁nå	-6343
vilt	-6344
esset	-6345
verket	-6346
▁2016:	-6347
▁relig	-6348
▁arenor	-6349
▁potenti	-6350
evttohusa	-6351
čoahkkima	-6352
▁dieđáhusa	-6353
▁processen	-6354
▁doarjagiid	-6355
▁biddjojuvvon	-6356
▁láhkaásahusa	-6357
▁vuođđuduvvon	-6358
▁professionell	-6359
ddo	-6360
▁ap	-6361
▁tio	-6362
ihtal	-6363
▁icke	-6364
▁ovdag	-6365
undersök	-6366
▁nubbing	-6367
eiseváldd	-6368
▁mávssolaš	-6369
▁oahpahusas	-6370
▁landstinget	-6371
▁samhällsliv	-6372
▁mánáidgárddiide	-6373
//	-6374
://	-6375
mat	-6376
ementer	-6377
▁eaktuda	-6378
▁kartlägg	-6379
▁ryssland	-6380
▁čađahuvvo	-6381
▁eaiggádušš	-6382
▁800	-6383
▁din	-6384
temot	-6385
uovlu	-6386
▁eana	-6387
▁laga	-6388
ahttun	-6389
ttegiid	-6390
▁boares	-6391
▁energi	-6392
▁fáddán	-6393
▁fállat	-6394
▁rehken	-6395
▁starkt	-6396
▁vinter	-6397
▁nätverk	-6398
överskrid	-6399
▁involver	-6400
▁eavttuhus	-6401
vá	-6402
cil	-6403
jov	-6404
orá	-6405
árdda	-6406
▁driv	-6407
▁guol	-6408
▁logi	-6409
▁addet	-6410
▁addán	-6411
▁start	-6412
▁ovddit	-6413
▁praxis	-6414
▁suomas	-6415
▁framtid	-6416
▁telefon	-6417
▁gentemot	-6418
▁relativt	-6419
▁surggiin	-6420
▁stoltenberg	-6421
das	-6422
vra	-6423
▁lagas	-6424
▁resol	-6425
▁doarjut	-6426
usttegiid	-6427
▁vástádus	-6428
▁ekonomiija	-6429
▁läroplanen	-6430
▁norg	-6431
▁hehtt	-6432
▁ville	-6433
▁vuord	-6434
▁váldi	-6435
giellan	-6436
▁ovddal	-6437
▁korrekt	-6438
▁skyddade	-6439
▁upplever	-6440
▁kapihttalis	-6441
▁ministeriets	-6442
vok	-6443
miin	-6444
uhtta	-6445
▁euro	-6446
▁mild	-6447
eallin	-6448
skolel	-6449
keahtes	-6450
▁tillkänn	-6451
▁tillväxt	-6452
användning	-6453
▁dárogiela	-6454
▁prioriteras	-6455
bok	-6456
ođast	-6457
áhtas	-6458
▁lule	-6459
▁talar	-6460
▁bargod	-6461
▁doktor	-6462
▁diekkár	-6463
▁påverka	-6464
▁raporter	-6465
▁vuolggas	-6466
▁ovttaoaiv	-6467
▁specifika	-6468
▁styrelseledam	-6469
▁lärarutbildning	-6470
▁servodateallima	-6471
▁jot	-6472
▁skör	-6473
▁stiv	-6474
▁sátn	-6475
mmaide	-6476
▁beror	-6477
▁galle	-6478
▁oslos	-6479
▁utvid	-6480
alassii	-6481
fágalaš	-6482
▁resten	-6483
▁sáhtát	-6484
ikationer	-6485
plementer	-6486
såtgärder	-6487
▁tillfreds	-6488
partementii	-6489
▁oahpahussii	-6490
▁mánáidgárddis	-6491
seby	-6492
▁aas	-6493
▁spes	-6494
▁tror	-6495
▁ruoŧas	-6496
▁servic	-6497
▁åarjel	-6498
▁augusti	-6499
▁maiguin	-6500
▁skuvlii	-6501
hållanden	-6502
▁bevarande	-6503
▁sámediggeráđđái	-6504
iam	-6505
ktil	-6506
olag	-6507
▁ikt	-6508
▁ämne	-6509
acitet	-6510
bjudande	-6511
ortnegat	-6512
ruktuvrra	-6513
▁inrättas	-6514
▁musihkka	-6515
amearrádus	-6516
▁beroštumiid	-6517
đe	-6518
enr	-6519
rej	-6520
uvd	-6521
sfor	-6522
ádde	-6523
▁sän	-6524
▁igen	-6525
▁čuoh	-6526
adeami	-6527
norgga	-6528
seende	-6529
▁guvll	-6530
▁lagab	-6531
▁sakka	-6532
▁besset	-6533
▁lohkat	-6534
▁utsett	-6535
▁föremål	-6536
▁duhtavaš	-6537
▁barnskydd	-6538
▁máŋggabeal	-6539
▁erbjudanden	-6540
▁överenskommelse	-6541
▁áh	-6542
▁coun	-6543
▁frid	-6544
▁mjöl	-6545
▁nyck	-6546
joavku	-6547
▁ligga	-6548
▁riddu	-6549
▁ássan	-6550
▁kandid	-6551
▁lahtut	-6552
▁vuolde	-6553
bálvalus	-6554
▁bajimus	-6555
▁gozihit	-6556
▁ovdanbukt	-6557
▁ovttasdoai	-6558
▁rehketdoall	-6559
-6	-6560
▁3,	-6561
▁it	-6562
▁nim	-6563
arnas	-6564
smynd	-6565
▁berg	-6566
▁gall	-6567
▁kräv	-6568
▁woll	-6569
▁tales	-6570
istiska	-6571
▁rievda	-6572
▁timmar	-6573
▁innovaš	-6574
▁jonassen	-6575
▁kapihtal	-6576
▁årsredovis	-6577
▁lassáneapmi	-6578
▁naturresurser	-6579
dob	-6580
lii	-6581
öva	-6582
▁44	-6583
förs	-6584
▁ole	-6585
akken	-6586
láhka	-6587
ahttet	-6588
▁lägre	-6589
▁vuxna	-6590
▁distri	-6591
▁syssel	-6592
▁berörda	-6593
▁gaskabo	-6594
skommuner	-6595
▁röstläng	-6596
▁stipeanda	-6597
▁vindkraft	-6598
▁álggahuvvon	-6599
▁näringslivet	-6600
▁subventioner	-6601
▁parlamentsval	-6602
▁ne	-6603
kött	-6604
▁isa	-6605
▁kal	-6606
▁ved	-6607
persp	-6608
▁säga	-6609
demiin	-6610
▁anita	-6611
▁expert	-6612
▁joavku	-6613
▁čuovvov	-6614
▁meningen	-6615
▁ceavzilis	-6616
▁läroplaner	-6617
▁erfarenheter	-6618
/12	-6619
ona	-6620
▁ri	-6621
ttás	-6622
▁sij	-6623
immet	-6624
▁psyk	-6625
enskap	-6626
spunkt	-6627
äkring	-6628
▁hemma	-6629
▁muitt	-6630
áhtalaš	-6631
äkerhet	-6632
▁formul	-6633
▁gjorts	-6634
▁läggas	-6635
▁molssa	-6636
▁produc	-6637
bibliote	-6638
▁lassána	-6639
▁sisttis	-6640
▁wollmann	-6641
▁diskuteras	-6642
▁godkännande	-6643
▁historjjálaš	-6644
▁förutsättningar	-6645
nr	-6646
ät	-6647
stå	-6648
▁báh	-6649
dades	-6650
ånger	-6651
▁http	-6652
▁saml	-6653
▁kåven	-6654
▁háhkat	-6655
▁stimul	-6656
▁ägande	-6657
▁tydligt	-6658
prošeakta	-6659
▁bargguid	-6660
▁kommande	-6661
undervisning	-6662
▁implementer	-6663
skt	-6664
▁bb	-6665
▁di	-6666
▁buh	-6667
▁låg	-6668
plánas	-6669
▁behöv	-6670
▁metod	-6671
▁nannen	-6672
jeringen	-6673
ovnnalaš	-6674
uovddáža	-6675
▁stivrra	-6676
▁vuostáiváld	-6677
.17	-6678
/00	-6679
▁dol	-6680
▁ron	-6681
▁bild	-6682
▁lahtu	-6683
▁legit	-6684
▁oasál	-6685
▁submi	-6686
▁uttal	-6687
ppfjell	-6688
▁menddo	-6689
▁industr	-6690
▁respekt	-6691
▁rovvilt	-6692
▁ovttasbarg	-6693
▁sámeálbmot	-6694
▁konferensen	-6695
▁vuođđoskuvla	-6696
▁institutionen	-6697
elv	-6698
buss	-6699
ftel	-6700
okten	-6701
oluid	-6702
ttain	-6703
atiskt	-6704
▁lávde	-6705
▁stöds	-6706
▁gielas	-6707
▁beaktil	-6708
▁pension	-6709
ministern	-6710
sammanträ	-6711
▁njeallje	-6712
oahpahusas	-6713
▁åtgärderna	-6714
organisašuvnna	-6715
▁julevsámegiel	-6716
fta	-6717
▁2.4	-6718
ahtut	-6719
▁gaup	-6720
▁anmär	-6721
▁stäng	-6722
▁annars	-6723
▁marita	-6724
▁čavčča	-6725
guovllus	-6726
▁present	-6727
politihkas	-6728
▁gáibádusaid	-6729
omp	-6730
atter	-6731
▁akte	-6732
ektive	-6733
▁jarle	-6734
▁ásset	-6735
▁ávkin	-6736
▁čuovvu	-6737
▁kirsten	-6738
▁nesseby	-6739
▁báikenam	-6740
▁našunála	-6741
▁behandlar	-6742
▁bygglagen	-6743
▁čovdosiid	-6744
▁álgoálbmog	-6745
▁biddjojuvvo	-6746
▁mánáidgárddi	-6747
▁mánáidsuodjalus	-6748
pu	-6749
cci	-6750
daga	-6751
ress	-6752
lands	-6753
▁fárr	-6754
ansvar	-6755
astima	-6756
▁sárdn	-6757
▁skicka	-6758
industri	-6759
▁gáiddus	-6760
▁tillägg	-6761
tideaddji	-6762
▁revision	-6763
▁eatnamiid	-6764
▁dárogiella	-6765
▁suohkaniid	-6766
▁plenarsammanträ	-6767
▁áššejođiheaddji	-6768
ivån	-6769
áigi	-6770
▁vie	-6771
čuogg	-6772
kommun	-6773
▁lágas	-6774
▁offic	-6775
splatser	-6776
álddahus	-6777
▁geardde	-6778
▁medlemm	-6779
▁underteck	-6780
▁finnmárkkul	-6781
▁rievdadusat	-6782
▁vuolláičáll	-6783
▁geavahuvvojit	-6784
▁dc	-6785
ärar	-6786
▁15.	-6787
▁sál	-6788
ggaid	-6789
▁jáhk	-6790
▁prop	-6791
▁gohčod	-6792
▁nyckel	-6793
▁ändras	-6794
sstyrelsen	-6795
▁respektive	-6796
▁tillgänglig	-6797
10	-6798
vies	-6799
vuor	-6800
ánan	-6801
obier	-6802
ttuid	-6803
▁ovan	-6804
ihkkar	-6805
▁dehál	-6806
▁fidno	-6807
▁deaŧal	-6808
▁fartyg	-6809
▁nammii	-6810
▁erohusat	-6811
▁invändning	-6812
▁bosättnings	-6813
rd	-6814
▁65	-6815
oris	-6816
regi	-6817
▁600	-6818
▁virg	-6819
▁ášše	-6820
ivččii	-6821
skapet	-6822
áššiin	-6823
▁antar	-6824
▁rastá	-6825
▁ovdánan	-6826
▁searvad	-6827
▁gaskabodd	-6828
▁stortings	-6829
▁geavaheamis	-6830
▁sámediggeráđis	-6831
kii	-6832
tel	-6833
▁lah	-6834
▁rah	-6835
▁vem	-6836
▁áid	-6837
uster	-6838
▁dása	-6839
▁joik	-6840
▁finan	-6841
▁modern	-6842
▁senior	-6843
▁ledamöter	-6844
▁dáhpáhuvvá	-6845
▁boazodoallos	-6846
▁davvisámegiel	-6847
▁organisationen	-6848
▁z	-6849
vat	-6850
▁fö	-6851
arti	-6852
aruđ	-6853
ycke	-6854
▁bai	-6855
▁kyrk	-6856
▁arran	-6857
▁åtgär	-6858
▁analys	-6859
▁bearaš	-6860
▁ráfáid	-6861
▁suoidn	-6862
▁tjänst	-6863
▁máhttol	-6864
▁fungerar	-6865
▁doaimmahit	-6866
▁ekonomiskt	-6867
▁seminariet	-6868
▁departemean	-6869
iela	-6870
▁nöj	-6871
samet	-6872
uotna	-6873
▁dovd	-6874
▁juli	-6875
▁unga	-6876
▁vuov	-6877
uohtan	-6878
▁borde	-6879
▁guđet	-6880
▁journ	-6881
ruktion	-6882
árvalus	-6883
▁anslut	-6884
▁eaktud	-6885
▁förlor	-6886
▁gånger	-6887
▁uppman	-6888
▁ohcamat	-6889
▁rievtti	-6890
▁internet	-6891
▁tysfjord	-6892
▁ursprungsf	-6893
▁ovddalgihtii	-6894
amus	-6895
evuo	-6896
foss	-6897
tema	-6898
▁dim	-6899
▁läk	-6900
▁krävs	-6901
▁leder	-6902
▁polis	-6903
áhtolaš	-6904
▁rappor	-6905
▁veahki	-6906
▁várdob	-6907
▁bearraš	-6908
▁gränser	-6909
▁ráhkkan	-6910
▁sjukdom	-6911
▁gažaldat	-6912
▁dásseárvo	-6913
▁eventuella	-6914
sv	-6915
▁mih	-6916
▁uti	-6917
▁trom	-6918
▁gáhtt	-6919
▁åsikt	-6920
olažžan	-6921
▁hábmet	-6922
▁högsta	-6923
▁mainna	-6924
▁utifrån	-6925
▁geavahus	-6926
▁deaŧalaččat	-6927
▁organiseren	-6928
▁beroškeahttá	-6929
.30	-6930
gea	-6931
ádj	-6932
ftet	-6933
▁3.3	-6934
ivves	-6935
▁emot	-6936
▁krit	-6937
▁prat	-6938
▁baicc	-6939
▁betra	-6940
▁dilis	-6941
▁inget	-6942
▁aktiiv	-6943
▁bidjan	-6944
▁lágain	-6945
▁sekret	-6946
▁student	-6947
▁avvikelse	-6948
▁regionalt	-6949
▁sammanfatt	-6950
▁presenteras	-6951
▁mánáidgárddit	-6952
,6	-6953
ego	-6954
▁ho	-6955
abiv	-6956
opul	-6957
▁fát	-6958
▁gav	-6959
▁lan	-6960
rievd	-6961
▁ožžo	-6962
hkalaš	-6963
▁partn	-6964
▁terje	-6965
ulggašt	-6966
▁bestäm	-6967
▁licens	-6968
▁ruvdno	-6969
faranden	-6970
▁olbmuin	-6971
▁čálalaš	-6972
▁arranger	-6973
▁evttohan	-6974
sametinget	-6975
▁diskutera	-6976
▁förändring	-6977
▁förutsätter	-6978
▁stuorradiggi	-6979
▁utmaningarna	-6980
bor	-6981
gin	-6982
doms	-6983
olli	-6984
onen	-6985
váll	-6986
▁fäl	-6987
▁ort	-6988
▁rig	-6989
▁snå	-6990
iellt	-6991
▁boas	-6992
▁dáhk	-6993
▁kung	-6994
▁bovde	-6995
▁guhte	-6996
▁nämns	-6997
▁divttas	-6998
▁čálling	-6999
▁dieđihit	-7000
▁iešmearr	-7001
skommitténs	-7002
▁fylkkamánni	-7003
▁rievdadusaid	-7004
-0	-7005
hka	-7006
rud	-7007
ámm	-7008
sled	-7009
▁asp	-7010
▁aud	-7011
▁bal	-7012
▁háv	-7013
rikes	-7014
snivå	-7015
▁arth	-7016
aláhka	-7017
▁länet	-7018
▁ronny	-7019
▁áddej	-7020
▁kommit	-7021
valaččat	-7022
▁minskat	-7023
▁områdes	-7024
▁platser	-7025
▁avseende	-7026
▁fokusera	-7027
▁föräldra	-7028
▁oaivvild	-7029
▁ovddidii	-7030
▁talesman	-7031
▁artihkkal	-7032
▁miljarder	-7033
▁resurssat	-7034
▁ulbmiliid	-7035
▁badjelasas	-7036
▁uppföljningen	-7037
,4	-7038
emi	-7039
kän	-7040
oađ	-7041
ddii	-7042
eakt	-7043
vrra	-7044
▁tän	-7045
▁vuđ	-7046
indra	-7047
▁ovda	-7048
▁finán	-7049
▁fásta	-7050
▁titta	-7051
▁allvar	-7052
▁arthur	-7053
▁bargov	-7054
▁hjälpa	-7055
▁jagiin	-7056
▁ráđđel	-7057
▁hantera	-7058
▁ledamot	-7059
▁ohppiin	-7060
▁positiv	-7061
▁ruovttu	-7062
▁processer	-7063
▁evttohuvvon	-7064
▁ollislaččat	-7065
▁perspektiivv	-7066
sin	-7067
▁at	-7068
edöm	-7069
▁110	-7070
▁bit	-7071
▁utom	-7072
▁josef	-7073
ahistor	-7074
▁guovlu	-7075
▁handel	-7076
▁medier	-7077
▁starka	-7078
iivvalaš	-7079
▁legitim	-7080
projektet	-7081
▁förtydlig	-7082
ošiehtadusa	-7083
▁iešguđetge	-7084
▁áššemeannu	-7085
överskridande	-7086
▁birasgáhttende	-7087
▁ohcanáigemearri	-7088
▁il	-7089
▁ve	-7090
atts	-7091
ivšš	-7092
oduo	-7093
srätt	-7094
▁medie	-7095
▁välja	-7096
peandda	-7097
▁guvsám	-7098
▁vikten	-7099
distrikt	-7100
▁samling	-7101
mearrádus	-7102
▁insatser	-7103
▁samfundet	-7104
▁namalassii	-7105
▁vuođđoealáhus	-7106
gej	-7107
tim	-7108
ärn	-7109
stöd	-7110
xten	-7111
▁bed	-7112
▁gud	-7113
▁äga	-7114
▁saji	-7115
uorgái	-7116
▁intro	-7117
▁konse	-7118
▁oadje	-7119
ahuvvon	-7120
▁boazos	-7121
▁rådets	-7122
▁stabil	-7123
▁áittar	-7124
▁steinar	-7125
▁uppgift	-7126
▁vanliga	-7127
▁almmuhit	-7128
▁evttohit	-7129
▁nammadan	-7130
▁áigemear	-7131
.15	-7132
▁isk	-7133
▁álo	-7134
▁čáz	-7135
agráf	-7136
ement	-7137
▁grat	-7138
▁fátmm	-7139
▁ođast	-7140
▁spieh	-7141
punkter	-7142
▁bajimuš	-7143
sprocesser	-7144
fálaldagaid	-7145
▁bohccobier	-7146
▁prošeavttat	-7147
▁överväganden	-7148
9.	-7149
akti	-7150
medl	-7151
▁tør	-7152
▁klag	-7153
▁plac	-7154
▁ännu	-7155
▁goass	-7156
▁ansöka	-7157
▁boazol	-7158
▁ruošša	-7159
▁betonas	-7160
▁ossodat	-7161
▁aktuella	-7162
▁avsättas	-7163
▁davvisám	-7164
▁distribu	-7165
▁doarjjan	-7166
▁högskolan	-7167
▁kappfjell	-7168
▁engagemang	-7169
▁rehketdoalu	-7170
▁sihkkarastá	-7171
▁förordningar	-7172
▁joatkkaskuvla	-7173
ock	-7174
ahkk	-7175
▁the	-7176
▁utöv	-7177
▁vázz	-7178
uvdnii	-7179
▁vearro	-7180
▁ássang	-7181
▁iežamet	-7182
▁máilmmi	-7183
▁månader	-7184
▁dutkamii	-7185
▁čielggas	-7186
čoahkkimis	-7187
..	-7188
ct	-7189
đas	-7190
full	-7191
stag	-7192
▁4.3	-7193
amuša	-7194
revet	-7195
kultur	-7196
oahtit	-7197
▁försv	-7198
▁riekt	-7199
▁internat	-7200
ašiehtadus	-7201
▁juridiska	-7202
▁sohkabeal	-7203
▁befolkning	-7204
▁eanetlohku	-7205
▁offentligt	-7206
▁ealáhusaide	-7207
▁erbjudandet	-7208
▁utgångspunkt	-7209
▁universitehtas	-7210
ame	-7211
örj	-7212
obeal	-7213
ograf	-7214
▁bágg	-7215
▁diimm	-7216
▁toril	-7217
▁förmån	-7218
▁galgat	-7219
▁njealj	-7220
▁primär	-7221
▁närmare	-7222
▁revisor	-7223
▁urbefolk	-7224
▁guvllolaš	-7225
▁samarbets	-7226
▁uppfyller	-7227
▁språkcentra	-7228
▁sáhkavuorru	-7229
▁presenterades	-7230
sed	-7231
uđđ	-7232
vak	-7233
▁obb	-7234
centr	-7235
ssitu	-7236
▁girko	-7237
▁hålla	-7238
▁täcka	-7239
emiidda	-7240
itiativ	-7241
▁arrang	-7242
▁bakken	-7243
▁delvis	-7244
▁čuvvot	-7245
▁tillsyn	-7246
▁unnimus	-7247
▁vanligt	-7248
▁interneah	-7249
▁kapacitet	-7250
▁váikkuhus	-7251
▁geográfalaš	-7252
▁pedagogalaš	-7253
▁utvärdering	-7254
▁ođđajagimánu	-7255
▁searvadahttin	-7256
enta	-7257
skov	-7258
▁14.	-7259
▁dal	-7260
▁fel	-7261
nasat	-7262
▁mill	-7263
▁utred	-7264
▁vårdt	-7265
▁áigge	-7266
▁dagens	-7267
▁regelb	-7268
▁syftar	-7269
▁barnets	-7270
▁webbplats	-7271
▁várrejuvvon	-7272
▁subventionen	-7273
▁förhandlingarna	-7274
olf	-7275
▁ed	-7276
▁opm	-7277
ekonom	-7278
yggande	-7279
prográmm	-7280
talaččat	-7281
▁searvan	-7282
▁dárbbaša	-7283
▁erbjuder	-7284
▁omröstning	-7285
▁direktoratet	-7286
▁dáruiduhttin	-7287
▁mihttomeriid	-7288
▁rámmaeavttuid	-7289
rep	-7290
▁jr	-7291
ašii	-7292
fond	-7293
▁bár	-7294
ervod	-7295
ialis	-7296
▁fjär	-7297
▁mánu	-7298
▁bohte	-7299
▁galge	-7300
▁mobil	-7301
▁njeal	-7302
▁servv	-7303
▁viess	-7304
ustitie	-7305
▁beaivi	-7306
▁cealká	-7307
▁dadjat	-7308
▁dahket	-7309
▁gjorde	-7310
▁renkött	-7311
▁julggašt	-7312
▁ruvnnuin	-7313
▁veahkkin	-7314
▁anpassade	-7315
▁prošektii	-7316
sprogrammet	-7317
ápmelaččaid	-7318
▁gažaldagat	-7319
▁språkrådet	-7320
▁duođaštuvvon	-7321
gt	-7322
inna	-7323
ppar	-7324
▁eah	-7325
▁jođ	-7326
ddain	-7327
dedje	-7328
▁logu	-7329
ihkkii	-7330
▁hirbm	-7331
mahttit	-7332
▁uppmär	-7333
odagaide	-7334
▁deltagit	-7335
▁etablera	-7336
▁geahččal	-7337
▁gielalaš	-7338
▁njuolgga	-7339
▁oadjebas	-7340
▁starkare	-7341
▁julevsámi	-7342
▁nordlándda	-7343
▁rekommender	-7344
▁máŋggabealat	-7345
▁lullisámegiel	-7346
eabb	-7347
emet	-7348
áige	-7349
▁377	-7350
▁5.1	-7351
ihkar	-7352
▁tear	-7353
▁diibm	-7354
▁indik	-7355
▁läggs	-7356
▁värder	-7357
▁bearbet	-7358
skommunen	-7359
▁tidsfristen	-7360
▁statistihkka	-7361
▁ursprungsfolks	-7362
miid	-7363
sson	-7364
▁5.2	-7365
bland	-7366
odoai	-7367
▁tyck	-7368
foanda	-7369
guvlui	-7370
iljöer	-7371
▁sajis	-7372
▁árran	-7373
▁aspekt	-7374
▁oktage	-7375
▁rievdd	-7376
▁ulbmila	-7377
▁uppväxt	-7378
▁norgalaš	-7379
▁dárbbašuvvo	-7380
▁guovttegielalaš	-7381
uođđ	-7382
ständ	-7383
▁bier	-7384
▁gávn	-7385
▁hupm	-7386
▁vahág	-7387
▁konkurr	-7388
▁justitie	-7389
▁mandáhta	-7390
▁henriksen	-7391
▁möjligheten	-7392
▁ansträngningar	-7393
áin	-7394
▁49	-7395
▁hy	-7396
▁jov	-7397
dokum	-7398
sförm	-7399
vuona	-7400
ations	-7401
▁beali	-7402
▁váste	-7403
▁finska	-7404
▁njuovv	-7405
evttohus	-7406
▁naturen	-7407
▁dáhpáhus	-7408
▁lämpligt	-7409
oahpahussii	-7410
▁allaskuvllas	-7411
,3	-7412
▁bre	-7413
▁nej	-7414
▁san	-7415
beaiv	-7416
▁kant	-7417
▁valt	-7418
▁gávpo	-7419
▁temat	-7420
▁vuotn	-7421
▁áigut	-7422
asaččat	-7423
▁avsikt	-7424
▁bealli	-7425
▁gullat	-7426
▁jahkeb	-7427
▁máksit	-7428
▁petrol	-7429
▁ledning	-7430
▁loahpas	-7431
▁inkludera	-7432
kanvändning	-7433
▁juolluduvvon	-7434
▁vuođđoskuvlla	-7435
17	-7436
3.	-7437
áz	-7438
duo	-7439
▁ih	-7440
adji	-7441
erese	-7442
utkan	-7443
▁anses	-7444
▁minor	-7445
▁visat	-7446
▁årets	-7447
áduvvon	-7448
▁orohat	-7449
▁čilgeh	-7450
▁ipmárdus	-7451
▁genomförs	-7452
▁rávvagiid	-7453
▁marknadsför	-7454
▁aktiivvalaččat	-7455
old	-7456
tic	-7457
uššan	-7458
▁lyck	-7459
▁olám	-7460
▁čađa	-7461
tipend	-7462
▁följs	-7463
▁store	-7464
▁boastt	-7465
▁heajos	-7466
▁operat	-7467
▁nordnor	-7468
▁stuorit	-7469
▁välfärd	-7470
▁bargguin	-7471
▁fördelas	-7472
▁cuoŋománu	-7473
▁församling	-7474
▁gielddaide	-7475
▁áigodahkii	-7476
▁ovdánahttin	-7477
▁áigeguovdilis	-7478
me	-7479
bes	-7480
aráj	-7481
▁dvs	-7482
▁vea	-7483
eslut	-7484
▁runt	-7485
▁fáddá	-7486
▁målen	-7487
▁sáddet	-7488
ráigeahč	-7489
▁therese	-7490
▁tonvikt	-7491
▁analyser	-7492
▁dokumean	-7493
▁skuvllain	-7494
förhandling	-7495
▁ráhkaduvvon	-7496
▁árvvoštallama	-7497
2.	-7498
gáš	-7499
kke	-7500
▁57	-7501
edit	-7502
ánta	-7503
ásis	-7504
▁her	-7505
▁enhet	-7506
eckning	-7507
ministr	-7508
obuvtta	-7509
strateg	-7510
▁eaktod	-7511
▁goitge	-7512
▁gáivuo	-7513
▁mieđih	-7514
▁olggos	-7515
▁áimmah	-7516
▁lärande	-7517
▁ändring	-7518
▁ortnegiid	-7519
▁fokusområden	-7520
▁lokalsamhäll	-7521
▁rapportering	-7522
▁hálddašeapmái	-7523
▁jienastuslogu	-7524
buv	-7525
din	-7526
adat	-7527
aker	-7528
astt	-7529
▁5.3	-7530
▁fot	-7531
▁lon	-7532
▁disp	-7533
▁radi	-7534
▁real	-7535
fierpm	-7536
▁vuxen	-7537
amušaid	-7538
▁fjärde	-7539
▁hittar	-7540
▁uppmun	-7541
systemet	-7542
▁direkta	-7543
▁havssam	-7544
áigodagas	-7545
▁meahcást	-7546
▁omfattas	-7547
▁positiva	-7548
▁áŋgiruššan	-7549
▁traditioner	-7550
▁sápmelaččain	-7551
,-	-7552
bev	-7553
▁bu	-7554
sfrå	-7555
▁ant	-7556
▁oam	-7557
eamen	-7558
iliid	-7559
▁aukt	-7560
oaluin	-7561
▁buktá	-7562
▁garra	-7563
▁riddo	-7564
▁modell	-7565
hälsovår	-7566
▁levande	-7567
▁loahppa	-7568
▁förutsäg	-7569
▁fortsatta	-7570
▁geahččalan	-7571
▁hálddahusa	-7572
▁bedömningar	-7573
▁undervisnings	-7574
orna	-7575
álmm	-7576
angen	-7577
ordin	-7578
▁teck	-7579
▁öppna	-7580
edagogi	-7581
present	-7582
ásteami	-7583
▁viidát	-7584
▁vuolgg	-7585
▁tørfoss	-7586
▁uppfyll	-7587
doaibmabij	-7588
▁meannudit	-7589
▁ovdánahtt	-7590
▁árvoháhkan	-7591
utvecklingen	-7592
▁språkregler	-7593
▁vuoruhuvvon	-7594
▁administrativ	-7595
▁nissonolbmuid	-7596
▁sápmelaččaide	-7597
ctic	-7598
stid	-7599
▁1995	-7600
eaiggá	-7601
ggiide	-7602
▁bajit	-7603
▁fiska	-7604
▁justi	-7605
▁stödja	-7606
▁hjälper	-7607
▁utrikes	-7608
▁ansvarig	-7609
▁magnhild	-7610
▁áigodaga	-7611
▁miljárdda	-7612
▁geatnegasvuohta	-7613
mor	-7614
vir	-7615
▁67	-7616
ttit	-7617
▁379	-7618
▁fri	-7619
▁mär	-7620
▁guđe	-7621
▁synn	-7622
emiide	-7623
▁čuohc	-7624
centret	-7625
▁parter	-7626
ruktuvra	-7627
▁bohccot	-7628
▁regionen	-7629
▁vetenskap	-7630
mäl	-7631
dieđ	-7632
▁vrd	-7633
arens	-7634
▁dego	-7635
▁čatn	-7636
ssabiv	-7637
▁bered	-7638
▁buhcc	-7639
▁njuov	-7640
árvosaš	-7641
▁flytta	-7642
▁vuoste	-7643
deaddjit	-7644
ieđáhusa	-7645
▁njuolgg	-7646
▁sámiide	-7647
▁ministern	-7648
▁suodjalan	-7649
▁lávdegottis	-7650
▁bargojoavkku	-7651
▁bestämmelsen	-7652
▁genomförande	-7653
▁sámepolitihka	-7654
▁vidareutveckla	-7655
1.	-7656
fám	-7657
fråg	-7658
▁17.	-7659
▁sym	-7660
▁bete	-7661
▁vieh	-7662
ohppui	-7663
áittar	-7664
▁2008.	-7665
▁dáláš	-7666
▁fápmui	-7667
meahttun	-7668
▁barggut	-7669
▁beaktas	-7670
▁doaibmá	-7671
▁doallat	-7672
▁eaiggát	-7673
▁lärling	-7674
▁gällande	-7675
▁varandra	-7676
aministtar	-7677
▁guovddáža	-7678
partementet	-7679
▁alternativ	-7680
▁eanadoallu	-7681
▁synliggöra	-7682
▁álggahuvvo	-7683
▁organiserema	-7684
▁biddjojuvvojit	-7685
saš	-7686
set	-7687
lill	-7688
speg	-7689
▁194	-7690
▁hol	-7691
bruks	-7692
revis	-7693
umiin	-7694
▁gått	-7695
ahtuid	-7696
▁márjá	-7697
▁teavs	-7698
▁vahku	-7699
▁ásahan	-7700
▁erbjuda	-7701
▁guolleb	-7702
▁orohaga	-7703
▁areálaid	-7704
álašvuohta	-7705
▁ráđđeaddi	-7706
▁samelagens	-7707
▁stödsystem	-7708
▁tillkännag	-7709
▁gulahallama	-7710
▁sáddejuvvon	-7711
vor	-7712
ačča	-7713
▁12-	-7714
annen	-7715
▁dáža	-7716
▁tret	-7717
fjellet	-7718
formulär	-7719
▁biddjon	-7720
▁dagahan	-7721
▁juohkit	-7722
▁kommune	-7723
▁storlek	-7724
▁ungdoms	-7725
▁återspeg	-7726
▁cealkámuša	-7727
▁livsmedels	-7728
▁sáddejuvvo	-7729
▁parlamenten	-7730
▁regjeringen	-7731
▁prošeavttaid	-7732
▁válljejuvvon	-7733
▁doarjjareivve	-7734
▁mihttomearrin	-7735
6.	-7736
do	-7737
biv	-7738
drig	-7739
eien	-7740
poas	-7741
▁sáb	-7742
budet	-7743
▁(199	-7744
▁utsi	-7745
▁advok	-7746
▁buolvv	-7747
▁máksin	-7748
▁påpeka	-7749
▁vuordá	-7750
áŋgirušš	-7751
▁buohtal	-7752
▁preside	-7753
▁stivral	-7754
▁återbetal	-7755
▁andraspråk	-7756
▁oaivvildit	-7757
▁deaŧaleamos	-7758
▁ansökningsfr	-7759
▁boazodoallog	-7760
▁sisttisdoall	-7761
oci	-7762
sla	-7763
slä	-7764
▁ca	-7765
▁ås	-7766
issa	-7767
▁4.1	-7768
▁not	-7769
▁norm	-7770
buvtta	-7771
▁utfär	-7772
askuvla	-7773
▁aldrig	-7774
▁tydlig	-7775
arehketd	-7776
julggašt	-7777
▁fiskeri	-7778
▁förlust	-7779
▁joavkku	-7780
▁utmarks	-7781
▁utgifter	-7782
programmet	-7783
▁ásahusain	-7784
▁biträdande	-7785
▁kostnaderna	-7786
▁statistihka	-7787
▁terminologi	-7788
▁girjjálašvuođa	-7789
▁professionellt	-7790
,2	-7791
fon	-7792
net	-7793
▁sc	-7794
enden	-7795
mmain	-7796
▁frit	-7797
▁munt	-7798
splats	-7799
yrelse	-7800
▁fáttá	-7801
▁human	-7802
▁kapit	-7803
▁klemet	-7804
▁retter	-7805
antering	-7806
reformen	-7807
▁geahped	-7808
▁rievdan	-7809
▁álbmotm	-7810
bjudanden	-7811
gelbbolaš	-7812
initiativ	-7813
▁doavtter	-7814
▁införliv	-7815
▁åtgärden	-7816
▁historjjá	-7817
▁loahpalaš	-7818
▁ásaheapmi	-7819
▁fierpmádat	-7820
▁produktionen	-7821
▁doarjjastivra	-7822
▁mearkkašahtti	-7823
tat	-7824
vvu	-7825
ames	-7826
domm	-7827
elis	-7828
ivit	-7829
omål	-7830
▁typ	-7831
bjørn	-7832
ovdna	-7833
▁mitt	-7834
▁sett	-7835
▁stav	-7836
vugiid	-7837
▁fjell	-7838
▁trots	-7839
▁utnäm	-7840
▁nuorra	-7841
▁parall	-7842
▁council	-7843
▁válljej	-7844
▁kunskapen	-7845
▁upprättas	-7846
▁vuollásaš	-7847
▁juolluduvvo	-7848
▁klimatförändr	-7849
,9	-7850
eter	-7851
▁2.3	-7852
▁rav	-7853
sstöd	-7854
▁háll	-7855
▁manne	-7856
egående	-7857
▁ohppui	-7858
▁studera	-7859
▁nammadit	-7860
▁stáhtará	-7861
▁meannudan	-7862
▁reglering	-7863
▁speciella	-7864
▁uttalande	-7865
▁eanandoalu	-7866
▁evttohuvvo	-7867
ahii	-7868
smet	-7869
▁stá	-7870
▁ság	-7871
▁øst	-7872
emiär	-7873
fievr	-7874
skatt	-7875
álaid	-7876
▁skäl	-7877
▁2005.	-7878
▁renan	-7879
sfrågor	-7880
▁ealásk	-7881
▁nivåer	-7882
▁petter	-7883
olbmuide	-7884
▁muitala	-7885
▁saemien	-7886
irektevra	-7887
▁klagomål	-7888
▁sadjásaš	-7889
▁kriterier	-7890
▁underhåll	-7891
▁fastställa	-7892
▁avdelningen	-7893
▁nissonolbmot	-7894
▁bearráigeahččan	-7895
%.	-7896
tv	-7897
stu	-7898
utn	-7899
värv	-7900
ášši	-7901
▁dus	-7902
▁moa	-7903
▁utl	-7904
▁ája	-7905
▁šlá	-7906
deddj	-7907
uvvet	-7908
▁anta	-7909
baserad	-7910
skyddet	-7911
▁buktán	-7912
▁ekolog	-7913
▁girjer	-7914
▁iešguđ	-7915
▁marina	-7916
▁stater	-7917
▁oahppos	-7918
▁almmuhan	-7919
▁huvudmål	-7920
▁samtycke	-7921
▁seailluh	-7922
▁festivála	-7923
▁deháleamos	-7924
▁eanadoalus	-7925
▁förhandlingar	-7926
▁gymnasieskolor	-7927
;,	-7928
–1	-7929
ago	-7930
arie	-7931
behov	-7932
oaitt	-7933
▁dina	-7934
aktion	-7935
rategi	-7936
ssaide	-7937
▁sámis	-7938
▁várra	-7939
▁våren	-7940
ivuohta	-7941
▁aasrud	-7942
▁blivit	-7943
▁framgår	-7944
▁tretnes	-7945
▁överläm	-7946
▁godkända	-7947
▁upprätta	-7948
▁övergång	-7949
elasáhusat	-7950
▁rekrytera	-7951
▁eanandoall	-7952
▁resultaten	-7953
▁beaiváduvvon	-7954
▁presenterade	-7955
▁guovttegielat	-7956
▁máhtolašvuođa	-7957
ádd	-7958
ogal	-7959
sbyg	-7960
skyl	-7961
dalen	-7962
mötet	-7963
▁roms	-7964
▁kräva	-7965
▁láhčč	-7966
▁utses	-7967
▁vecka	-7968
splaner	-7969
▁bilaga	-7970
▁bivdán	-7971
▁kungen	-7972
▁ledjen	-7973
▁measta	-7974
eiendomm	-7975
usaiguin	-7976
vuođaide	-7977
▁premiär	-7978
▁utfärda	-7979
▁guovllut	-7980
skonferens	-7981
▁buohkaide	-7982
▁raporttas	-7983
▁överensst	-7984
▁čujuhuvvo	-7985
▁ovddiduvvo	-7986
▁handlingsplanen	-7987
▁organisašuvnnat	-7988
gs	-7989
ássi	-7990
▁1.1	-7991
▁30.	-7992
▁diŋ	-7993
britt	-7994
enska	-7995
▁1993	-7996
▁traf	-7997
▁nedan	-7998
oavkkus	-7999
▁hárjeh	-8000
▁máhtto	-8001
▁njálmm	-8002
▁erkännande	-8003
▁vealaheami	-8004
▁parlamentet	-8005
▁förhållandet	-8006
96	-8007
ärt	-8008
ehčč	-8009
ligg	-8010
ágán	-8011
allat	-8012
áigge	-8013
▁enda	-8014
▁riđđ	-8015
▁1999:	-8016
▁luohk	-8017
▁rösta	-8018
▁skjut	-8019
byggnad	-8020
▁bargon	-8021
▁čadnon	-8022
▁arkiiva	-8023
▁avsätts	-8024
▁resursa	-8025
▁dieđihan	-8026
▁doaimmain	-8027
▁praktiken	-8028
▁geahččalit	-8029
▁dearvvašvuohta	-8030
bs	-8031
jis	-8032
ušt	-8033
ása	-8034
▁ör	-8035
ever	-8036
▁250	-8037
▁hil	-8038
ágiid	-8039
▁dikk	-8040
jorden	-8041
ressen	-8042
▁dievd	-8043
▁north	-8044
▁oasis	-8045
▁solli	-8046
skuvlla	-8047
spektiv	-8048
▁arctic	-8049
▁folket	-8050
▁lávdeg	-8051
▁urfolk	-8052
▁viehka	-8053
▁använts	-8054
esurssaid	-8055
▁beräknas	-8056
▁doalahit	-8057
▁elektron	-8058
▁fortsatt	-8059
▁kunskaps	-8060
▁buvttadan	-8061
▁jienastit	-8062
▁skuvllaid	-8063
▁spesialis	-8064
▁gánnáhahtt	-8065
▁čađahuvvui	-8066
direktoratet	-8067
▁davviriikka	-8068
▁försäljning	-8069
▁ovdáneapmái	-8070
gun	-8071
▁fon	-8072
bedöm	-8073
ehåll	-8074
illái	-8075
▁sávz	-8076
ihkkár	-8077
▁duohk	-8078
▁jáhkk	-8079
▁lagaš	-8080
▁áigot	-8081
joavkku	-8082
▁ersätt	-8083
▁rådgiv	-8084
▁uppdat	-8085
▁neahtta	-8086
▁njealji	-8087
▁gárvvist	-8088
▁ásahuvvot	-8089
▁etablering	-8090
▁eventuellt	-8091
▁geografiska	-8092
▁rievdaduvvo	-8093
▁kulturhistor	-8094
▁ovttasbarggus	-8095
arl	-8096
ega	-8097
▁po	-8098
▁kop	-8099
byrån	-8100
▁soab	-8101
▁slakt	-8102
▁olahit	-8103
▁ávnnas	-8104
▁ålders	-8105
▁čuoggá	-8106
▁plánaid	-8107
ebyggande	-8108
▁fuolahan	-8109
▁invånare	-8110
▁anledning	-8111
▁digitalis	-8112
▁siffrorna	-8113
▁genomförts	-8114
▁diskuterades	-8115
▁infrastruktur	-8116
▁kulturmuitorá	-8117
▁administrativt	-8118
bba	-8119
bál	-8120
iju	-8121
▁86	-8122
▁af	-8123
▁156	-8124
▁bist	-8125
▁stad	-8126
▁2009:	-8127
▁arena	-8128
▁väljs	-8129
▁dássái	-8130
▁friija	-8131
▁gårdar	-8132
▁stärkas	-8133
▁válddii	-8134
▁översyn	-8135
▁gustovaš	-8136
▁standard	-8137
▁betraktas	-8138
▁föräldrarna	-8139
▁geatnegahtt	-8140
▁medlemmarna	-8141
▁tvåspråkiga	-8142
▁oahpahuslága	-8143
▁överklagande	-8144
▁oahppoplánaid	-8145
▁traditionellt	-8146
kŋ	-8147
ww	-8148
idi	-8149
www	-8150
iála	-8151
olon	-8152
▁hot	-8153
▁kör	-8154
▁ner	-8155
oasis	-8156
ämmer	-8157
▁láig	-8158
▁sávv	-8159
plánat	-8160
▁2016.	-8161
▁31.12	-8162
▁befog	-8163
▁ovdii	-8164
osition	-8165
▁ovttam	-8166
uvrralaš	-8167
▁årligen	-8168
▁landsbyg	-8169
▁čatnasit	-8170
▁válljejit	-8171
sperspektiv	-8172
▁historiska	-8173
▁huksenlága	-8174
▁ráhkaduvvot	-8175
▁parlamentets	-8176
▁ávkkástallat	-8177
00-	-8178
idar	-8179
vård	-8180
ealla	-8181
äkter	-8182
▁dássi	-8183
▁inlär	-8184
▁ständ	-8185
▁áidna	-8186
aheapmi	-8187
hálddaš	-8188
▁gransk	-8189
▁möjlig	-8190
▁hirbmat	-8191
▁lagabui	-8192
administr	-8193
▁artiklar	-8194
▁energiij	-8195
▁ökningen	-8196
▁bohtosiid	-8197
▁iešguđege	-8198
▁inkomster	-8199
ojuvvojedje	-8200
▁generationer	-8201
,0	-8202
imm	-8203
išg	-8204
iida	-8205
▁3.4	-8206
▁des	-8207
▁onl	-8208
▁báhc	-8209
▁uhcc	-8210
▁visa	-8211
▁åtag	-8212
ektorn	-8213
unskap	-8214
▁färre	-8215
▁guovd	-8216
▁livet	-8217
▁riđđu	-8218
imiidda	-8219
isvuođa	-8220
skriter	-8221
uovllut	-8222
▁behövs	-8223
▁konton	-8224
▁arbetat	-8225
▁kommers	-8226
▁ruhtadit	-8227
▁juolludit	-8228
▁nissoniid	-8229
▁organiser	-8230
▁ođasmahtt	-8231
▁samerådet	-8232
▁sekretari	-8233
▁áimmahušš	-8234
▁seminarium	-8235
oahpaheaddji	-8236
▁evttohusaid	-8237
▁introduktion	-8238
▁prioriterade	-8239
▁prošeavttaide	-8240
▁rättigheterna	-8241
▁konsultašuvnna	-8242
▁eiseválddiiguin	-8243
spel	-8244
stra	-8245
tekn	-8246
ulaš	-8247
umin	-8248
điin	-8249
▁27.	-8250
▁str	-8251
givar	-8252
smöte	-8253
uhttit	-8254
▁anmäl	-8255
▁bifog	-8256
▁bálká	-8257
▁gamla	-8258
▁čálih	-8259
asteami	-8260
atnegas	-8261
▁seammá	-8262
▁sivvan	-8263
▁starta	-8264
▁vardag	-8265
liggande	-8266
▁kompens	-8267
▁midjiide	-8268
▁mielddus	-8269
▁omfattar	-8270
▁tjänsten	-8271
▁árvoháhk	-8272
eavaheapmi	-8273
▁innehålla	-8274
▁tidningar	-8275
▁boazolohku	-8276
▁föreslagna	-8277
▁kulturvies	-8278
▁oassálastit	-8279
▁plánejuvvon	-8280
▁riddoguolást	-8281
▁doaibmadoarjaga	-8282
▁2:	-8283
▁hä	-8284
▁ámm	-8285
▁färd	-8286
▁gosa	-8287
▁olje	-8288
▁otná	-8289
▁prog	-8290
oahtán	-8291
▁beare	-8292
▁bjørn	-8293
▁fylka	-8294
▁govus	-8295
▁samis	-8296
eavttas	-8297
stjänst	-8298
▁biegga	-8299
▁gången	-8300
▁norlán	-8301
▁riekta	-8302
▁förbereda	-8303
▁förväntar	-8304
▁förväntas	-8305
▁översättning	-8306
▁arbetsordning	-8307
▁tvåspråkighet	-8308
▁ovddasteaddjit	-8309
lik	-8310
ske	-8311
▁km	-8312
aler	-8313
▁duh	-8314
▁sid	-8315
▁west	-8316
asttii	-8317
istret	-8318
▁ensam	-8319
▁sadji	-8320
▁svara	-8321
▁följas	-8322
▁hållas	-8323
▁mening	-8324
▁smávva	-8325
ligheter	-8326
▁begäran	-8327
▁áirasat	-8328
guovlluin	-8329
▁lullisám	-8330
▁siidaoasi	-8331
▁oahpaheaddj	-8332
▁suoidnemánu	-8333
▁boazodoalloh	-8334
,8	-8335
aba	-8336
ŋgg	-8337
▁1:	-8338
▁ce	-8339
kult	-8340
uála	-8341
▁ent	-8342
▁ref	-8343
▁yng	-8344
osiin	-8345
ution	-8346
▁geig	-8347
▁rolf	-8348
▁steg	-8349
riekti	-8350
▁snåsa	-8351
▁veahá	-8352
▁áššed	-8353
partiet	-8354
▁beassá	-8355
▁harald	-8356
▁museas	-8357
▁ombudsm	-8358
▁skyddar	-8359
▁statligt	-8360
▁viidásit	-8361
shantering	-8362
▁ovddasvás	-8363
▁årsrapport	-8364
▁čálalaččat	-8365
▁representan	-8366
▁geavaheapmái	-8367
▁šiehtadallan	-8368
▁socialtjänster	-8369
▁dievasčoahkkima	-8370
4.	-8371
▁pe	-8372
▁sø	-8373
oakk	-8374
čilg	-8375
.2019	-8376
▁minn	-8377
barhet	-8378
skuvla	-8379
▁2008:	-8380
▁ládje	-8381
álažžan	-8382
▁illust	-8383
▁johtil	-8384
▁váilot	-8385
varanger	-8386
▁dárbbut	-8387
▁seminár	-8388
▁sierran	-8389
▁vuotnag	-8390
▁kustfisk	-8391
▁biologisk	-8392
▁dohkkehan	-8393
▁duojáriid	-8394
▁nuortalaš	-8395
▁suodjalit	-8396
▁beteckning	-8397
▁sjukvården	-8398
▁čoahkkimii	-8399
▁doavttergrá	-8400
▁ovttaoaivilis	-8401
▁dálkkádatrievd	-8402
▁konsultašuvnnat	-8403
eng	-8404
rov	-8405
-199	-8406
ibut	-8407
nivå	-8408
▁bod	-8409
▁moh	-8410
jupmi	-8411
▁gilv	-8412
▁havs	-8413
▁norw	-8414
▁text	-8415
▁havet	-8416
▁typer	-8417
▁dievdo	-8418
▁erland	-8419
▁fritid	-8420
▁inlägg	-8421
▁meahcce	-8422
▁statlig	-8423
▁centralt	-8424
▁dutkamis	-8425
▁länderna	-8426
▁mátkkošt	-8427
▁njealját	-8428
▁tolkning	-8429
▁översätt	-8430
bálvalusas	-8431
spolitiska	-8432
▁förhindra	-8433
▁lönsamhet	-8434
▁gáibiduvvo	-8435
▁reviderade	-8436
▁álbmotváll	-8437
▁arrangemang	-8438
▁meannuduvvo	-8439
▁várrelahttu	-8440
▁konsultašuvdn	-8441
▁gymnasieskolan	-8442
öm	-8443
ern	-8444
voll	-8445
▁máh	-8446
▁pil	-8447
iehtt	-8448
troms	-8449
▁giđđ	-8450
▁äger	-8451
▁čuov	-8452
icitet	-8453
medlem	-8454
vuonas	-8455
▁2007.	-8456
▁lista	-8457
▁lohkk	-8458
▁studer	-8459
▁áirasa	-8460
▁fiskare	-8461
▁oččodit	-8462
▁stärker	-8463
▁bidragit	-8464
▁faktiskt	-8465
▁skuvllat	-8466
finnmárkku	-8467
föreningen	-8468
▁borgemánu	-8469
▁etnicitet	-8470
▁relevánta	-8471
▁statsbygg	-8472
▁áŋgiruššat	-8473
▁finansieras	-8474
▁juridihkalaš	-8475
▁huvudsakligen	-8476
▁strategiijaid	-8477
▁reviderejuvvon	-8478
▁tillhandahålla	-8479
ola	-8480
▁62	-8481
anis	-8482
jjat	-8483
▁cel	-8484
ihtii	-8485
▁jotk	-8486
▁sten	-8487
norggas	-8488
▁alimus	-8489
▁bostad	-8490
▁gränsen	-8491
▁trøndel	-8492
▁återupp	-8493
▁händelse	-8494
ihkalaččat	-8495
▁språkliga	-8496
▁addojuvvon	-8497
▁árvalusaid	-8498
▁presidenten	-8499
▁ráđđelahttu	-8500
▁prioritering	-8501
▁utformningen	-8502
-5	-8503
/08	-8504
dah	-8505
fil	-8506
rit	-8507
ášt	-8508
agii	-8509
dási	-8510
gádag	-8511
sfräm	-8512
▁fili	-8513
▁höga	-8514
▁lämn	-8515
▁nama	-8516
▁tand	-8517
▁goabb	-8518
▁släkt	-8519
▁karakt	-8520
▁kvalit	-8521
▁städer	-8522
▁virggi	-8523
sperioden	-8524
▁skolorna	-8525
▁petroleum	-8526
▁rievdadus	-8527
▁betalnings	-8528
▁váldojuvvo	-8529
▁oahpaheaddje	-8530
eth	-8531
▁85	-8532
idda	-8533
▁11.	-8534
▁20.	-8535
▁ruv	-8536
attes	-8537
ddjin	-8538
folks	-8539
▁bálk	-8540
▁rámm	-8541
▁áhčč	-8542
inarie	-8543
prográ	-8544
▁2013:	-8545
▁minut	-8546
▁čuočč	-8547
▁medför	-8548
förslaget	-8549
proseassa	-8550
▁kontakta	-8551
▁ordinarie	-8552
▁ealáhusain	-8553
▁föreslagit	-8554
▁ollašuhttit	-8555
▁statistiska	-8556
▁kunskapsfräm	-8557
▁álbmotrievtti	-8558
▁konsekvenserna	-8559
prop	-8560
veig	-8561
gräns	-8562
stren	-8563
▁lösa	-8564
▁nuss	-8565
▁salt	-8566
finans	-8567
ivviid	-8568
ålogal	-8569
▁doahp	-8570
▁gälla	-8571
áigásaš	-8572
▁álttás	-8573
▁árvala	-8574
▁bekräft	-8575
▁lösning	-8576
▁vásihan	-8577
▁ávkkálaš	-8578
áhtalaččat	-8579
▁ealáhusas	-8580
▁östsamiska	-8581
▁boraspiriid	-8582
▁kartläggning	-8583
▁säkerställas	-8584
▁čuovvoleapmi	-8585
ris	-8586
olat	-8587
▁čuv	-8588
astis	-8589
iehtu	-8590
čálli	-8591
▁glob	-8592
▁viđa	-8593
oláhka	-8594
serade	-8595
▁2013.	-8596
▁kjell	-8597
▁sport	-8598
ideamis	-8599
ändamål	-8600
▁deklar	-8601
▁försök	-8602
▁gratis	-8603
▁gunnar	-8604
▁guoskk	-8605
▁stödet	-8606
▁hälften	-8607
▁service	-8608
▁övervak	-8609
▁faktorer	-8610
prošeavttat	-8611
▁bransfjell	-8612
▁distriktet	-8613
ministeriets	-8614
▁gažaldagaid	-8615
▁uppfattning	-8616
▁fylkkagielda	-8617
▁naturligtvis	-8618
):	-8619
obi	-8620
prp	-8621
hean	-8622
▁bon	-8623
▁rut	-8624
odell	-8625
▁lett	-8626
▁oapm	-8627
▁attra	-8628
▁avvis	-8629
▁oasit	-8630
▁virgi	-8631
plánaid	-8632
sområde	-8633
sutbyte	-8634
ällning	-8635
▁belopp	-8636
▁doalai	-8637
▁sádden	-8638
▁täcker	-8639
▁övriga	-8640
osuodjal	-8641
▁sjukhus	-8642
▁fitnodat	-8643
▁negativa	-8644
▁separata	-8645
▁sápmelaš	-8646
▁vuordámuš	-8647
▁inrättades	-8648
▁ovddideamis	-8649
▁rekrutteren	-8650
▁áŋgiruššama	-8651
▁mátkeealáhus	-8652
▁guovdageaidnu	-8653
annjuolggadusat	-8654
mag	-8655
▁6.2	-8656
ddara	-8657
▁bill	-8658
▁funn	-8659
▁lund	-8660
▁läsa	-8661
▁heait	-8662
uduvvon	-8663
ássásaš	-8664
▁bargun	-8665
▁earáid	-8666
▁baserad	-8667
▁betyder	-8668
▁författ	-8669
▁iešhean	-8670
▁inhemsk	-8671
▁jođihit	-8672
▁oanehis	-8673
▁siviila	-8674
uovlluide	-8675
▁gearggus	-8676
▁planeras	-8677
▁konkurrens	-8678
▁samrådsutt	-8679
konventionen	-8680
▁ministerier	-8681
▁värderingar	-8682
▁dahkkojuvvon	-8683
▁undersökning	-8684
▁undervisningen	-8685
▁vuođđoskuvllas	-8686
eas	-8687
orl	-8688
ttes	-8689
ören	-8690
mahtt	-8691
uollu	-8692
▁1992	-8693
▁meal	-8694
srådet	-8695
▁bálkk	-8696
▁mjölk	-8697
▁riegá	-8698
bmogiin	-8699
sarbete	-8700
▁dienas	-8701
▁mearra	-8702
▁mohtor	-8703
▁överst	-8704
ligheten	-8705
material	-8706
▁giellad	-8707
▁motsvar	-8708
▁urfolks	-8709
▁lämnades	-8710
▁statskog	-8711
eddjiiguin	-8712
▁högskolor	-8713
▁várdobáiki	-8714
▁eaktodáhtolaš	-8715
40	-8716
▁58	-8717
▁rä	-8718
prin	-8719
stån	-8720
▁23.	-8721
▁432	-8722
beräk	-8723
▁ráva	-8724
ttámuš	-8725
▁eanan	-8726
▁group	-8727
▁börjar	-8728
▁fylkas	-8729
▁guhkás	-8730
▁religi	-8731
▁flaggan	-8732
▁folkräk	-8733
▁2009-201	-8734
▁mariidna	-8735
▁oahpahit	-8736
▁sullasaš	-8737
▁pasieanta	-8738
▁principer	-8739
▁tilldelas	-8740
▁meddelande	-8741
▁suppleanter	-8742
anvuoigatvuohta	-8743
▁representation	-8744
čál	-8745
▁91	-8746
unda	-8747
▁alf	-8748
▁chr	-8749
▁myr	-8750
porta	-8751
▁ökas	-8752
ahuvvo	-8753
▁bevar	-8754
▁datte	-8755
▁filip	-8756
▁guhkk	-8757
▁heivv	-8758
itehtii	-8759
▁boazog	-8760
▁dihtom	-8761
▁nussir	-8762
▁čakčat	-8763
▁centret	-8764
▁ekonomi	-8765
▁vuordit	-8766
ameahttun	-8767
▁nammasaš	-8768
▁kontinuer	-8769
▁vásáhusat	-8770
▁försvarsma	-8771
▁čielggadan	-8772
▁doaibmabiju	-8773
▁majoriteten	-8774
▁rievdaduvvon	-8775
▁gulaskuddamii	-8776
▁doaibmadoarjja	-8777
▁markanvändning	-8778
pt	-8779
kaš	-8780
ruđ	-8781
▁77	-8782
kkus	-8783
sund	-8784
▁čáj	-8785
árkan	-8786
ännen	-8787
▁laks	-8788
▁liig	-8789
▁miht	-8790
▁måsø	-8791
ehttii	-8792
▁2017.	-8793
▁uhcit	-8794
alažžan	-8795
sfonden	-8796
▁divvun	-8797
▁fináns	-8798
▁namnet	-8799
eallimii	-8800
▁beassan	-8801
▁dahkkon	-8802
▁miellag	-8803
▁världen	-8804
▁dassážii	-8805
▁hänvisas	-8806
▁instituš	-8807
▁mildosat	-8808
ekommittén	-8809
▁permanenta	-8810
▁synpunkter	-8811
▁duopmostuol	-8812
▁finansiella	-8813
▁återstående	-8814
▁buvttadeapmi	-8815
▁sihkkarastet	-8816
ärarutbildning	-8817
mis	-8818
nos	-8819
/200	-8820
borg	-8821
stud	-8822
uoll	-8823
▁áit	-8824
innas	-8825
ivill	-8826
rymme	-8827
frågan	-8828
utkama	-8829
▁09.00	-8830
▁2007:	-8831
▁erkän	-8832
▁lohká	-8833
▁värden	-8834
▁friddja	-8835
▁frivill	-8836
▁föreslå	-8837
▁anpassas	-8838
▁grundades	-8839
▁positiiva	-8840
▁diskussion	-8841
▁föregående	-8842
▁lávdegodde	-8843
▁rievttálaš	-8844
▁driftbidrag	-8845
▁ráđđádallan	-8846
▁báikkálaččat	-8847
▁čuovvovaččat	-8848
▁ovddasteaddji	-8849
▁undersökningen	-8850
▁bearráigeahččat	-8851
,1	-8852
ert	-8853
ign	-8854
mar	-8855
▁63	-8856
feld	-8857
odan	-8858
▁428	-8859
▁gui	-8860
▁poj	-8861
▁ván	-8862
▁dálv	-8863
▁just	-8864
▁möta	-8865
roende	-8866
▁eahpe	-8867
▁viežž	-8868
▁kraven	-8869
▁kusten	-8870
▁önskan	-8871
▁doallan	-8872
▁förverk	-8873
▁förvänt	-8874
▁áigodat	-8875
▁juolluda	-8876
▁varanger	-8877
▁bibliotek	-8878
▁báikenamm	-8879
▁joavkkuid	-8880
▁utarbetas	-8881
▁mearkkašit	-8882
▁giellagáldu	-8883
▁företrädarna	-8884
▁suohkaniidda	-8885
▁gaskamearálaš	-8886
▁joatkkaskuvllas	-8887
▁88	-8888
igin	-8889
▁13.	-8890
▁22.	-8891
▁amb	-8892
asjon	-8893
árvvu	-8894
▁bodø	-8895
▁merk	-8896
▁oall	-8897
andets	-8898
tivrii	-8899
▁drabb	-8900
▁klart	-8901
▁visas	-8902
▁váilu	-8903
▁áššái	-8904
▁förank	-8905
▁guhtta	-8906
▁loguid	-8907
▁plánen	-8908
▁virgái	-8909
▁váldom	-8910
▁begrepp	-8911
▁cealkka	-8912
▁kyrkans	-8913
▁olámutt	-8914
▁angående	-8915
▁ledighet	-8916
▁boazodoll	-8917
▁kulturhus	-8918
▁produkter	-8919
▁nannejuvvo	-8920
▁čoahkkáige	-8921
▁neahttasiidd	-8922
▁proseanttain	-8923
▁möjligheterna	-8924
agi	-8925
juk	-8926
lad	-8927
▁ak	-8928
back	-8929
dern	-8930
icin	-8931
ohpi	-8932
sbeh	-8933
eames	-8934
eteck	-8935
iskuv	-8936
vända	-8937
ážiid	-8938
▁data	-8939
▁iešs	-8940
▁käll	-8941
▁vuot	-8942
áhtaid	-8943
▁bargi	-8944
▁lađas	-8945
▁renäg	-8946
▁sával	-8947
nämnden	-8948
▁fágain	-8949
▁museat	-8950
▁policy	-8951
▁reform	-8952
▁doaibmi	-8953
▁vuovdin	-8954
▁juridisk	-8955
enskaperna	-8956
▁hantering	-8957
▁vásáhusaid	-8958
▁fastställts	-8959
▁duodjeinstit	-8960
▁rámmaeavttut	-8961
▁tillkännagiv	-8962
▁láhkaásahusaid	-8963
▁movttiidahttit	-8964
▁organisašuvdna	-8965
▁ansökningsfrist	-8966
ckt	-8967
iiv	-8968
ahtu	-8969
barn	-8970
drar	-8971
igga	-8972
máll	-8973
▁bus	-8974
essor	-8975
skaff	-8976
▁jápm	-8977
venska	-8978
▁beale	-8979
▁brekk	-8980
▁eksám	-8981
▁áššeb	-8982
ivvalaš	-8983
pedagog	-8984
uhttima	-8985
▁searvi	-8986
▁vugiin	-8987
▁gielaid	-8988
▁gávnnat	-8989
▁stáhtus	-8990
▁sámekon	-8991
▁čájehan	-8992
▁buhcciid	-8993
▁uppfylla	-8994
▁áddejumi	-8995
sprocessen	-8996
▁čuovvulit	-8997
ovddideapmi	-8998
▁gulahallat	-8999
▁ovdagihtii	-9000
▁utmaningen	-9001
▁ásahusaide	-9002
▁ovddiduvvot	-9003
▁registrerad	-9004
▁strategalaš	-9005
▁áigeguovdil	-9006
▁dahkkojuvvot	-9007
▁dearvvašvuođ	-9008
▁landskommunerna	-9009
str	-9010
huks	-9011
omer	-9012
vänd	-9013
▁ran	-9014
▁vit	-9015
inner	-9016
▁lobi	-9017
▁vall	-9018
eimmet	-9019
▁eaige	-9020
▁kalla	-9021
▁längs	-9022
▁netto	-9023
▁ruokt	-9024
▁čuožž	-9025
itering	-9026
ligaste	-9027
árkkist	-9028
ättning	-9029
▁debatt	-9030
▁finner	-9031
▁lokaler	-9032
▁čuokkis	-9033
parlament	-9034
ráigeahču	-9035
▁bidragsb	-9036
▁lassánit	-9037
▁ovddádus	-9038
▁resursag	-9039
▁ansvariga	-9040
▁samarbeta	-9041
▁resolution	-9042
prošeavttaide	-9043
▁uppmärksamhet	-9044
▁sammanfattning	-9045
▁boazodoallolága	-9046
34	-9047
/04	-9048
/09	-9049
jar	-9050
ösa	-9051
asit	-9052
bruk	-9053
iveh	-9054
okta	-9055
unds	-9056
▁odd	-9057
feldt	-9058
▁jakt	-9059
▁nöjd	-9060
enstag	-9061
▁bakom	-9062
▁dáhtt	-9063
▁givss	-9064
▁orsak	-9065
▁sijte	-9066
enheter	-9067
váikkuh	-9068
▁kárten	-9069
▁miljön	-9070
▁omedel	-9071
▁resear	-9072
▁upphör	-9073
▁šiehta	-9074
ociation	-9075
oriserad	-9076
▁birrasa	-9077
▁fungera	-9078
▁landets	-9079
▁ollugat	-9080
▁ovdánit	-9081
▁bohtosat	-9082
▁kommunens	-9083
▁trondheim	-9084
▁bargonávcc	-9085
▁ekologalaš	-9086
▁hållbarhet	-9087
▁kapihttala	-9088
▁publiceras	-9089
▁anledningen	-9090
▁buvttadeami	-9091
▁deattuhuvvo	-9092
▁mearriduvvo	-9093
▁mánáidgárdi	-9094
▁biddjojuvvot	-9095
▁sihkkarastim	-9096
▁befolkningens	-9097
▁representerar	-9098
▁konstitutionen	-9099
▁bargiidbellodat	-9100
iej	-9101
put	-9102
arje	-9103
oppa	-9104
▁aut	-9105
▁meh	-9106
skole	-9107
▁bind	-9108
iseren	-9109
▁2019.	-9110
▁följd	-9111
▁njoam	-9112
▁uttry	-9113
▁bergen	-9114
▁fonden	-9115
▁former	-9116
▁johtal	-9117
▁ovddab	-9118
▁uhccán	-9119
▁anpassa	-9120
▁guohton	-9121
represent	-9122
▁máttasám	-9123
▁känneteck	-9124
▁licenstag	-9125
▁specifikt	-9126
▁biologalaš	-9127
▁distrikten	-9128
▁resurserna	-9129
▁grundskolel	-9130
▁lávdegoddái	-9131
▁stáhtaráđđi	-9132
▁valáštallan	-9133
▁kulturmuittut	-9134
▁underliggande	-9135
bái	-9136
tad	-9137
áks	-9138
▁dr	-9139
ddit	-9140
idde	-9141
slös	-9142
▁5.4	-9143
▁eaŋ	-9144
jovár	-9145
▁hear	-9146
▁kvar	-9147
▁vies	-9148
konsul	-9149
▁marth	-9150
▁eatnig	-9151
▁fattas	-9152
▁rigmor	-9153
▁bristen	-9154
▁skolans	-9155
▁leamašan	-9156
▁návccaid	-9157
▁research	-9158
▁professor	-9159
▁gaskkustit	-9160
▁čoahkkimat	-9161
prošeavttaid	-9162
▁árjjalaččat	-9163
▁centralbyrån	-9164
lf	-9165
fir	-9166
▁kö	-9167
skra	-9168
smed	-9169
▁6.3	-9170
▁hom	-9171
▁näm	-9172
▁oal	-9173
▁tlf	-9174
insen	-9175
oavda	-9176
olmmoš	-9177
▁liikk	-9178
ejuvvui	-9179
portion	-9180
▁beales	-9181
▁sihkar	-9182
bargguid	-9183
festival	-9184
▁datumet	-9185
▁arbetsliv	-9186
▁förluster	-9187
▁potential	-9188
▁riksrevis	-9189
▁granskning	-9190
▁slutsatsen	-9191
▁artihkkalis	-9192
geš	-9193
bete	-9194
står	-9195
▁lagt	-9196
▁unna	-9197
▁anger	-9198
▁dieđu	-9199
▁govva	-9200
▁smávv	-9201
bargiid	-9202
▁oaidnu	-9203
▁sandra	-9204
▁álggus	-9205
▁övrigt	-9206
anttaide	-9207
guovddáž	-9208
ompetens	-9209
ationerna	-9210
trøndelága	-9211
▁betydligt	-9212
▁praktiska	-9213
▁gáibádusat	-9214
▁árbediehtu	-9215
direktoráhta	-9216
▁doaibmabidj	-9217
▁máŋggalágan	-9218
▁oahppočuogg	-9219
▁förstärkning	-9220
▁ovttaárvosaš	-9221
/06	-9222
▁ba	-9223
▁und	-9224
▁viđ	-9225
.2012	-9226
andla	-9227
▁dađi	-9228
▁fred	-9229
▁máll	-9230
iotekn	-9231
▁2018.	-9232
▁delas	-9233
ossodat	-9234
▁deanus	-9235
▁ceavzil	-9236
▁definit	-9237
▁illustr	-9238
▁namahus	-9239
▁nuorain	-9240
▁tydliga	-9241
▁väljare	-9242
▁ávjovár	-9243
▁lednings	-9244
▁pågående	-9245
▁föreskriv	-9246
▁ruvdnosaš	-9247
ihttomearri	-9248
▁kulturellt	-9249
▁politihkka	-9250
▁dáhpáhuvvat	-9251
▁föräldrapen	-9252
▁hilgojuvvui	-9253
▁ovttasbargui	-9254
▁kostnadsberäk	-9255
▁ovttamielalaš	-9256
▁sisttisdoallá	-9257
▁buohtastahttit	-9258
▁lärarhjälpmedel	-9259
fy	-9260
.99	-9261
▁lj	-9262
ihet	-9263
▁19.	-9264
▁25.	-9265
▁nbr	-9266
▁sno	-9267
▁eadn	-9268
▁kvot	-9269
▁helst	-9270
▁oaččo	-9271
▁telem	-9272
▁tillå	-9273
▁álkit	-9274
eallimis	-9275
▁familje	-9276
▁nordisk	-9277
▁rättvis	-9278
▁árvvuid	-9279
ávdnasiid	-9280
▁mikkelsen	-9281
finnmárkkus	-9282
▁resultatet	-9283
▁allmänheten	-9284
▁dahkkojuvvo	-9285
▁ovttasbargat	-9286
▁riikkasearvvi	-9287
▁čoahkkáigeass	-9288
▁ärendehantering	-9289
aji	-9290
ekn	-9291
▁(2	-9292
▁1.2	-9293
▁gor	-9294
▁mon	-9295
▁pos	-9296
▁rat	-9297
datum	-9298
komst	-9299
▁gild	-9300
▁heah	-9301
▁huit	-9302
▁rahč	-9303
▁ruđa	-9304
amušat	-9305
ierade	-9306
▁2012:	-9307
▁hålls	-9308
▁manná	-9309
aččaide	-9310
▁bargoa	-9311
▁införa	-9312
▁liikká	-9313
▁online	-9314
▁origin	-9315
▁turist	-9316
sarbetet	-9317
▁biotekn	-9318
▁dagliga	-9319
▁museaid	-9320
▁musihka	-9321
▁redovis	-9322
▁kvinnors	-9323
▁paragráf	-9324
▁riikkain	-9325
▁skillnad	-9326
▁álggahus	-9327
▁deattuhan	-9328
▁kommenter	-9329
▁nedgången	-9330
▁vuođđudus	-9331
▁dehálaččat	-9332
▁omstruktur	-9333
▁publicering	-9334
▁innovašuvdna	-9335
organisašuvnnat	-9336
▁čalmmustahttit	-9337
▁driftskostnader	-9338
uc	-9339
ban	-9340
fámu	-9341
iger	-9342
ärer	-9343
▁26.	-9344
▁bib	-9345
dahje	-9346
dásis	-9347
isera	-9348
sbruk	-9349
▁diŋg	-9350
▁hopp	-9351
berošt	-9352
▁insats	-9353
▁váldon	-9354
dokument	-9355
ieringen	-9356
▁guorras	-9357
▁åsikter	-9358
▁detsamma	-9359
▁goassege	-9360
▁oidnosii	-9361
▁systemat	-9362
behandling	-9363
▁rehkenast	-9364
▁fastställs	-9365
ahálddašeami	-9366
▁eanandoallu	-9367
▁luonddurigg	-9368
▁máksojuvvot	-9369
▁nationalpar	-9370
▁oassálasttii	-9371
▁renodlingens	-9372
▁máhtolašvuohta	-9373
▁primärindustrin	-9374
-8	-9375
12	-9376
ub	-9377
dji	-9378
pma	-9379
rog	-9380
▁čo	-9381
aluo	-9382
▁2.5	-9383
▁gyn	-9384
ivčče	-9385
rafik	-9386
áššit	-9387
▁einn	-9388
▁lade	-9389
▁mobb	-9390
deltag	-9391
inrikt	-9392
ovttad	-9393
ttiide	-9394
▁noter	-9395
▁värld	-9396
domstol	-9397
▁eurohp	-9398
ejeaddji	-9399
sstipend	-9400
▁nuortas	-9401
▁ávžžuha	-9402
▁searvvai	-9403
▁behandlat	-9404
▁individen	-9405
▁riikkalaš	-9406
▁beroštumit	-9407
▁kunskapsbas	-9408
▁meannudeami	-9409
▁mearkkašumi	-9410
▁teknihkalaš	-9411
departementet	-9412
▁gielddaiguin	-9413
▁geavaheaddjit	-9414
.07	-9415
ørg	-9416
▁95	-9417
▁98	-9418
eman	-9419
gret	-9420
saem	-9421
utet	-9422
átne	-9423
▁lov	-9424
▁áhp	-9425
släpp	-9426
ádusa	-9427
▁girj	-9428
▁inge	-9429
aččain	-9430
poster	-9431
▁ráŋgg	-9432
▁stånd	-9433
▁vägen	-9434
▁öppet	-9435
oakkáld	-9436
språket	-9437
▁befatt	-9438
▁föränd	-9439
▁juksat	-9440
▁sirdit	-9441
smetoder	-9442
▁buorrin	-9443
▁guoskka	-9444
▁lättare	-9445
▁marknad	-9446
▁minskar	-9447
▁stiftel	-9448
intressen	-9449
ovdáneami	-9450
▁áirasiid	-9451
▁betesmark	-9452
▁individer	-9453
▁kulturárbb	-9454
▁kvaliteten	-9455
▁kulturrådet	-9456
▁luondduvuđđ	-9457
▁nordlánddas	-9458
▁ráddjejuvvon	-9459
administration	-9460
▁dárbbašuvvojit	-9461
agt	-9462
ool	-9463
uft	-9464
abil	-9465
bear	-9466
▁272	-9467
konst	-9468
olbmo	-9469
▁dieh	-9470
▁kurs	-9471
▁ment	-9472
dikkis	-9473
vuohki	-9474
▁2000.	-9475
▁balan	-9476
▁fanas	-9477
▁inlett	-9478
▁oassev	-9479
▁reaidd	-9480
perioden	-9481
sprocess	-9482
▁duohken	-9483
▁förläng	-9484
▁vuorras	-9485
▁bindande	-9486
▁påverkas	-9487
▁porsáŋggu	-9488
▁čađaheami	-9489
▁artihkkala	-9490
▁beräknings	-9491
▁bušeahttad	-9492
▁iešmearrid	-9493
▁marthinsen	-9494
▁ruhtadeami	-9495
▁specialist	-9496
▁vejolaččat	-9497
▁studenterna	-9498
▁fylkasuohkan	-9499
▁skuvlahistor	-9500
▁ealáhusdoaimmah	-9501
rig	-9502
ses	-9503
áđi	-9504
šun	-9505
digt	-9506
kesk	-9507
oroh	-9508
▁raš	-9509
▁säg	-9510
áššis	-9511
▁alde	-9512
▁gova	-9513
beslut	-9514
festiv	-9515
ilálaš	-9516
ksamma	-9517
repren	-9518
ärdera	-9519
▁heidi	-9520
▁maide	-9521
▁osiid	-9522
▁røros	-9523
▁skett	-9524
▁siidda	-9525
▁skriva	-9526
▁tecken	-9527
▁einnost	-9528
▁partner	-9529
▁čoavdit	-9530
eaiggádat	-9531
stjänsten	-9532
▁anpassad	-9533
▁beslutat	-9534
▁tekniska	-9535
▁fylkkadig	-9536
▁huitfeldt	-9537
▁penšuvdna	-9538
▁stimulera	-9539
▁utvärdera	-9540
rättigheter	-9541
▁samhällets	-9542
▁almmuhuvvon	-9543
▁beroštusaid	-9544
▁fylkkasuohkana	-9545
departemeanttain	-9546
90	-9547
ay	-9548
ly	-9549
eln	-9550
ilá	-9551
ogs	-9552
ggat	-9553
ktet	-9554
ämma	-9555
ödet	-9556
▁civ	-9557
▁kår	-9558
▁nrl	-9559
ernas	-9560
toduo	-9561
▁ball	-9562
▁heal	-9563
▁teor	-9564
▁vier	-9565
▁vurd	-9566
antikv	-9567
kontor	-9568
oluide	-9569
▁dološ	-9570
▁siste	-9571
▁valda	-9572
▁virgg	-9573
eaddjis	-9574
skontor	-9575
▁gávpot	-9576
▁konsum	-9577
▁nuvttá	-9578
urggiide	-9579
▁framför	-9580
▁samiske	-9581
▁suorggi	-9582
▁áiggiid	-9583
▁bušeahtt	-9584
▁visttiid	-9585
▁áššedovd	-9586
▁čoavddus	-9587
eiendommen	-9588
▁máttasámi	-9589
▁kommunernas	-9590
dearvvašvuođa	-9591
▁anläggningar	-9592
▁bohccobierggu	-9593
▁gaskaboddosaš	-9594
▁váttisvuođaid	-9595
▁vuxenutbildning	-9596
mi	-9597
bog	-9598
ime	-9599
jii	-9600
koh	-9601
pol	-9602
rejit	-9603
▁bäst	-9604
▁dorj	-9605
▁grön	-9606
▁test	-9607
deklar	-9608
istian	-9609
jandet	-9610
▁geasa	-9611
▁juste	-9612
birrasa	-9613
ktioner	-9614
▁fievrr	-9615
▁kravet	-9616
▁kroner	-9617
▁statss	-9618
▁varken	-9619
doaimmah	-9620
föranden	-9621
isttalaš	-9622
sförvalt	-9623
suorggis	-9624
▁doibmet	-9625
▁johttis	-9626
ideaddjin	-9627
▁duođalaš	-9628
▁beredskap	-9629
▁utarbetat	-9630
▁áigemeari	-9631
▁boazoguoht	-9632
▁eamiálbmog	-9633
▁mottagaren	-9634
▁ovdamearka	-9635
▁presentera	-9636
▁underlättar	-9637
▁geavaheaddji	-9638
injođihangoddi	-9639
▁nubbingiellan	-9640
▁davvisámegillii	-9641
/2	-9642
kc	-9643
gav	-9644
▁§§	-9645
iske	-9646
▁12.	-9647
▁4.4	-9648
.2005	-9649
ámiid	-9650
juollu	-9651
searvi	-9652
strene	-9653
▁fápmu	-9654
▁indre	-9655
▁ipmil	-9656
▁juogo	-9657
▁oarje	-9658
▁romsa	-9659
▁munnje	-9660
▁oahpus	-9661
▁rekrut	-9662
▁teknik	-9663
▁tjänste	-9664
▁ulbmill	-9665
▁eastadit	-9666
▁koppling	-9667
▁meahcceg	-9668
▁sáltoduo	-9669
▁søstrene	-9670
▁inledning	-9671
▁ohcanskov	-9672
▁funktionsh	-9673
▁hälsovårds	-9674
▁ramvillkoren	-9675
förhandlingarna	-9676
▁markförvaltning	-9677
alii	-9678
oaju	-9679
pris	-9680
umii	-9681
▁ink	-9682
álaga	-9683
▁1978	-9684
▁mutt	-9685
▁oppa	-9686
▁riid	-9687
▁2001.	-9688
▁heter	-9689
▁mudde	-9690
▁oasse	-9691
olbmuin	-9692
▁neiden	-9693
▁snabbt	-9694
▁thomas	-9695
▁áššenr	-9696
▁isaksen	-9697
▁koordin	-9698
▁mearrag	-9699
▁riekted	-9700
▁stáhtas	-9701
birrasiid	-9702
doaimmaid	-9703
▁sjukvård	-9704
▁buohtalas	-9705
▁genomfört	-9706
▁guolástan	-9707
▁motsvarar	-9708
▁materiella	-9709
▁suodjalang	-9710
▁suodjalusa	-9711
▁barnskyddet	-9712
▁fálaldagaid	-9713
▁tillräcklig	-9714
▁árvvoštallá	-9715
▁čoahkkimiin	-9716
▁presentation	-9717
▁grundutbildning	-9718
▁sökandebaserade	-9719
én	-9720
bef	-9721
atti	-9722
kont	-9723
mäkt	-9724
rats	-9725
▁inf	-9726
▁mel	-9727
▁sel	-9728
ester	-9729
ssain	-9730
▁aidd	-9731
▁ofel	-9732
▁trol	-9733
istara	-9734
umiide	-9735
▁lohpi	-9736
▁nytta	-9737
▁öppen	-9738
giiguin	-9739
▁biehtt	-9740
▁eahpes	-9741
▁enades	-9742
▁health	-9743
doarjaga	-9744
▁hedmark	-9745
▁institu	-9746
▁minuter	-9747
▁tromssa	-9748
▁utsetts	-9749
▁väldigt	-9750
▁samrådet	-9751
fálaldagat	-9752
▁barggolaš	-9753
gedieđáhusa	-9754
irektoráhta	-9755
sutveckling	-9756
▁festivaler	-9757
▁skriftligt	-9758
▁association	-9759
▁kontrollera	-9760
▁minoritehta	-9761
▁olmmošlohku	-9762
▁rapporterar	-9763
▁sáddejuvvojit	-9764
70	-9765
ite	-9766
ppo	-9767
enom	-9768
ggam	-9769
udan	-9770
▁175	-9771
▁21.	-9772
▁jøn	-9773
▁skå	-9774
ammer	-9775
ugiid	-9776
▁parl	-9777
▁rein	-9778
bealit	-9779
▁girku	-9780
▁helse	-9781
▁hilde	-9782
▁input	-9783
▁ohcci	-9784
▁olgeš	-9785
▁čieža	-9786
▁bedriv	-9787
▁diehtu	-9788
▁fångst	-9789
▁mannat	-9790
▁sámiin	-9791
▁trafik	-9792
▁åsjord	-9793
▁framste	-9794
▁giellal	-9795
▁läraren	-9796
▁oahppod	-9797
▁sáhttán	-9798
▁sárdnun	-9799
▁innebära	-9800
▁poasttas	-9801
▁fastighet	-9802
▁planerade	-9803
jođiheaddji	-9804
▁deaivvadit	-9805
▁definieras	-9806
▁etablerade	-9807
▁inspektion	-9808
▁luohttámuš	-9809
▁seailluhit	-9810
▁álbmotmeah	-9811
▁automatiskt	-9812
▁oassálastin	-9813
▁stuoradikki	-9814
▁bosättningar	-9815
▁förebyggande	-9816
▁administreras	-9817
institutionerna	-9818
▁hälsoforskning	-9819
ná	-9820
gra	-9821
opm	-9822
beth	-9823
eans	-9824
xter	-9825
árbu	-9826
▁350	-9827
▁con	-9828
grund	-9829
vuogi	-9830
šuvdn	-9831
▁adop	-9832
▁arke	-9833
▁bátn	-9834
▁dáll	-9835
▁gess	-9836
erande	-9837
sparti	-9838
▁ahkej	-9839
▁láilá	-9840
▁oidno	-9841
▁sátne	-9842
▁čálgo	-9843
centrum	-9844
▁kanske	-9845
▁norskt	-9846
▁váidda	-9847
▁anniken	-9848
▁áššiide	-9849
politiska	-9850
▁forskare	-9851
▁fördelar	-9852
▁hanteras	-9853
▁minskade	-9854
▁nordiskt	-9855
ovddideami	-9856
▁birrasiid	-9857
▁domstolen	-9858
▁entrepren	-9859
▁prioritet	-9860
▁servodatd	-9861
▁slutförts	-9862
▁bálvalusat	-9863
▁bearbetning	-9864
▁informerade	-9865
▁kommissionen	-9866
▁vuhtiiváldit	-9867
▁doavttergráda	-9868
▁jienastuslogus	-9869
eby	-9870
mán	-9871
följ	-9872
usge	-9873
▁7.2	-9874
▁900	-9875
▁lis	-9876
▁sek	-9877
▁suf	-9878
earit	-9879
still	-9880
áhpir	-9881
▁leva	-9882
omsorg	-9883
▁ovdam	-9884
▁prata	-9885
saemiej	-9886
▁dávvir	-9887
▁hedjon	-9888
▁stärkt	-9889
▁vaikke	-9890
▁avsatts	-9891
▁divššoh	-9892
▁etniska	-9893
▁intress	-9894
▁parliam	-9895
▁riektes	-9896
▁svenska	-9897
▁viežžat	-9898
uppgifter	-9899
▁expertis	-9900
▁samordna	-9901
▁utkastet	-9902
▁beslutade	-9903
▁dárbbuide	-9904
▁kruvnnuin	-9905
▁registrer	-9906
▁stuorimus	-9907
▁hjälpmedel	-9908
▁bargosajiid	-9909
▁teakstaoassi	-9910
▁gullevašvuođa	-9911
▁institušuvnna	-9912
▁ovttadássásaš	-9913
▁rehketdoallod	-9914
▁utvärderingen	-9915
▁terminologiija	-9916
▁tillhandahåller	-9917
.7	-9918
bol	-9919
žin	-9920
ráđđ	-9921
▁nii	-9922
▁sve	-9923
▁vul	-9924
asaid	-9925
áhtii	-9926
▁flex	-9927
▁jeav	-9928
▁same	-9929
▁unge	-9930
agirjj	-9931
▁buvtt	-9932
▁dohko	-9933
▁kring	-9934
▁nanus	-9935
▁áššel	-9936
▁etiska	-9937
▁talade	-9938
▁čuožžu	-9939
ologiska	-9940
uvnnalaš	-9941
▁foandda	-9942
▁funnits	-9943
▁geavaha	-9944
▁klargör	-9945
▁čuoggás	-9946
produkter	-9947
▁buohcciv	-9948
▁faktiska	-9949
▁nissonat	-9950
▁begränsad	-9951
▁deltagare	-9952
▁servodats	-9953
▁suppleant	-9954
▁ávnnaslaš	-9955
▁förtroende	-9956
▁stipeandda	-9957
▁överföring	-9958
▁minoriteter	-9959
▁registrerar	-9960
▁förväntningar	-9961
▁användningsreg	-9962
▁geavaheddjiide	-9963
iig	-9964
adis	-9965
▁kna	-9966
▁sjö	-9967
bered	-9968
easet	-9969
▁alcc	-9970
▁amas	-9971
▁kåre	-9972
växten	-9973
▁bodde	-9974
▁riska	-9975
kkašumi	-9976
▁dihtor	-9977
▁geasuh	-9978
▁jođiha	-9979
▁kartlä	-9980
▁girjjis	-9981
▁lahtuid	-9982
▁poastta	-9983
▁ranveig	-9984
▁vuođđog	-9985
▁anslaget	-9986
▁birrasii	-9987
▁framgång	-9988
▁hållbart	-9989
▁mobbning	-9990
▁preassad	-9991
▁renantal	-9992
▁vuogádat	-9993
▁buvttadit	-9994
▁sierranas	-9995
▁ulbmillaš	-9996
▁övervägas	-9997
▁befogenhet	-9998
▁buoremusat	-9999
▁fitnodagat	-10000
▁gielddalaš	-10001
▁äganderätt	-10002
ovddideapmái	-10003
▁nammaduvvon	-10004
▁läroplanerna	-10005
▁oahppolávdego	-10006
▁hálddašanguvlui	-10007
co	-10008
df	-10009
jäm	-10010
van	-10011
▁ád	-10012
ddar	-10013
fest	-10014
naid	-10015
sedy	-10016
▁dev	-10017
▁ees	-10018
▁mir	-10019
▁pav	-10020
▁tom	-10021
▁čáh	-10022
ierat	-10023
áhkii	-10024
▁biht	-10025
▁hant	-10026
▁luođ	-10027
▁árga	-10028
álbmog	-10029
▁2000:	-10030
▁duddj	-10031
▁geahp	-10032
▁rustt	-10033
▁sisaf	-10034
▁sivas	-10035
▁varav	-10036
eaiggát	-10037
▁erhåll	-10038
▁förväg	-10039
▁guovdu	-10040
▁jämlik	-10041
▁nyvoll	-10042
▁oapmah	-10043
▁skapas	-10044
▁varför	-10045
▁vuolit	-10046
ortnegis	-10047
▁doaluid	-10048
▁förmåga	-10049
▁nilssen	-10050
▁veahkeh	-10051
▁accepter	-10052
▁dárkkist	-10053
▁muitalii	-10054
▁rekryter	-10055
▁beroštumi	-10056
▁váhnemiid	-10057
hälsovården	-10058
▁förberedel	-10059
▁báikenamaid	-10060
▁mihttomeari	-10061
▁omfattningen	-10062
.20	-10063
let	-10064
ekom	-10065
ohis	-10066
astan	-10067
rider	-10068
váldd	-10069
áiras	-10070
▁leai	-10071
▁seks	-10072
▁tull	-10073
beliid	-10074
nummer	-10075
▁dávjj	-10076
▁leaba	-10077
▁känner	-10078
historia	-10079
▁digital	-10080
▁giellam	-10081
▁justiis	-10082
▁jønsson	-10083
▁sammans	-10084
byggnader	-10085
▁referens	-10086
▁sändning	-10087
▁politiken	-10088
▁röstlängd	-10089
▁spiehkast	-10090
▁övergrepp	-10091
▁čielggade	-10092
politihkkii	-10093
▁anmärkning	-10094
▁kombination	-10095
▁buohtastahttá	-10096
▁meannudeapmái	-10097
kat	-10098
arne	-10099
ggan	-10100
áđđi	-10101
▁sal	-10102
astat	-10103
▁dram	-10104
▁fält	-10105
▁gret	-10106
draget	-10107
▁bivdo	-10108
▁brett	-10109
▁konkl	-10110
▁källa	-10111
▁lahka	-10112
▁stats	-10113
▁titel	-10114
oaimmah	-10115
ombudsm	-10116
▁bohcco	-10117
▁fágaid	-10118
▁guđege	-10119
▁kártet	-10120
▁nämnda	-10121
▁biddjot	-10122
▁davimus	-10123
▁giellat	-10124
▁rehabil	-10125
▁verklig	-10126
▁čujuhan	-10127
▁elektrov	-10128
▁gollomer	-10129
▁medveten	-10130
▁uppskatt	-10131
frågningar	-10132
▁buhtadusa	-10133
▁förslagen	-10134
▁gáibádusa	-10135
▁beviljande	-10136
▁ráhkaduvvo	-10137
▁vuođđolága	-10138
ssituationen	-10139
▁sámedikkiid	-10140
▁čoahkkimiid	-10141
▁konvenšuvdna	-10142
▁máhttolokten	-10143
▁váldojuvvojit	-10144
▁lotnolasealáhus	-10145
95	-10146
iŋŋ	-10147
ási	-10148
öds	-10149
▁3.5	-10150
▁jor	-10151
astán	-10152
bjørg	-10153
eahčč	-10154
minst	-10155
▁feed	-10156
▁vart	-10157
▁árvu	-10158
beaivi	-10159
dealla	-10160
domear	-10161
▁01.01	-10162
▁bilag	-10163
▁earet	-10164
▁lágat	-10165
▁sierr	-10166
▁sorjj	-10167
andring	-10168
uhtadus	-10169
vuohtan	-10170
▁gokčat	-10171
▁inleda	-10172
▁myrnes	-10173
▁riikas	-10174
▁hanssen	-10175
eatnamiid	-10176
▁artikeln	-10177
▁betonade	-10178
▁dearvvas	-10179
▁dieđusge	-10180
▁språklig	-10181
▁förnyelse	-10182
▁investera	-10183
▁kunskaper	-10184
▁bieggafápm	-10185
▁doarjjaohc	-10186
▁rådsmedlem	-10187
▁artihkkalat	-10188
▁ulbmiliidda	-10189
▁čuovvoleami	-10190
▁ministerierna	-10191
▁årsredovisning	-10192
11	-10193
bus	-10194
cer	-10195
ksa	-10196
fyll	-10197
ilja	-10198
ogat	-10199
smöj	-10200
udit	-10201
▁1.3	-10202
▁gre	-10203
-2009	-10204
aráđi	-10205
ierar	-10206
iimet	-10207
▁bely	-10208
▁pass	-10209
▁dagar	-10210
▁flick	-10211
▁listt	-10212
▁olyck	-10213
▁täcks	-10214
aruđaid	-10215
orlunda	-10216
▁cealka	-10217
▁eallit	-10218
▁heltid	-10219
▁master	-10220
▁moadde	-10221
▁vahkus	-10222
▁áviiss	-10223
▁kristin	-10224
▁metoder	-10225
▁skyltar	-10226
▁slakter	-10227
bjudandet	-10228
▁klargöra	-10229
▁pedagogi	-10230
▁regelbun	-10231
čoahkkimii	-10232
▁annorlunda	-10233
▁ealáhussan	-10234
▁fiskerimin	-10235
▁släktingar	-10236
▁utvecklats	-10237
▁prošeavttas	-10238
▁saltfjellet	-10239
▁vattenbruks	-10240
▁čađaheapmái	-10241
▁dohkkehuvvot	-10242
▁invändningar	-10243
▁lihkostuvvan	-10244
▁prinsihpalaš	-10245
▁guovllustivra	-10246
▁riddoguolástus	-10247
då	-10248
▁64	-10249
atge	-10250
mäst	-10251
ávkk	-10252
åner	-10253
▁16.	-10254
▁190	-10255
▁274	-10256
▁ide	-10257
▁kát	-10258
▁rim	-10259
-2008	-10260
medle	-10261
oahtt	-10262
▁besk	-10263
▁comm	-10264
▁ihåg	-10265
▁oarj	-10266
▁okto	-10267
▁tala	-10268
▁alkoh	-10269
▁galbb	-10270
▁guoss	-10271
▁nordk	-10272
▁obser	-10273
▁ravna	-10274
▁rávve	-10275
▁sunds	-10276
▁aktiva	-10277
▁design	-10278
▁elliid	-10279
▁fárren	-10280
▁fáttát	-10281
▁geahpp	-10282
▁hinder	-10283
▁inbjud	-10284
▁lämnas	-10285
▁mearka	-10286
▁sprida	-10287
guovddáš	-10288
▁kruvnno	-10289
▁lärarna	-10290
▁minskas	-10291
▁oaidnán	-10292
▁feedback	-10293
▁träffade	-10294
▁geavatlaš	-10295
ošiehtadall	-10296
▁formálalaš	-10297
▁rådgivande	-10298
▁gieđahallat	-10299
▁vuoruheamit	-10300
▁språkprojekt	-10301
ovddasvástádusa	-10302
▁gelbbolašvuođag	-10303
hug	-10304
sal	-10305
uos	-10306
▁3:	-10307
▁öv	-10308
gade	-10309
oddi	-10310
rust	-10311
tter	-10312
ativa	-10313
ihkat	-10314
álate	-10315
▁ange	-10316
▁anna	-10317
▁kamp	-10318
▁stra	-10319
váttis	-10320
▁bekym	-10321
▁joavk	-10322
▁láide	-10323
▁total	-10324
okumean	-10325
samiskt	-10326
▁bargom	-10327
▁bátned	-10328
▁doahtt	-10329
bargguin	-10330
ovuoigat	-10331
skuvllas	-10332
▁advokat	-10333
▁earáide	-10334
▁harstad	-10335
▁rensköt	-10336
▁ungefär	-10337
▁utrymme	-10338
▁avgifter	-10339
▁ráŋggášt	-10340
▁ávdnasiid	-10341
▁anpassning	-10342
▁proportion	-10343
▁integration	-10344
▁interaktion	-10345
▁árbevieruid	-10346
▁mötesplatser	-10347
▁rávisolbmuid	-10348
▁studeanttaid	-10349
▁sáhkavuorrol	-10350
▁fylkkagielddaid	-10351
▁konsekvensbedöm	-10352
bø	-10353
jø	-10354
▁31.	-10355
▁fad	-10356
▁åge	-10357
popul	-10358
ániid	-10359
▁9730	-10360
▁ford	-10361
arenor	-10362
lažžan	-10363
ledare	-10364
obeale	-10365
temiin	-10366
▁biepm	-10367
▁förra	-10368
▁govtt	-10369
▁ordna	-10370
▁vidta	-10371
▁čilge	-10372
iidosaš	-10373
áneapmi	-10374
▁duojis	-10375
▁loktet	-10376
▁termer	-10377
dearvvaš	-10378
ojeaddji	-10379
▁arbetsm	-10380
▁interna	-10381
▁lágidii	-10382
▁produkt	-10383
▁rutiner	-10384
▁saminor	-10385
▁beskrivs	-10386
▁dárkilet	-10387
▁historjá	-10388
▁ohcamiid	-10389
▁árjjalaš	-10390
oministtar	-10391
▁attraktiv	-10392
irektoratet	-10393
sanvändning	-10394
▁auktoritet	-10395
▁dárogielat	-10396
▁levnadsför	-10397
▁rapportera	-10398
▁vejolažžan	-10399
oahpaheaddje	-10400
▁sierralágan	-10401
▁bidragsbrevet	-10402
▁davviriikkaid	-10403
▁spesialistade	-10404
▁stáhtabušeahtas	-10405
/3	-10406
7)	-10407
jal	-10408
▁61	-10409
▁66	-10410
ciid	-10411
meld	-10412
árat	-10413
▁afg	-10414
ansch	-10415
▁asto	-10416
▁kött	-10417
▁utse	-10418
böcker	-10419
hugnes	-10420
▁gehčč	-10421
▁inläm	-10422
▁nappo	-10423
▁runar	-10424
▁säson	-10425
▁áššin	-10426
agiidda	-10427
givaren	-10428
platser	-10429
▁förmod	-10430
▁krävas	-10431
▁mudden	-10432
▁rámmat	-10433
▁school	-10434
reglerna	-10435
▁berätta	-10436
▁giellas	-10437
▁medborg	-10438
▁nammada	-10439
▁siskkil	-10440
▁aktevrra	-10441
▁byggnads	-10442
▁deaivvad	-10443
▁original	-10444
▁stáhtusa	-10445
▁betalning	-10446
▁energiija	-10447
▁marknaden	-10448
▁matematik	-10449
▁vedhugnes	-10450
▁árbedieđu	-10451
▁juogaduvvo	-10452
▁rámmaplána	-10453
▁bestämmelse	-10454
▁fokusområde	-10455
▁gohčoduvvon	-10456
▁nannejuvvot	-10457
▁dahkkojuvvui	-10458
▁doaibmagolut	-10459
▁dásseárvosaš	-10460
▁licenstagare	-10461
▁föreskrifterna	-10462
organisationerna	-10463
ŋg	-10464
kán	-10465
lin	-10466
lok	-10467
pon	-10468
atnu	-10469
idii	-10470
innu	-10471
kušš	-10472
ustá	-10473
vika	-10474
▁bul	-10475
eabbo	-10476
oster	-10477
uovlo	-10478
valda	-10479
▁cegg	-10480
▁daga	-10481
▁gáld	-10482
entary	-10483
former	-10484
oahpus	-10485
▁dákko	-10486
▁dáčča	-10487
▁livss	-10488
▁mångs	-10489
▁pilot	-10490
▁sökar	-10491
skolans	-10492
▁boaitt	-10493
▁guldal	-10494
▁nannos	-10495
▁riikar	-10496
▁siskka	-10497
ssaiguin	-10498
▁erbjuds	-10499
▁maidege	-10500
▁máhttit	-10501
▁riktade	-10502
▁vuođđod	-10503
▁čohkket	-10504
▁antingen	-10505
▁buohkain	-10506
▁doaibmav	-10507
▁överförs	-10508
▁relaterat	-10509
▁tydligare	-10510
▁guovvamánus	-10511
▁havssamiska	-10512
▁svarsutbyte	-10513
▁čadnojuvvon	-10514
▁dárkileappot	-10515
▁perspektivet	-10516
▁tillhörighet	-10517
▁ovddiduvvojit	-10518
▁kulturarvsskydd	-10519
25	-10520
ho	-10521
hta	-10522
itá	-10523
▁lå	-10524
ente	-10525
nasa	-10526
stän	-10527
uvla	-10528
▁18.	-10529
▁byn	-10530
▁loa	-10531
▁trå	-10532
ddiid	-10533
ielat	-10534
▁loga	-10535
▁nanu	-10536
▁ritt	-10537
eapmin	-10538
iseras	-10539
teamis	-10540
uvrras	-10541
▁arild	-10542
▁börja	-10543
▁dakko	-10544
▁dulka	-10545
▁inköp	-10546
▁skylt	-10547
▁skörd	-10548
▁ámmát	-10549
▁profil	-10550
išuvnnas	-10551
partiets	-10552
▁gaskkus	-10553
▁handels	-10554
▁njuovah	-10555
▁johtilit	-10556
▁riegádan	-10557
▁slutliga	-10558
skriterier	-10559
▁principen	-10560
▁undersöka	-10561
▁álbmogiid	-10562
sfördelning	-10563
▁införandet	-10564
▁förmodligen	-10565
▁hálddahusas	-10566
áittardeaddji	-10567
▁individuella	-10568
anvuoigatvuođa	-10569
▁parliamentary	-10570
▁publikationer	-10571
▁skuvlahistorjá	-10572
▁sámediggeválgga	-10573
.,	-10574
elat	-10575
etab	-10576
grän	-10577
ivet	-10578
olan	-10579
utöv	-10580
▁báŋ	-10581
▁glä	-10582
samel	-10583
vvuid	-10584
▁goar	-10585
▁inre	-10586
▁mina	-10587
attend	-10588
aškušš	-10589
iseret	-10590
verkan	-10591
▁12.00	-10592
▁tryck	-10593
▁visot	-10594
dettiin	-10595
▁bjarne	-10596
▁gilval	-10597
▁oastit	-10598
▁olahan	-10599
▁pengar	-10600
▁radios	-10601
▁árvvus	-10602
personal	-10603
▁jearald	-10604
▁läsåret	-10605
▁vårdhem	-10606
attendrag	-10607
vuogádaga	-10608
▁baserade	-10609
▁formalis	-10610
▁lassánii	-10611
▁replihkat	-10612
▁utomlands	-10613
▁čuovvolan	-10614
▁juolludusa	-10615
▁kollektivt	-10616
förhållanden	-10617
▁långsiktiga	-10618
▁utnyttjande	-10619
▁rehketdoallu	-10620
▁siskkabealde	-10621
▁vårdtjänster	-10622
▁ämnesområden	-10623
▁čađahuvvojit	-10624
▁positiivvalaš	-10625
▁sáltoduoddara	-10626
▁utbildningser	-10627
▁vuoigatvuođal	-10628
▁marknadsföring	-10629
▁geatnegasvuođat	-10630
▁protokollposter	-10631
mu	-10632
ökt	-10633
▁ju	-10634
agir	-10635
muse	-10636
ttut	-10637
▁700	-10638
▁bär	-10639
▁fál	-10640
▁gra	-10641
▁rik	-10642
anska	-10643
báiki	-10644
árbev	-10645
▁bott	-10646
▁jiet	-10647
▁ođas	-10648
▁soam	-10649
ádagas	-10650
▁43/07	-10651
▁behär	-10652
▁bátne	-10653
▁heive	-10654
▁lärde	-10655
▁utser	-10656
▁afghan	-10657
▁språks	-10658
▁vahkku	-10659
ásahusat	-10660
▁eaiggád	-10661
▁förlägg	-10662
▁geahččá	-10663
▁journal	-10664
▁oaivila	-10665
▁reivves	-10666
▁sundset	-10667
▁uteslut	-10668
▁vuođust	-10669
konferens	-10670
▁háliidan	-10671
▁kvalific	-10672
▁samråden	-10673
▁unjárgga	-10674
▁vahágiid	-10675
▁doktorand	-10676
▁ekonomiij	-10677
▁evalueren	-10678
▁viiddidit	-10679
▁bajábealde	-10680
▁bakgrunden	-10681
▁dásseárvvu	-10682
▁heaittihit	-10683
▁överstiger	-10684
▁deklaration	-10685
▁dáhpáhuvvan	-10686
▁fastställer	-10687
skommissionen	-10688
▁instrumenten	-10689
▁finansieringen	-10690
joh	-10691
▁gu	-10692
▁29.	-10693
▁avi	-10694
▁buo	-10695
▁fám	-10696
▁mam	-10697
▁syd	-10698
▁čan	-10699
uhusa	-10700
verks	-10701
▁dárk	-10702
▁gilt	-10703
▁njul	-10704
delsen	-10705
period	-10706
äderna	-10707
▁árrat	-10708
▁anteck	-10709
▁dorjot	-10710
▁dulkon	-10711
mannosaš	-10712
strategi	-10713
▁gradvis	-10714
▁omfatta	-10715
▁påpekat	-10716
▁unnidit	-10717
registret	-10718
ättningen	-10719
▁bellodat	-10720
▁dohkkeha	-10721
▁máilmmis	-10722
▁oktiiord	-10723
▁ständigt	-10724
asmeahttun	-10725
▁boraspire	-10726
▁branscher	-10727
▁evenemang	-10728
▁förvaltas	-10729
▁gymnasial	-10730
▁heivvolaš	-10731
▁njuolggod	-10732
bálvalusain	-10733
▁beviljades	-10734
▁omfattning	-10735
▁válddahall	-10736
▁áššebáhpir	-10737
▁giellaráđđi	-10738
▁gánnáhahtti	-10739
▁vuoruhemiid	-10740
▁dohkkeheapmi	-10741
▁ansökningsdag	-10742
▁oahpaheaddjin	-10743
▁čoahkkáigeassu	-10744
-19	-10745
dii	-10746
inl	-10747
ols	-10748
vid	-10749
▁án	-10750
eame	-10751
kkái	-10752
ovdn	-10753
vers	-10754
▁2.6	-10755
▁såv	-10756
biras	-10757
uvida	-10758
▁albm	-10759
▁appl	-10760
▁dulk	-10761
▁dust	-10762
▁kärn	-10763
▁lapp	-10764
▁narv	-10765
▁soai	-10766
plánii	-10767
▁kátjá	-10768
▁láhtt	-10769
doarjja	-10770
▁filbma	-10771
▁guoski	-10772
▁juster	-10773
▁spelar	-10774
adettiin	-10775
fullmäkt	-10776
ođastusa	-10777
áigodaga	-10778
▁granska	-10779
▁mealgat	-10780
verksamma	-10781
▁debatten	-10782
▁gáivuona	-10783
▁huruvida	-10784
▁lađđasis	-10785
▁marknads	-10786
▁personen	-10787
▁politiij	-10788
▁riikarev	-10789
▁avdelning	-10790
▁studenten	-10791
▁dohkálaččat	-10792
▁sámegielain	-10793
▁övervägande	-10794
▁báikegottiid	-10795
▁álgoálbmogat	-10796
▁rekommenderar	-10797
▁finnmárkkulága	-10798
▁ovttasdoaibman	-10799
▁yrkesverksamma	-10800
▁hå	-10801
edis	-10802
imil	-10803
kkii	-10804
váld	-10805
ččat	-10806
▁aht	-10807
eahki	-10808
ämnen	-10809
▁báhč	-10810
▁máhc	-10811
▁orsa	-10812
bargit	-10813
išuvdn	-10814
oamast	-10815
sdagen	-10816
▁bártn	-10817
▁girjá	-10818
▁knapp	-10819
▁lärob	-10820
▁svein	-10821
▁árvvu	-10822
▁övers	-10823
doaibma	-10824
▁baicce	-10825
▁nordre	-10826
▁rájáid	-10827
asitehta	-10828
▁eallind	-10829
▁gárvvis	-10830
▁kallade	-10831
▁čájáhus	-10832
▁aspekter	-10833
▁mearraluo	-10834
▁deaivvadan	-10835
▁digaštallan	-10836
▁galggašedje	-10837
▁instruktion	-10838
▁njuolggadus	-10839
▁upprätthåll	-10840
ningsmaterial	-10841
▁giellageavah	-10842
▁álbmotválljen	-10843
▁yrkesutbildning	-10844
75	-10845
ap	-10846
ec	-10847
ha	-10848
”.	-10849
emo	-10850
rek	-10851
anen	-10852
▁365	-10853
ktorn	-10854
norsk	-10855
ohall	-10856
▁1987	-10857
▁bådå	-10858
▁dela	-10859
▁náll	-10860
använd	-10861
datter	-10862
smöten	-10863
áiggis	-10864
▁2014.	-10865
▁basis	-10866
▁bolag	-10867
▁deadd	-10868
▁ledar	-10869
▁utvin	-10870
▁biddjo	-10871
▁bidjet	-10872
▁dállod	-10873
▁konser	-10874
▁mötena	-10875
▁soames	-10876
▁veckan	-10877
▁álggos	-10878
▁lakselv	-10879
▁orgánan	-10880
▁orohats	-10881
▁skuvlad	-10882
▁formella	-10883
▁livsstil	-10884
▁röstning	-10885
▁uppmanar	-10886
▁ságaškušš	-10887
▁miellahtut	-10888
▁sáhkavuoru	-10889
▁áigumuššan	-10890
▁dollojuvvui	-10891
▁förfaranden	-10892
▁studeanttat	-10893
▁konventioner	-10894
▁mearrádusain	-10895
▁upprättandet	-10896
▁forskningsrådet	-10897
▁omstrukturering	-10898
/19	-10899
bid	-10900
kái	-10901
rii	-10902
sex	-10903
▁sd	-10904
rygt	-10905
▁can	-10906
▁les	-10907
▁prm	-10908
anušš	-10909
klara	-10910
orgán	-10911
rustt	-10912
ungen	-10913
▁guđa	-10914
▁sikt	-10915
▁skån	-10916
alddis	-10917
eahčen	-10918
oassái	-10919
▁hámis	-10920
▁osiin	-10921
fjorden	-10922
geaidnu	-10923
guovllu	-10924
skottet	-10925
▁halvår	-10926
▁láhkái	-10927
▁sáhtáš	-10928
▁sániid	-10929
▁vuotna	-10930
▁kammare	-10931
antikvára	-10932
rapporter	-10933
▁verkliga	-10934
▁vuosttal	-10935
fördelning	-10936
försäkring	-10937
čoahkkimat	-10938
▁bekräftas	-10939
▁bestämmer	-10940
▁etihkalaš	-10941
▁boraspiret	-10942
▁fágalaččat	-10943
▁fálaldagat	-10944
▁kompletter	-10945
▁našunálate	-10946
▁officiella	-10947
▁ovdaskuvla	-10948
▁proseassas	-10949
▁tjänsterna	-10950
▁aktiivvalaš	-10951
▁fitnodagaid	-10952
▁registreren	-10953
▁röstlängden	-10954
▁persovnnalaš	-10955
▁perspektiiva	-10956
▁eiseválddiide	-10957
▁international	-10958
-12	-10959
/15	-10960
gal	-10961
ásm	-10962
▁3-	-10963
etta	-10964
ošii	-10965
▁nač	-10966
▁sof	-10967
adjin	-10968
endet	-10969
ungna	-10970
valet	-10971
delser	-10972
giidda	-10973
oktema	-10974
vaččat	-10975
▁board	-10976
▁dajai	-10977
▁drygt	-10978
▁länen	-10979
▁nanos	-10980
▁norut	-10981
preside	-10982
▁börjat	-10983
▁dovdat	-10984
▁foster	-10985
▁hammer	-10986
▁mearas	-10987
▁miriam	-10988
▁prográ	-10989
▁reivve	-10990
▁čuohcá	-10991
ensionen	-10992
čielggad	-10993
▁rivttes	-10994
▁tvungna	-10995
yrelserna	-10996
ásahusaid	-10997
▁joavkkus	-10998
▁iešalddis	-10999
▁lasihuvvo	-11000
▁träffades	-11001
▁kommission	-11002
▁mearrádusas	-11003
▁distribution	-11004
▁ávkkástallan	-11005
▁šiehtadusaid	-11006
vejolašvuođaid	-11007
▁sysselsättning	-11008
▁undersökningar	-11009
▁fylkkagielddain	-11010
▁kulturásahusaid	-11011
21	-11012
erg	-11013
rái	-11014
▁1)	-11015
bund	-11016
iker	-11017
uhan	-11018
uvai	-11019
-2005	-11020
iljön	-11021
lágas	-11022
nades	-11023
▁uppt	-11024
▁åtta	-11025
fonden	-11026
járgga	-11027
▁brott	-11028
▁filbm	-11029
▁jođus	-11030
▁prote	-11031
▁torsk	-11032
▁lägger	-11033
▁sáhtte	-11034
▁veahka	-11035
bmabijut	-11036
▁betalar	-11037
▁dáidaga	-11038
▁godkänd	-11039
▁primära	-11040
▁anslagen	-11041
▁berrešii	-11042
▁fárrejit	-11043
▁sommaren	-11044
▁buktagiid	-11045
▁jämlikhet	-11046
▁avdelnings	-11047
▁inkluderas	-11048
▁positioner	-11049
▁samhällena	-11050
▁utarbetats	-11051
šiehtadusaid	-11052
▁efterfrågan	-11053
▁konferánssa	-11054
▁stuoradiggi	-11055
▁eiseválddiin	-11056
▁kännetecknas	-11057
▁allaskuvllain	-11058
▁ekonomalaččat	-11059
▁mearrádusaide	-11060
▁modernisering	-11061
ehč	-11062
urs	-11063
äkt	-11064
dade	-11065
ábut	-11066
ápmi	-11067
▁bah	-11068
▁eas	-11069
▁fir	-11070
ahuks	-11071
▁boan	-11072
▁dubb	-11073
▁vest	-11074
▁beakt	-11075
▁boken	-11076
▁brutt	-11077
▁högst	-11078
▁jođán	-11079
▁reser	-11080
eaddjái	-11081
▁daddjo	-11082
▁dillái	-11083
▁kallas	-11084
▁nuorta	-11085
▁sivaid	-11086
▁stärks	-11087
▁tittar	-11088
rustning	-11089
ástallan	-11090
▁medicin	-11091
▁tabeall	-11092
▁behandla	-11093
▁dássážii	-11094
▁startade	-11095
ráigeahčču	-11096
sproduktion	-11097
▁dárkkistit	-11098
▁ealáhussii	-11099
▁kommittéer	-11100
▁njálmmálaš	-11101
▁olgoriikka	-11102
▁ståndpunkt	-11103
finansiering	-11104
▁sekretariat	-11105
▁strategiska	-11106
▁ásahuvvojit	-11107
▁mearkkašumiid	-11108
▁ovttastahttit	-11109
▁sökarbaserade	-11110
▁tilldelningen	-11111
departemeanttas	-11112
▁oahpponeavvuide	-11113
els	-11114
spr	-11115
förm	-11116
joht	-11117
kvar	-11118
áigg	-11119
▁abs	-11120
▁neg	-11121
oavtt	-11122
ráđis	-11123
▁diag	-11124
▁migr	-11125
▁olmm	-11126
▁ruov	-11127
juvvot	-11128
sbehov	-11129
▁2005:	-11130
▁eline	-11131
▁lagat	-11132
▁attity	-11133
▁demokr	-11134
▁diehtá	-11135
▁interv	-11136
▁mánnái	-11137
▁utbyte	-11138
ehálddaš	-11139
▁bokbuss	-11140
▁dieinna	-11141
▁juohkeh	-11142
▁mediaid	-11143
▁nannema	-11144
▁ohcciid	-11145
▁studien	-11146
▁tvungen	-11147
▁upplevt	-11148
▁árvalan	-11149
▁ahtanušš	-11150
▁hantverk	-11151
▁karaktär	-11152
▁meannuda	-11153
▁vástidit	-11154
▁duođaštus	-11155
▁kartlägga	-11156
▁nordlands	-11157
▁politiker	-11158
▁rekrutter	-11159
▁hammerfest	-11160
smöjligheter	-11161
▁ovddasguvlui	-11162
▁teknologiija	-11163
▁forskningsråd	-11164
▁dearvvašvuođas	-11165
▁stáhtaministtar	-11166
one	-11167
▁(3	-11168
▁71	-11169
▁73	-11170
okon	-11171
▁fou	-11172
▁vin	-11173
▁šib	-11174
egian	-11175
serad	-11176
▁giđa	-11177
uođašt	-11178
▁mihkk	-11179
▁piera	-11180
▁tanav	-11181
▁čálli	-11182
ahahtti	-11183
indrift	-11184
sektorn	-11185
▁anmärk	-11186
▁baicca	-11187
▁böcker	-11188
▁haaker	-11189
▁riegád	-11190
▁utföra	-11191
enskaper	-11192
istariin	-11193
yrelsens	-11194
▁guoskat	-11195
▁utvalda	-11196
álalaččat	-11197
▁dievddut	-11198
▁skyldiga	-11199
▁beaktilis	-11200
▁tillämpas	-11201
▁prográmmas	-11202
▁unnitlohku	-11203
▁ásaheapmái	-11204
▁organisator	-11205
▁sihkkojuvvo	-11206
▁áimmahuššat	-11207
▁mearrideaddji	-11208
▁underlättande	-11209
▁njuolggadusain	-11210
gov	-11211
ppal	-11212
▁28.	-11213
▁4-2	-11214
▁6.1	-11215
▁fra	-11216
juohk	-11217
plats	-11218
skriv	-11219
uvuođ	-11220
▁flyg	-11221
▁snar	-11222
▁tvär	-11223
▁čeah	-11224
egiela	-11225
eguoht	-11226
▁enkel	-11227
▁flagg	-11228
▁hyres	-11229
▁luoit	-11230
▁nomin	-11231
▁orrut	-11232
▁ávkki	-11233
▁ingått	-11234
▁lämnar	-11235
▁mannan	-11236
▁tycker	-11237
▁váldos	-11238
▁vägled	-11239
▁áinnas	-11240
birrasat	-11241
hållande	-11242
unskaper	-11243
árbevier	-11244
▁anmälan	-11245
▁assimil	-11246
▁huksema	-11247
▁kapital	-11248
▁lahttun	-11249
▁norrmän	-11250
▁utövare	-11251
▁vuđolaš	-11252
eminarium	-11253
▁drabbade	-11254
▁framsteg	-11255
▁museerna	-11256
▁nordkild	-11257
árvvoštall	-11258
▁deattuhii	-11259
▁inrättats	-11260
▁mielddusin	-11261
▁ráđđehusas	-11262
▁skuvllaide	-11263
▁sámedikkit	-11264
perspektiivv	-11265
▁kriterierna	-11266
▁kulturárbbi	-11267
▁lokalbefolk	-11268
▁prioriterar	-11269
▁servodagain	-11270
▁váldojuvvon	-11271
▁presideantta	-11272
▁gymnasieskola	-11273
▁kontinuerligt	-11274
▁fylkkagielddat	-11275
▁gollomeroštall	-11276
▁stáhtabušeahta	-11277
▁šiehtadallamiid	-11278
oc	-11279
edi	-11280
▁87	-11281
bakk	-11282
ette	-11283
ruđa	-11284
värt	-11285
▁eva	-11286
▁luh	-11287
olaga	-11288
▁gott	-11289
▁iehč	-11290
▁sand	-11291
▁dagen	-11292
▁leago	-11293
▁orrun	-11294
▁ságat	-11295
▁álgit	-11296
arlista	-11297
barggut	-11298
miljöer	-11299
▁lyckas	-11300
▁saknar	-11301
▁tidigt	-11302
▁ássama	-11303
ellertid	-11304
styrelse	-11305
▁förekom	-11306
▁galggat	-11307
▁konstat	-11308
▁ministr	-11309
▁orgánat	-11310
▁referán	-11311
▁romsdal	-11312
▁ruoššas	-11313
▁utställ	-11314
▁familjen	-11315
▁tanavass	-11316
▁geahpedit	-11317
▁eanadollui	-11318
▁emellertid	-11319
▁funktioner	-11320
▁digaštallat	-11321
▁dohkkehuvvo	-11322
▁stáhtačálli	-11323
▁vuolábealde	-11324
▁váldojuvvot	-11325
▁árvoháhkama	-11326
myndigheterna	-11327
▁veahkaválddi	-11328
▁dárbbašlažžan	-11329
▁kommunfullmäkt	-11330
▁luondduvuđđosa	-11331
po	-11332
sd	-11333
ehk	-11334
hör	-11335
jad	-11336
▁2)	-11337
▁tj	-11338
.2.1	-11339
eari	-11340
iget	-11341
riid	-11342
▁mur	-11343
▁nuo	-11344
assan	-11345
gevál	-11346
▁agen	-11347
▁olav	-11348
▁scen	-11349
.000,-	-11350
ahttán	-11351
estämm	-11352
innuid	-11353
mmande	-11354
ttaide	-11355
▁lahtt	-11356
▁ryska	-11357
▁årlig	-11358
bransch	-11359
▁birgen	-11360
▁fisket	-11361
▁gárren	-11362
▁högtal	-11363
▁oaivil	-11364
▁sávzad	-11365
▁báikkis	-11366
▁leavgga	-11367
▁ovdalis	-11368
▁ruoktot	-11369
festivála	-11370
▁konkreta	-11371
▁landskap	-11372
▁magister	-11373
▁renägare	-11374
▁dovdomear	-11375
▁fokuserar	-11376
▁gažaldaga	-11377
▁ramplanen	-11378
▁skriftlig	-11379
▁diskuterar	-11380
▁joavkkuide	-11381
▁dohkkeheami	-11382
▁nannejuvvon	-11383
▁suodjaleami	-11384
▁boahtteáigái	-11385
▁mearriduvvot	-11386
▁ásahusaiguin	-11387
▁rehabilitering	-11388
▁representanten	-11389
▁samrådsavtalet	-11390
▁plenarsessionen	-11391
93	-11392
igh	-11393
áza	-11394
▁sr	-11395
aten	-11396
idig	-11397
varo	-11398
▁kro	-11399
▁svl	-11400
giela	-11401
samer	-11402
uvrii	-11403
▁hámm	-11404
▁svag	-11405
giella	-11406
proces	-11407
örerna	-11408
▁1999.	-11409
▁deaiv	-11410
▁divat	-11411
▁känna	-11412
▁loppa	-11413
▁maŋit	-11414
▁pågår	-11415
▁ráves	-11416
▁vahkk	-11417
▁varor	-11418
▁vealt	-11419
romssas	-11420
▁gustot	-11421
▁hábmen	-11422
▁lanser	-11423
▁leamen	-11424
▁láigoh	-11425
▁olahus	-11426
▁termen	-11427
▁utfärd	-11428
▁vuohki	-11429
▁ämnena	-11430
orienter	-11431
▁almmust	-11432
▁greiner	-11433
▁margret	-11434
▁ramplan	-11435
▁soahpan	-11436
▁stuoris	-11437
▁bredband	-11438
▁fápmudus	-11439
▁joavkkut	-11440
▁kopplade	-11441
▁muhtumat	-11442
▁påpekade	-11443
▁sisaboađ	-11444
▁städerna	-11445
▁surggiid	-11446
festivalen	-11447
ásahusaide	-11448
▁demokrati	-11449
▁girjerádj	-11450
▁patienten	-11451
▁regiovnna	-11452
▁reguleren	-11453
proseassain	-11454
▁prošeaktaj	-11455
▁sáddejuvvot	-11456
▁lokalsamhället	-11457
elt	-11458
gad	-11459
räv	-11460
djin	-11461
oren	-11462
skal	-11463
áhtu	-11464
▁24.	-11465
▁kil	-11466
▁náv	-11467
vrrat	-11468
váldi	-11469
▁arbe	-11470
▁gamm	-11471
▁njun	-11472
elágan	-11473
endoai	-11474
gångar	-11475
oassál	-11476
▁avsev	-11477
▁kände	-11478
▁meter	-11479
▁mihtt	-11480
▁milit	-11481
▁spela	-11482
▁östra	-11483
▁østby	-11484
demiide	-11485
tivrras	-11486
▁bargga	-11487
▁bihtán	-11488
▁marken	-11489
▁propos	-11490
▁visade	-11491
▁främjar	-11492
▁reguler	-11493
domstolen	-11494
▁báikkiin	-11495
▁intäkter	-11496
▁mandatet	-11497
▁rättslig	-11498
▁utnyttja	-11499
▁valbered	-11500
▁guollebie	-11501
▁guovlulaš	-11502
▁institute	-11503
▁norwegian	-11504
▁oasseváld	-11505
čoahkkimiid	-11506
▁behandlade	-11507
▁persdatter	-11508
▁skriftliga	-11509
gedieđáhusas	-11510
saktiviteter	-11511
▁guolásteami	-11512
▁heivehuvvot	-11513
▁konsešuvdna	-11514
▁ođđaáigásaš	-11515
▁juhkkojuvvon	-11516
▁sámegielaide	-11517
▁viiddiduvvon	-11518
▁rekryteringen	-11519
▁gelbbolašvuođal	-11520
▁språkutveckling	-11521
øm	-11522
ipm	-11523
▁68	-11524
▁kg	-11525
iinn	-11526
supp	-11527
áitt	-11528
▁359	-11529
▁bro	-11530
▁max	-11531
▁mid	-11532
fágas	-11533
riija	-11534
▁dikt	-11535
▁ditt	-11536
▁forr	-11537
▁high	-11538
▁hjär	-11539
▁álki	-11540
▁öron	-11541
eallái	-11542
▁govda	-11543
▁heaht	-11544
▁lokte	-11545
▁oblig	-11546
▁svåra	-11547
▁válde	-11548
▁čiekŋ	-11549
ageavah	-11550
rievtti	-11551
▁decenn	-11552
▁diimmu	-11553
▁erling	-11554
▁förmed	-11555
▁havsla	-11556
▁lagens	-11557
▁samtal	-11558
▁sirdin	-11559
▁sáhtii	-11560
▁texter	-11561
▁árvvut	-11562
▁ändrad	-11563
▁ökande	-11564
▁avskaff	-11565
▁byggnad	-11566
▁inbland	-11567
▁lagstad	-11568
▁opmodat	-11569
▁utsatta	-11570
iduvvojit	-11571
ålogaland	-11572
▁bargiide	-11573
▁register	-11574
juolggadus	-11575
▁bidragsst	-11576
▁budgetför	-11577
▁olámuttos	-11578
▁investeren	-11579
▁obbalaččat	-11580
▁čielggadus	-11581
▁beskrivning	-11582
▁juovlamánus	-11583
▁ovddabealde	-11584
▁álggahuvvot	-11585
▁nordområdena	-11586
▁högtalarlista	-11587
▁iešguđetlágán	-11588
▁funktionshinder	-11589
48	-11590
-10	-11591
ben	-11592
ihe	-11593
▁92	-11594
▁99	-11595
fast	-11596
oden	-11597
ogas	-11598
áhpp	-11599
▁7.1	-11600
▁oft	-11601
delen	-11602
ändra	-11603
▁bruk	-11604
▁guođ	-11605
▁juos	-11606
▁vers	-11607
kspråk	-11608
válddi	-11609
▁siidd	-11610
▁sätta	-11611
problem	-11612
speriod	-11613
▁deatnu	-11614
▁diehtt	-11615
▁juksan	-11616
▁leavga	-11617
▁museet	-11618
▁máksom	-11619
▁siidas	-11620
▁skåden	-11621
▁váidal	-11622
aheaddji	-11623
árvalusa	-11624
▁buohkan	-11625
▁fáttáid	-11626
▁gearddi	-11627
▁geasses	-11628
▁trosten	-11629
▁ulbmilj	-11630
ssäkerhet	-11631
▁almmatge	-11632
▁kapitlet	-11633
▁kristian	-11634
▁medvetna	-11635
▁staterna	-11636
▁eahpečiel	-11637
▁finnmárku	-11638
▁livskraft	-11639
▁reindrift	-11640
▁suohkanii	-11641
▁synnerhet	-11642
šiehtadusat	-11643
▁davábealde	-11644
▁festivalen	-11645
▁guovddážii	-11646
▁kvalitetss	-11647
konvenšuvdna	-11648
▁almmolaččat	-11649
▁huksejuvvon	-11650
▁kompetensen	-11651
▁protokollet	-11652
▁webbplatsen	-11653
▁eaiggáduššan	-11654
▁jurddašuvvon	-11655
▁mihttomearit	-11656
▁jienastuslohku	-11657
▁lagstiftningen	-11658
▁vuoigatvuođaide	-11659
hol	-11660
äss	-11661
▁ot	-11662
atna	-11663
ohpe	-11664
ulla	-11665
forum	-11666
iljer	-11667
kenes	-11668
medel	-11669
oahtá	-11670
rätts	-11671
ssätt	-11672
▁1976	-11673
▁1984	-11674
.02.12	-11675
.09.10	-11676
iijaid	-11677
inform	-11678
smötet	-11679
▁báldd	-11680
▁njávd	-11681
▁utbil	-11682
▁utjäm	-11683
▁verka	-11684
doaimma	-11685
odeller	-11686
uppfyll	-11687
▁begärt	-11688
▁duođaš	-11689
▁fargga	-11690
▁jensen	-11691
▁kruvdn	-11692
▁álggii	-11693
vuogádat	-11694
▁antagit	-11695
▁boasttu	-11696
▁förhand	-11697
▁oktiihe	-11698
▁samråda	-11699
användare	-11700
▁dárkilit	-11701
▁familjer	-11702
▁lämpliga	-11703
▁nannejit	-11704
industrins	-11705
▁beskriver	-11706
▁grupperna	-11707
▁ledningen	-11708
▁psyhkalaš	-11709
▁skickades	-11710
▁utnämning	-11711
▁áššemeann	-11712
▁begränsade	-11713
▁nuortasámi	-11714
▁valkretsar	-11715
▁bedömningen	-11716
▁fastigheter	-11717
▁legitimitet	-11718
▁nordligaste	-11719
▁ovttasbargg	-11720
▁presenterar	-11721
atnegasvuohta	-11722
vejolašvuohta	-11723
▁loahpahuvvon	-11724
▁demokráhtalaš	-11725
▁julevsámegiela	-11726
▁statistihkalaš	-11727
▁mearraluossabiv	-11728
13	-11729
vo	-11730
eap	-11731
øve	-11732
▁öm	-11733
fuol	-11734
vern	-11735
ämnd	-11736
övar	-11737
▁bad	-11738
▁mob	-11739
▁sår	-11740
alden	-11741
dagar	-11742
ddjet	-11743
áriid	-11744
▁dann	-11745
▁gili	-11746
▁muor	-11747
▁vald	-11748
▁šáll	-11749
nnalaš	-11750
▁2006.	-11751
▁beasa	-11752
▁duhát	-11753
▁eadni	-11754
▁eaktu	-11755
▁elisa	-11756
▁kyrko	-11757
elserna	-11758
suorggi	-11759
äckande	-11760
▁arktis	-11761
▁demens	-11762
▁faller	-11763
▁massán	-11764
▁máŋgii	-11765
▁ovddos	-11766
▁strukt	-11767
resultat	-11768
ssektorn	-11769
▁allmänt	-11770
▁dannego	-11771
▁förstod	-11772
▁juohkin	-11773
▁leimmet	-11774
▁lämnade	-11775
▁ođđasit	-11776
▁ratific	-11777
▁ráhkada	-11778
▁skriver	-11779
▁skuvlab	-11780
▁skyldig	-11781
▁standár	-11782
▁várjjat	-11783
▁arbetade	-11784
▁dieđalaš	-11785
▁finnmárk	-11786
▁naturlig	-11787
▁ortnegat	-11788
▁tidpunkt	-11789
▁čoahkkeb	-11790
▁beviljats	-11791
▁hälsovård	-11792
▁infektion	-11793
ageavaheami	-11794
▁lärarhjälp	-11795
▁omedelbart	-11796
▁skuvlajagi	-11797
▁sohkabeall	-11798
▁vanligtvis	-11799
▁dokumentera	-11800
▁jienasteami	-11801
árkkisteaddji	-11802
▁gustojeaddji	-11803
▁sámegielalaš	-11804
adepartemeanta	-11805
▁anställningen	-11806
▁förfrågningar	-11807
▁återbetalning	-11808
▁oahpaheddjiide	-11809
▁språkanvändning	-11810
▁vuosttašgiellan	-11811
64	-11812
eš	-11813
øya	-11814
žis	-11815
juid	-11816
tern	-11817
itage	-11818
obear	-11819
▁1950	-11820
▁fril	-11821
▁muos	-11822
▁vide	-11823
anttas	-11824
▁2018:	-11825
▁reaid	-11826
▁skolt	-11827
▁áhčči	-11828
verktyg	-11829
▁eaŋkil	-11830
▁faktor	-11831
▁hållit	-11832
▁jurdag	-11833
▁mötesb	-11834
▁oarjel	-11835
▁oassái	-11836
▁ohccit	-11837
▁sámesk	-11838
▁flyttar	-11839
▁fuolaha	-11840
▁lahtuin	-11841
▁meahcis	-11842
▁nyligen	-11843
▁sierral	-11844
▁uppfost	-11845
kostnader	-11846
▁berättar	-11847
▁luonddus	-11848
▁regioner	-11849
industrier	-11850
rusttegiid	-11851
▁adnojuvvo	-11852
▁attityder	-11853
▁elisabeth	-11854
▁govttolaš	-11855
▁kulturliv	-11856
▁politiija	-11857
▁speciellt	-11858
▁ulbmiliin	-11859
▁čilgehusa	-11860
pedagogalaš	-11861
▁förklaring	-11862
▁historjjás	-11863
▁detaljerade	-11864
▁prinsihpaid	-11865
▁registreras	-11866
▁seammalágan	-11867
▁váldoulbmil	-11868
vuoigatvuohta	-11869
▁nuppástuhttin	-11870
▁plenarledningen	-11871
▁premiärminister	-11872
dad	-11873
ins	-11874
pet	-11875
čuj	-11876
▁cu	-11877
▁140	-11878
▁avl	-11879
▁död	-11880
▁pit	-11881
▁såg	-11882
endom	-11883
miljö	-11884
sfatt	-11885
▁fond	-11886
▁höja	-11887
▁orol	-11888
▁otne	-11889
▁ruht	-11890
▁räck	-11891
▁čuvv	-11892
ejedje	-11893
etiska	-11894
uvrrat	-11895
áirras	-11896
▁badje	-11897
▁einar	-11898
▁iežan	-11899
▁liige	-11900
▁optim	-11901
▁saker	-11902
ningars	-11903
smeddel	-11904
▁deaddu	-11905
▁dustet	-11906
▁norgii	-11907
▁vuoiŋŋ	-11908
ašuvnnas	-11909
ommittén	-11910
ssamhäll	-11911
▁använde	-11912
▁bilagor	-11913
▁externa	-11914
▁namuhit	-11915
▁skyddet	-11916
bmabijuid	-11917
▁avsevärt	-11918
▁kandidat	-11919
▁mannosaš	-11920
▁girjjálaš	-11921
▁motiveras	-11922
▁politihkk	-11923
▁relaterad	-11924
▁renägarna	-11925
▁samediggi	-11926
▁akademiska	-11927
▁eatnamiidda	-11928
▁oahpponeavvu	-11929
▁förhållandena	-11930
▁digitalisering	-11931
▁elektrovnnalaš	-11932
▁mearrideaddjin	-11933
▁kulturarvsrådet	-11934
äs	-11935
mii	-11936
uva	-11937
øre	-11938
assa	-11939
brev	-11940
ppii	-11941
▁bry	-11942
▁säl	-11943
▁tol	-11944
.2009	-11945
skrav	-11946
skyld	-11947
tades	-11948
šedje	-11949
▁drar	-11950
▁rädd	-11951
▁saba	-11952
▁skov	-11953
▁álgá	-11954
▁2020.	-11955
▁earál	-11956
▁lands	-11957
▁ledde	-11958
▁ruoná	-11959
▁utfor	-11960
eminára	-11961
▁divššu	-11962
▁dásiin	-11963
▁staket	-11964
▁decentr	-11965
▁dáhtona	-11966
▁ovdalaš	-11967
oarjagiid	-11968
▁buoridan	-11969
▁kurssaid	-11970
▁minerall	-11971
▁religion	-11972
▁effektivt	-11973
▁jahkebeal	-11974
▁maŋimusat	-11975
▁sametings	-11976
▁sisabahkk	-11977
▁tidsfrist	-11978
▁effekterna	-11979
▁ekologiskt	-11980
▁lassáneami	-11981
▁registrera	-11982
▁industriija	-11983
▁kyrkofrågor	-11984
▁čállojuvvon	-11985
▁intresserade	-11986
▁jođiheaddjin	-11987
▁ovttasdoaibm	-11988
▁čuovvoleapmái	-11989
▁davviguovlluid	-11990
▁automáhtalaččat	-11991
.45	-11992
ruo	-11993
onom	-11994
satt	-11995
tvik	-11996
ugat	-11997
▁193	-11998
▁hår	-11999
▁höj	-12000
▁ida	-12001
▁lav	-12002
▁nve	-12003
ander	-12004
▁1985	-12005
▁holm	-12006
▁lang	-12007
▁sáni	-12008
ingens	-12009
čilgeh	-12010
▁2006:	-12011
▁gielh	-12012
▁girji	-12013
▁poäng	-12014
▁samla	-12015
▁ömses	-12016
istarii	-12017
járggas	-12018
suohkan	-12019
šuvnnat	-12020
▁gaskan	-12021
▁rámmas	-12022
▁tagits	-12023
▁virgel	-12024
▁yrkesk	-12025
▁bestäms	-12026
▁hartvik	-12027
▁havslax	-12028
▁hållits	-12029
▁obbalaš	-12030
▁organet	-12031
álddahusa	-12032
▁kraftigt	-12033
▁luonddug	-12034
▁sigbjørn	-12035
bálvalusat	-12036
▁bálvalusa	-12037
▁gávpogiin	-12038
▁ipmárdusa	-12039
▁pettersen	-12040
▁ungdomars	-12041
ulbmiliidda	-12042
▁rusttegiid	-12043
▁samarbetar	-12044
ovttasbarggu	-12045
▁deaŧalažžan	-12046
▁kulturarvet	-12047
▁tillhörande	-12048
▁árbedieđuid	-12049
▁šiehtadusas	-12050
gelbbolašvuohta	-12051
▁giellaguovddáš	-12052
▁doarjjaortnegat	-12053
dis	-12054
jái	-12055
lan	-12056
änk	-12057
▁74	-12058
iigo	-12059
nuor	-12060
tima	-12061
▁6.4	-12062
▁ban	-12063
▁bem	-12064
-2000	-12065
basen	-12066
boken	-12067
ddiin	-12068
elise	-12069
laget	-12070
ohjäl	-12071
staur	-12072
▁drag	-12073
▁joks	-12074
▁järn	-12075
▁kalv	-12076
▁lanj	-12077
▁perm	-12078
▁riik	-12079
▁čoag	-12080
▁čáhc	-12081
▁1980-	-12082
▁1990-	-12083
▁anord	-12084
▁buorr	-12085
▁engel	-12086
▁fállá	-12087
▁joatk	-12088
▁leage	-12089
▁minim	-12090
▁reive	-12091
▁utöva	-12092
arájiid	-12093
▁fállet	-12094
▁geaidn	-12095
▁halvor	-12096
▁mental	-12097
▁nieidd	-12098
▁servet	-12099
▁válgga	-12100
girjjiid	-12101
näringen	-12102
▁avstånd	-12103
▁bifogas	-12104
▁dahkkot	-12105
▁diehtun	-12106
▁goabbat	-12107
▁návccat	-12108
▁punkter	-12109
▁bekymrat	-12110
▁borgmäst	-12111
▁inverkan	-12112
▁juogadit	-12113
▁lärohjäl	-12114
▁oallugat	-12115
▁vuoruhan	-12116
▁čoahkkan	-12117
▁distrikts	-12118
▁duođaštan	-12119
▁dutkamiid	-12120
▁girjebuss	-12121
▁gávnnahan	-12122
▁utvecklar	-12123
▁överföras	-12124
▁användarna	-12125
▁mångfalden	-12126
▁porsáŋggus	-12127
▁uttalanden	-12128
undersökning	-12129
vejolašvuođa	-12130
▁dieđihuvvon	-12131
▁instituhtta	-12132
▁ordföranden	-12133
▁samiskspråk	-12134
▁södersamisk	-12135
▁divttasvuona	-12136
▁oahppoplánat	-12137
▁språkcentren	-12138
▁organisašuvdn	-12139
▁överklaganden	-12140
▁davvisámegiela	-12141
▁förutsägbarhet	-12142
gál	-12143
rik	-12144
▁59	-12145
▁72	-12146
▁aŋ	-12147
avir	-12148
börj	-12149
hkas	-12150
sent	-12151
änga	-12152
▁dáž	-12153
▁köp	-12154
▁ssb	-12155
astet	-12156
bukti	-12157
jagis	-12158
lágan	-12159
ället	-12160
▁elin	-12161
▁fäng	-12162
▁ivar	-12163
▁klin	-12164
▁nákc	-12165
▁spea	-12166
▁suor	-12167
▁supu	-12168
▁álge	-12169
▁aŋkke	-12170
▁bakte	-12171
▁gilvv	-12172
▁listu	-12173
▁namat	-12174
▁otnáš	-12175
▁stads	-12176
▁stock	-12177
▁áddet	-12178
sperson	-12179
veahkki	-12180
▁aviiss	-12181
▁christ	-12182
▁förvär	-12183
▁ganska	-12184
▁guođoh	-12185
▁heaika	-12186
▁hoppas	-12187
▁läkare	-12188
▁oažžun	-12189
▁riktar	-12190
▁vuovde	-12191
.10.2010	-12192
istället	-12193
▁hushåll	-12194
▁konvenš	-12195
▁miljöer	-12196
▁notáhta	-12197
▁restaur	-12198
▁undvika	-12199
▁oktanaga	-12200
▁placeras	-12201
▁tabellen	-12202
▁unnitlogu	-12203
▁addojuvvot	-12204
▁barnomsorg	-12205
▁boarrásiid	-12206
▁införlivas	-12207
▁jienastanl	-12208
▁ovttalágan	-12209
▁tilldelats	-12210
▁vattendrag	-12211
produktionen	-12212
▁färdigheter	-12213
▁prioriterat	-12214
vuoigatvuođat	-12215
▁bargonávccah	-12216
▁informations	-12217
▁čielggadeami	-12218
▁försvarsmakten	-12219
▁jahkedieđáhusa	-12220
▁kulturmuitolága	-12221
▁samhällsområden	-12222
si	-12223
...	-12224
ønn	-12225
.18.	-12226
edda	-12227
ihpp	-12228
ingo	-12229
itte	-12230
rång	-12231
▁540	-12232
▁kol	-12233
▁kuh	-12234
▁kve	-12235
utnje	-12236
åriga	-12237
▁gárg	-12238
▁ljud	-12239
▁láhp	-12240
▁oljo	-12241
▁smáv	-12242
astaga	-12243
centra	-12244
deamen	-12245
ekanis	-12246
fallet	-12247
sletta	-12248
vuogit	-12249
▁förmå	-12250
▁gokčá	-12251
▁guodd	-12252
▁varsi	-12253
örjning	-12254
▁birger	-12255
▁báhcán	-12256
▁dadjan	-12257
▁diliin	-12258
▁etnisk	-12259
▁finbog	-12260
▁förrän	-12261
▁gielat	-12262
▁gildii	-12263
▁helene	-12264
▁ibland	-12265
▁ingick	-12266
▁plánas	-12267
▁plánet	-12268
▁ráđiid	-12269
▁ställa	-12270
edoaimma	-12271
ggamusat	-12272
ralaččat	-12273
▁ruvdnui	-12274
▁vuostál	-12275
▁vástida	-12276
▁öronmär	-12277
prošektii	-12278
▁ekonomin	-12279
▁gonagasr	-12280
▁istället	-12281
▁nätverks	-12282
▁ortnegis	-12283
▁psykalaš	-12284
▁önskvärt	-12285
▁guovdilis	-12286
▁synliggör	-12287
▁fievrridit	-12288
▁inlärnings	-12289
▁inrättande	-12290
▁personliga	-12291
▁farggamusat	-12292
▁olgoriikkas	-12293
▁vuordámušat	-12294
▁čilgejuvvon	-12295
▁fortsättning	-12296
▁fágasuorggis	-12297
▁interneahtas	-12298
▁juolluduvvui	-12299
▁kompensation	-12300
▁čohkkejuvvon	-12301
▁myndigheternas	-12302
▁politihkalaččat	-12303
ike	-12304
keb	-12305
mon	-12306
opl	-12307
ares	-12308
emor	-12309
ervv	-12310
umär	-12311
uoli	-12312
vier	-12313
▁báz	-12314
▁jer	-12315
▁prd	-12316
▁prt	-12317
▁ádj	-12318
asiid	-12319
askin	-12320
easta	-12321
oláig	-12322
skont	-12323
stans	-12324
▁1991	-12325
▁lyss	-12326
▁mort	-12327
▁sälj	-12328
▁áltá	-12329
▁čuvg	-12330
veahki	-12331
▁1997:	-12332
▁atnet	-12333
▁bijai	-12334
▁láhčá	-12335
▁nuppe	-12336
▁sidor	-12337
▁strid	-12338
arájáid	-12339
ändning	-12340
ärenden	-12341
▁anlägg	-12342
▁bolags	-12343
▁duođas	-12344
▁evenes	-12345
▁fysisk	-12346
▁jeavdd	-12347
▁jurdda	-12348
▁konsul	-12349
▁loatna	-12350
▁maŋŋon	-12351
▁mielke	-12352
▁utvidg	-12353
▁váldoh	-12354
ansvaret	-12355
dieđáhus	-12356
oarjagat	-12357
▁dattege	-12358
▁element	-12359
▁joatkaš	-12360
▁niillas	-12361
▁stivrii	-12362
▁ássamii	-12363
kantuvrra	-12364
▁användes	-12365
▁eavttuin	-12366
▁frågorna	-12367
▁fylkkaid	-12368
▁josefsen	-12369
▁varierat	-12370
hjälpmedel	-12371
ovdáneapmi	-12372
▁erohusaid	-12373
▁fuomášumi	-12374
▁luossabiv	-12375
▁norlándda	-12376
▁báikenamat	-12377
▁konflikter	-12378
▁måluppfyll	-12379
▁ovdáneamis	-12380
▁dutkanráđđi	-12381
▁geassemánus	-12382
▁grundskolor	-12383
▁máksojuvvon	-12384
deklarationen	-12385
▁cealkámušaid	-12386
▁ealáhussearvi	-12387
▁earenoamážiid	-12388
▁landskommunen	-12389
▁stuorradiggái	-12390
organisašuvnnaid	-12391
▁minoritetsspråk	-12392
”,	-12393
kká	-12394
oto	-12395
▁5-	-12396
fakt	-12397
itea	-12398
kval	-12399
sult	-12400
ttan	-12401
uvvi	-12402
vear	-12403
jođih	-12404
norge	-12405
ritor	-12406
ustáv	-12407
▁erik	-12408
▁höst	-12409
▁oper	-12410
▁osäk	-12411
▁tema	-12412
ierats	-12413
öterna	-12414
▁bokst	-12415
▁eambb	-12416
▁peopl	-12417
▁råvar	-12418
▁upphä	-12419
▁váill	-12420
girjjit	-12421
ádagaid	-12422
áigodat	-12423
ásažžan	-12424
▁heajut	-12425
▁händer	-12426
▁nämnts	-12427
▁oassem	-12428
▁rådfrå	-12429
▁válgal	-12430
▁världs	-12431
.03.2018	-12432
sområdet	-12433
▁absolut	-12434
▁ansöker	-12435
▁eksámen	-12436
▁máhttet	-12437
▁oahppol	-12438
▁bestämma	-12439
▁evttohii	-12440
▁fonderna	-12441
▁fylkkain	-12442
▁háliidat	-12443
▁högskola	-12444
▁nannemii	-12445
▁orgánaid	-12446
▁regleras	-12447
proseassas	-12448
▁byggandet	-12449
▁elevernas	-12450
▁negatiiva	-12451
▁strategin	-12452
eiseválddit	-12453
▁arbetsmark	-12454
▁finansiera	-12455
▁mötesdatum	-12456
▁styrelsens	-12457
▁valkretsen	-12458
▁dimensionen	-12459
▁jordbrukare	-12460
▁kapasitehta	-12461
▁ovdamearkan	-12462
▁ruhtadeapmi	-12463
▁sohkabeliid	-12464
▁ságastallan	-12465
▁juolludeamit	-12466
▁rapporterade	-12467
▁dihtomielalaš	-12468
▁förtydligande	-12469
▁geatnegahtton	-12470
▁čoahkkimiidda	-12471
▁lullisámegiela	-12472
▁riksrevisionen	-12473
▁šiehtadallamat	-12474
2)	-12475
gut	-12476
▁hø	-12477
▁yo	-12478
hkka	-12479
jakt	-12480
▁001	-12481
▁daj	-12482
▁häm	-12483
▁lii	-12484
▁ona	-12485
várjj	-12486
árbbu	-12487
▁arne	-12488
▁dáru	-12489
▁hatt	-12490
▁högt	-12491
▁prel	-12492
▁rigg	-12493
▁siva	-12494
▁skal	-12495
▁ávki	-12496
báikki	-12497
negiin	-12498
ägaren	-12499
▁2004.	-12500
▁boazu	-12501
▁lasse	-12502
▁saari	-12503
exuella	-12504
▁arkiiv	-12505
▁dikšun	-12506
▁extern	-12507
▁flexib	-12508
▁hemmet	-12509
▁notera	-12510
▁skador	-12511
▁språkb	-12512
▁suomag	-12513
leringen	-12514
▁antagna	-12515
▁asbjørg	-12516
▁deaddil	-12517
▁láidest	-12518
▁stáhtat	-12519
▁utsläpp	-12520
▁varumär	-12521
ositionen	-12522
▁kungskra	-12523
▁ossodaga	-12524
▁prelimin	-12525
▁riktning	-12526
▁stivrras	-12527
direktevra	-12528
konferánsa	-12529
▁doarjagis	-12530
▁dásseárvu	-12531
▁förlorade	-12532
▁halvorsen	-12533
▁hárjehall	-12534
▁invånarna	-12535
biblioteket	-12536
fápmuduvvon	-12537
▁dieđiheami	-12538
▁dutkanráđi	-12539
▁förläggare	-12540
▁geavahusas	-12541
▁máŋggakult	-12542
▁sirdojuvvo	-12543
▁beslutsfatt	-12544
▁evttohussii	-12545
vejolašvuođat	-12546
▁fokusområdet	-12547
▁ombudsmännen	-12548
▁skolhistoria	-12549
▁áššebáhpirat	-12550
▁ealáhuseallima	-12551
▁árvvoštallamat	-12552
▁styrelseledamot	-12553
/98	-12554
cip	-12555
fun	-12556
lös	-12557
rea	-12558
sty	-12559
▁sg	-12560
evah	-12561
ihtu	-12562
illa	-12563
nain	-12564
oapm	-12565
unni	-12566
▁120	-12567
▁2-1	-12568
▁dju	-12569
▁idé	-12570
obsen	-12571
voter	-12572
▁háld	-12573
▁njie	-12574
▁stod	-12575
▁strä	-12576
region	-12577
ringen	-12578
ágádus	-12579
▁2001:	-12580
▁gávpp	-12581
▁jahki	-12582
▁nivån	-12583
▁náitt	-12584
▁ráđis	-12585
▁valde	-12586
▁ägare	-12587
▁čađat	-12588
osaččat	-12589
▁beavtt	-12590
▁kompet	-12591
▁mediat	-12592
▁renbes	-12593
▁čállán	-12594
ahallama	-12595
sförslag	-12596
▁analysa	-12597
▁dispens	-12598
▁eatnama	-12599
▁förstår	-12600
▁skiljer	-12601
▁skuvlas	-12602
▁dutkande	-12603
▁dáhkádus	-12604
▁erkänner	-12605
▁intervju	-12606
▁láhkarie	-12607
▁mötesled	-12608
▁tillstån	-12609
▁fitnodaga	-12610
▁instämmer	-12611
▁utvinning	-12612
iivvalaččat	-12613
▁föreningen	-12614
▁oassálasti	-12615
▁publicerad	-12616
▁relationer	-12617
▁áitojuvvon	-12618
ošiehtadusas	-12619
▁fylkkadiggi	-12620
▁proseassaid	-12621
▁statistiken	-12622
▁ovttasbargog	-12623
▁váttisvuođat	-12624
▁gulaskuddamis	-12625
▁gullevašvuohta	-12626
▁láhkamearrádus	-12627
▁måluppfyllelse	-12628
▁värdeskapandet	-12629
▁sorjjasmeahttun	-12630
60	-12631
ls	-12632
idá	-12633
ält	-12634
▁94	-12635
ckta	-12636
liva	-12637
skar	-12638
▁160	-12639
▁ávi	-12640
idnui	-12641
irras	-12642
rapor	-12643
áddej	-12644
änder	-12645
▁1979	-12646
▁inne	-12647
▁värd	-12648
oaluid	-12649
ážiigo	-12650
▁2015.	-12651
▁2017:	-12652
▁fritt	-12653
▁skada	-12654
▁yngre	-12655
attform	-12656
lágádus	-12657
ucation	-12658
ullevaš	-12659
árbbuid	-12660
▁birgej	-12661
▁europe	-12662
▁minsta	-12663
▁nuoskk	-12664
▁saknas	-12665
▁troand	-12666
▁vugiid	-12667
▁šálloš	-12668
gaskasaš	-12669
regionen	-12670
▁arkiivv	-12671
▁driften	-12672
▁fysalaš	-12673
▁goluide	-12674
▁synnøve	-12675
▁vuolleg	-12676
aččaiguin	-12677
▁arkivera	-12678
▁bagadall	-12679
▁hanterar	-12680
▁medvetet	-12681
▁oanvända	-12682
▁rivttiid	-12683
▁speadjal	-12684
▁territor	-12685
▁artikelnr	-12686
▁begreppet	-12687
▁geahččala	-12688
▁initieras	-12689
▁slutföras	-12690
▁áddejupmi	-12691
ašiehtadusa	-12692
julggaštusa	-12693
▁dassážiigo	-12694
▁goappašiid	-12695
▁renskötare	-12696
▁stipendiet	-12697
ovddideaddji	-12698
▁eanandoalus	-12699
▁kulturráđđi	-12700
ahálddašeapmi	-12701
▁direktoráhta	-12702
▁guorahallama	-12703
▁praktihkalaš	-12704
▁prošeavttain	-12705
▁socialtjänst	-12706
▁originalspråk	-12707
▁ráhkaduvvojit	-12708
▁perspektiivvas	-12709
▁representerade	-12710
▁språkkunskaper	-12711
▁tanavassdraget	-12712
▁girjjálašvuohta	-12713
.&	-12714
18	-12715
fá	-12716
kš	-12717
len	-12718
stá	-12719
vig	-12720
ddan	-12721
ebiv	-12722
jema	-12723
nord	-12724
oakt	-12725
ppen	-12726
▁had	-12727
eisev	-12728
geahč	-12729
munen	-12730
árvod	-12731
▁dehe	-12732
▁iver	-12733
▁ávvu	-12734
▁ägar	-12735
fördel	-12736
servod	-12737
áhtera	-12738
▁2009,	-12739
▁juoig	-12740
▁lagts	-12741
▁ramar	-12742
▁resor	-12743
▁troll	-12744
▁tråan	-12745
▁vallj	-12746
▁čállá	-12747
konsult	-12748
odahkan	-12749
prinsih	-12750
▁avveck	-12751
▁behöva	-12752
▁dahkko	-12753
▁easkka	-12754
▁luhtte	-12755
▁márkom	-12756
▁ovdána	-12757
▁priset	-12758
▁soaitá	-12759
▁sommar	-12760
▁västra	-12761
▁áššáig	-12762
rämmande	-12763
tipeanda	-12764
▁bedömas	-12765
▁bosatta	-12766
▁fysiska	-12767
▁gávppaš	-12768
▁heahted	-12769
▁ledaren	-12770
▁uppmunt	-12771
rategiija	-12772
▁direktör	-12773
▁förklara	-12774
▁kommunic	-12775
▁koncentr	-12776
▁kuhmunen	-12777
▁mearride	-12778
▁reformen	-12779
▁álbmogin	-12780
▁gávnnahit	-12781
▁jurddašit	-12782
▁religiösa	-12783
▁överväger	-12784
ekommitténs	-12785
prográmmaid	-12786
▁diskuterat	-12787
▁konstnärer	-12788
▁váhnenruđa	-12789
▁davviguovlo	-12790
▁förverkliga	-12791
▁regelbundet	-12792
▁servodagaid	-12793
▁ságastallat	-12794
departementii	-12795
▁meannudeamit	-12796
organisationen	-12797
▁divttasvuonas	-12798
3:	-12799
.40	-12800
eaŋ	-12801
gus	-12802
sel	-12803
ura	-12804
▁84	-12805
.09.	-12806
ajit	-12807
jiid	-12808
▁mul	-12809
▁sem	-12810
▁sil	-12811
▁try	-12812
▁äld	-12813
efter	-12814
ekter	-12815
ievtt	-12816
ohkii	-12817
▁anár	-12818
▁fria	-12819
▁gula	-12820
▁ilus	-12821
▁mått	-12822
fievrr	-12823
labour	-12824
olágas	-12825
▁akers	-12826
▁luoss	-12827
▁skrev	-12828
▁tvång	-12829
▁utsåg	-12830
▁vilja	-12831
▁šatta	-12832
ahuvvot	-12833
▁använt	-12834
▁deattu	-12835
▁dovdet	-12836
▁gollan	-12837
▁jovkui	-12838
▁kanada	-12839
▁korrig	-12840
▁molsaš	-12841
▁signal	-12842
▁sträck	-12843
▁symbol	-12844
▁sáddii	-12845
▁tearpm	-12846
▁uppdel	-12847
▁daterat	-12848
▁lagändr	-12849
▁uppleva	-12850
branschen	-12851
▁sajádaga	-12852
▁ulbmilat	-12853
▁verkligt	-12854
▁šattašii	-12855
▁dievdduid	-12856
▁education	-12857
▁kvinnliga	-12858
▁lágiduvvo	-12859
▁mottagare	-12860
▁samerelat	-12861
▁tidningen	-12862
▁vuosttald	-12863
▁áššiiguin	-12864
sstipendier	-12865
▁dollojuvvo	-12866
▁eaktuduvvo	-12867
▁konferánsa	-12868
▁samrådsför	-12869
smyndigheten	-12870
▁arbetsplats	-12871
▁miessemánus	-12872
▁neahttasiid	-12873
▁ođasmahttit	-12874
▁regelbundna	-12875
▁vuoruhuvvot	-12876
▁rekryterings	-12877
▁ämnesområdet	-12878
▁begränsningar	-12879
▁kulturealáhus	-12880
▁perspektiivva	-12881
▁vuolggasadjin	-12882
▁neahttasiidduin	-12883
bá	-12884
hö	-12885
jja	-12886
kla	-12887
assi	-12888
uhis	-12889
vdad	-12890
äson	-12891
čuol	-12892
▁147	-12893
▁agi	-12894
▁ras	-12895
eansa	-12896
föräl	-12897
ohtet	-12898
servv	-12899
stein	-12900
ument	-12901
▁addo	-12902
▁gruv	-12903
▁hell	-12904
▁ruvk	-12905
▁tids	-12906
▁följt	-12907
▁förel	-12908
▁máksá	-12909
▁tanke	-12910
▁uppen	-12911
▁ássit	-12912
yrelser	-12913
▁avgift	-12914
▁duođai	-12915
▁huvuda	-12916
▁namaid	-12917
▁plánat	-12918
▁šláddj	-12919
agoahtit	-12920
arbetare	-12921
juvvojit	-12922
minstone	-12923
sbestämm	-12924
▁besökte	-12925
▁konstru	-12926
▁njiejai	-12927
▁čujuhii	-12928
▁engelska	-12929
▁formellt	-12930
▁johtolat	-12931
▁máŋggaid	-12932
▁progress	-12933
▁troligen	-12934
▁viidásat	-12935
cealkámuša	-12936
▁eatnamiin	-12937
▁förskolel	-12938
▁informera	-12939
▁kulturråd	-12940
▁semináras	-12941
▁seniorråd	-12942
▁beroštusat	-12943
▁definition	-12944
▁julggaštus	-12945
▁molssaeakt	-12946
▁åtminstone	-12947
srättigheter	-12948
vuoigatvuođa	-12949
▁budgetbehov	-12950
▁folkpartiet	-12951
▁gieđahallan	-12952
▁initiativet	-12953
▁mielddisbuv	-12954
▁oktavuođaid	-12955
▁principerna	-12956
▁guolásteapmi	-12957
▁oahpponeavvo	-12958
▁oassálastima	-12959
▁informationen	-12960
▁jeavddalaččat	-12961
▁arbetsgruppens	-12962
▁doarjjastivrra	-12963
▁ovttasbargguin	-12964
▁árvvoštallamis	-12965
▁finnmárkkuláhka	-12966
15	-12967
6)	-12968
hi	-12969
ete	-12970
lis	-12971
▁5:	-12972
▁øy	-12973
bord	-12974
▁108	-12975
▁3,5	-12976
▁gur	-12977
▁rän	-12978
▁vii	-12979
-2001	-12980
▁1988	-12981
▁cirk	-12982
▁gidd	-12983
▁mađe	-12984
▁oskk	-12985
▁resa	-12986
▁slag	-12987
▁vuvd	-12988
▁vádd	-12989
gažald	-12990
▁håkon	-12991
▁renen	-12992
▁skatt	-12993
▁ákkas	-12994
saemien	-12995
šuvnnas	-12996
▁beaska	-12997
▁hennes	-12998
▁talare	-12999
▁mehtera	-13000
▁protect	-13001
▁påpekas	-13002
▁årsverk	-13003
▁överlev	-13004
▁anpassat	-13005
▁bekräfta	-13006
▁heritage	-13007
▁mihkkege	-13008
ituationen	-13009
▁bargguide	-13010
▁gáivuonas	-13011
▁prinsihpa	-13012
▁uppfattas	-13013
konsuleanta	-13014
▁almmuhuvvo	-13015
▁dagordning	-13016
▁detaljerat	-13017
▁evttohusas	-13018
▁handlingar	-13019
▁hänvisning	-13020
▁instituhta	-13021
▁nordsletta	-13022
▁seminarier	-13023
▁áigumušain	-13024
▁buktojuvvon	-13025
▁ekonomiijas	-13026
▁inställning	-13027
▁ovdanbuktit	-13028
▁skábmamánus	-13029
▁allmänhetens	-13030
▁betesområden	-13031
▁bosättningen	-13032
▁demokratiija	-13033
▁ealáhusráđđi	-13034
▁mearrádussii	-13035
▁buvttadeapmái	-13036
▁guollebiebman	-13037
▁dahkkojuvvojit	-13038
▁deattuhuvvojit	-13039
▁kulturhistorjj	-13040
▁lärohjälpmedel	-13041
▁institutionella	-13042
9)	-13043
nät	-13044
tap	-13045
ösk	-13046
▁yl	-13047
frid	-13048
oadj	-13049
ovid	-13050
skat	-13051
ajiid	-13052
aččas	-13053
givna	-13054
hälsa	-13055
kkust	-13056
listu	-13057
ohkan	-13058
ohuks	-13059
áhtat	-13060
áttis	-13061
▁miss	-13062
▁park	-13063
▁sent	-13064
▁stan	-13065
duvvon	-13066
istisk	-13067
poasta	-13068
tallan	-13069
▁angel	-13070
▁geaid	-13071
▁heitt	-13072
▁magne	-13073
▁sivva	-13074
▁stáda	-13075
▁veter	-13076
▁växte	-13077
▁áššes	-13078
ođastus	-13079
samerna	-13080
ständig	-13081
▁avsatt	-13082
▁betala	-13083
▁centra	-13084
▁felakt	-13085
▁intens	-13086
▁mannet	-13087
▁mihtil	-13088
▁pojkar	-13089
▁vägnar	-13090
.03.2019	-13091
ipmárdus	-13092
sförvärv	-13093
▁beaivve	-13094
▁friluft	-13095
▁fuolast	-13096
▁minuhta	-13097
▁arktalaš	-13098
▁bostäder	-13099
▁buohkaid	-13100
▁guohtung	-13101
▁huksemii	-13102
▁luondduh	-13103
▁orohagat	-13104
▁tjänstem	-13105
ihkarvuođa	-13106
▁deaivvade	-13107
▁ekologisk	-13108
▁fátmmasta	-13109
▁ovddastit	-13110
▁trøndelag	-13111
▁utvecklat	-13112
ovttasbargu	-13113
▁teavsttaid	-13114
▁arrangerade	-13115
▁avdelningar	-13116
▁geavahussii	-13117
▁minskningen	-13118
▁buohkanassii	-13119
▁delegationen	-13120
▁nationalpark	-13121
▁doaibmabijuin	-13122
▁lagkommitténs	-13123
▁tvärvetenskap	-13124
adepartemeantta	-13125
▁genomsnittliga	-13126
▁meannuduvvojit	-13127
▁árbevirolaččat	-13128
▁kulturarvslagen	-13129
2:	-13130
dán	-13131
epm	-13132
ipp	-13133
▁ks	-13134
ekar	-13135
odos	-13136
ohat	-13137
raid	-13138
▁002	-13139
▁1,5	-13140
▁106	-13141
▁ask	-13142
▁imm	-13143
▁mil	-13144
gaard	-13145
schef	-13146
årigt	-13147
▁000.	-13148
▁tent	-13149
anddas	-13150
anpass	-13151
guoski	-13152
orustt	-13153
produc	-13154
ádeami	-13155
▁1970-	-13156
▁dikki	-13157
▁doaba	-13158
▁fasta	-13159
▁iežat	-13160
▁kopia	-13161
▁minns	-13162
▁málle	-13163
▁ohcet	-13164
▁válbm	-13165
ameannu	-13166
ämmelse	-13167
▁filmer	-13168
▁giđđat	-13169
▁kvoter	-13170
▁källor	-13171
▁njunuš	-13172
▁renmär	-13173
▁smávit	-13174
▁straff	-13175
▁vissis	-13176
▁ássiid	-13177
▁čađaha	-13178
gádagaid	-13179
kastades	-13180
▁daningo	-13181
▁duogáža	-13182
▁duohtan	-13183
▁enheter	-13184
▁förvärv	-13185
▁gjordes	-13186
▁levnads	-13187
▁náittos	-13188
▁svarade	-13189
▁čatnasa	-13190
ahuvvojit	-13191
andoarjja	-13192
ordningar	-13193
protokoll	-13194
▁ortnegii	-13195
▁skånland	-13196
▁arbetslös	-13197
▁bestående	-13198
▁fjellheim	-13199
▁fosterhem	-13200
▁företagen	-13201
▁företaget	-13202
▁förvaltar	-13203
▁guollebiv	-13204
▁tillgodos	-13205
eknologiija	-13206
▁dehálažžan	-13207
▁flyttsamel	-13208
▁fátmmastit	-13209
▁generation	-13210
▁kandidater	-13211
▁searvegott	-13212
▁decentralis	-13213
▁rekrutteret	-13214
▁válljejuvvo	-13215
▁webbplatser	-13216
▁bargolávdego	-13217
▁norskisering	-13218
undersökningar	-13219
▁beaivválaččat	-13220
▁bearráigeahču	-13221
▁geavatkeahtes	-13222
▁avdelningschef	-13223
▁našunálateáhter	-13224
3)	-13225
bun	-13226
oda	-13227
▁4,	-13228
ited	-13229
▁003	-13230
▁7.4	-13231
▁arg	-13232
▁nai	-13233
▁náš	-13234
bargi	-13235
edjan	-13236
evies	-13237
vuođđ	-13238
▁garv	-13239
▁gean	-13240
▁guht	-13241
▁gálv	-13242
▁gård	-13243
▁topp	-13244
▁vácc	-13245
▁ägde	-13246
eneavv	-13247
jovkui	-13248
mottag	-13249
sfören	-13250
temiid	-13251
ávnnas	-13252
▁2004:	-13253
▁attii	-13254
▁boast	-13255
▁driva	-13256
▁grete	-13257
▁jagáš	-13258
▁leahk	-13259
▁maxim	-13260
▁ordet	-13261
▁riidd	-13262
▁čeahp	-13263
ohallan	-13264
överför	-13265
▁arenan	-13266
▁dorjon	-13267
▁erenom	-13268
▁heahte	-13269
▁hámmár	-13270
▁joatká	-13271
▁lahtus	-13272
▁partap	-13273
▁pavall	-13274
kkašupmi	-13275
nalaččat	-13276
ávdnasat	-13277
▁general	-13278
▁internt	-13279
▁kopplad	-13280
▁nagodit	-13281
▁vuoruha	-13282
▁váibmog	-13283
dieđáhusa	-13284
ortnegiin	-13285
▁arktiskt	-13286
▁förändra	-13287
▁godkänns	-13288
▁kirkenes	-13289
▁slutsats	-13290
eaiggádiid	-13291
smyndighet	-13292
strukturen	-13293
sättningar	-13294
áigemearri	-13295
▁dohkkehii	-13296
▁fortsatte	-13297
▁främmande	-13298
▁förskolan	-13299
▁girječáll	-13300
▁godkännas	-13301
▁oainnusin	-13302
▁uppfyllda	-13303
▁vuogádaga	-13304
▁vuollelis	-13305
▁álggahans	-13306
▁anslutning	-13307
▁gonagaslaš	-13308
▁parallella	-13309
▁ráđđeaddin	-13310
▁tillväxten	-13311
representant	-13312
▁arbetslivet	-13313
▁fastställas	-13314
▁förkastades	-13315
▁hábmejuvvon	-13316
▁konferenser	-13317
▁organiseras	-13318
▁ersättningen	-13319
▁lagförslaget	-13320
▁ovdamearkkat	-13321
▁sámegielagat	-13322
▁uppföljnings	-13323
▁överföringen	-13324
sorganisationer	-13325
▁departemeanttas	-13326
▁njuolggadusaide	-13327
▁områdestyrelsen	-13328
▁parlamentsvalen	-13329
má	-13330
če	-13331
bli	-13332
dár	-13333
nen	-13334
rát	-13335
đit	-13336
usin	-13337
▁750	-13338
▁kre	-13339
▁tis	-13340
redit	-13341
stekn	-13342
urser	-13343
utbud	-13344
▁elgå	-13345
▁gram	-13346
▁satt	-13347
▁siri	-13348
▁stig	-13349
▁álgu	-13350
aládje	-13351
grader	-13352
jukdom	-13353
onavir	-13354
uheami	-13355
▁dakka	-13356
▁henne	-13357
▁rájis	-13358
▁sorja	-13359
ehtalaš	-13360
kapihtt	-13361
smodell	-13362
ssamman	-13363
umiidda	-13364
uopmost	-13365
▁alcces	-13366
▁delmål	-13367
▁gávcci	-13368
▁jietna	-13369
▁margin	-13370
▁njiedj	-13371
▁njoamm	-13372
▁norske	-13373
▁oamast	-13374
▁ställs	-13375
deddjiid	-13376
splatsen	-13377
▁behålla	-13378
▁fáttáin	-13379
▁govadat	-13380
▁muittán	-13381
▁oahppis	-13382
▁polisen	-13383
ealáhusas	-13384
▁badjelaš	-13385
▁kristine	-13386
▁nannemis	-13387
▁planerar	-13388
▁vardagen	-13389
ealáhussii	-13390
▁bušehttii	-13391
▁indikerar	-13392
▁ledamoten	-13393
▁mihtilmas	-13394
▁praktiskt	-13395
▁soahpamuš	-13396
▁bargosajit	-13397
▁giellaaren	-13398
▁informerat	-13399
▁kollektiva	-13400
▁läroböcker	-13401
▁mångsidigt	-13402
▁oahpaheami	-13403
▁partapuoli	-13404
▁projektets	-13405
▁ráhkadeami	-13406
▁sturrodaga	-13407
▁sávahahtti	-13408
▁viessoláig	-13409
▁vurdojuvvo	-13410
eiseválddiid	-13411
▁forskningen	-13412
▁guhkesáiggi	-13413
▁heiveheapmi	-13414
▁konsulteren	-13415
▁miellagidde	-13416
▁organiseret	-13417
▁ovttaoaivil	-13418
▁váhnemiidda	-13419
▁boazodoallit	-13420
▁dohkkehuvvui	-13421
▁stuorradigge	-13422
▁meahcásteapmi	-13423
▁ávkkástallama	-13424
▁dilálašvuođain	-13425
▁förändringarna	-13426
▁internatskolan	-13427
▁álgoálbmogiidda	-13428
uf	-13429
-20	-13430
ebo	-13431
her	-13432
avet	-13433
eahk	-13434
even	-13435
isch	-13436
jaid	-13437
kall	-13438
ssch	-13439
stit	-13440
trar	-13441
áhku	-13442
▁177	-13443
▁ben	-13444
▁fit	-13445
▁gel	-13446
▁lif	-13447
analy	-13448
eahta	-13449
fápmu	-13450
áhkka	-13451
árgga	-13452
đolaš	-13453
▁buoz	-13454
▁erke	-13455
▁gird	-13456
▁glad	-13457
▁gudn	-13458
▁lill	-13459
borger	-13460
bundet	-13461
ddolaš	-13462
fárren	-13463
▁aiddo	-13464
▁drivs	-13465
▁dávis	-13466
▁femte	-13467
▁major	-13468
▁order	-13469
beskriv	-13470
ståelse	-13471
uheapmi	-13472
▁agenda	-13473
▁báikki	-13474
▁enkelt	-13475
▁europa	-13476
▁gullan	-13477
▁háhkan	-13478
▁inland	-13479
▁searve	-13480
▁váidin	-13481
▁välfär	-13482
▁väsent	-13483
▁boastut	-13484
▁enighet	-13485
▁kommuns	-13486
▁melleby	-13487
▁preassa	-13488
▁anställd	-13489
▁doavttir	-13490
▁gohčodit	-13491
▁ipmirdit	-13492
▁kjellrun	-13493
▁minerála	-13494
▁válggain	-13495
▁eanetlogu	-13496
▁historien	-13497
▁problemet	-13498
▁barnbidrag	-13499
▁detaljerad	-13500
▁finnmárkui	-13501
▁intressant	-13502
▁stiftelsen	-13503
▁áigemearri	-13504
▁alternativa	-13505
▁arbetskraft	-13506
▁daddjojuvvo	-13507
▁domstolarna	-13508
▁pasieanttat	-13509
▁resurssaide	-13510
▁behandlingar	-13511
▁duohtavuođas	-13512
▁huvudsakliga	-13513
▁landstingets	-13514
▁lihkostuvvat	-13515
▁pasieanttaid	-13516
▁regiovnnalaš	-13517
▁rekrutterema	-13518
▁systematiskt	-13519
▁tillgängligt	-13520
▁vuođđogiella	-13521
▁álggahuvvojit	-13522
▁áittardeaddjit	-13523
▁arbetsordningen	-13524
▁kultuvrralaččat	-13525
▁parlamentsvalet	-13526
▁árvvoštallamiid	-13527
but	-13528
ova	-13529
pan	-13530
čáj	-13531
čáz	-13532
▁76	-13533
▁vg	-13534
esco	-13535
ásat	-13536
▁act	-13537
▁bju	-13538
hjälp	-13539
iivva	-13540
pport	-13541
ränsa	-13542
▁gier	-13543
▁luvv	-13544
▁prov	-13545
▁veta	-13546
bestån	-13547
brevet	-13548
propri	-13549
savtal	-13550
▁fáles	-13551
▁lávga	-13552
▁sohpp	-13553
▁sávzz	-13554
▁tyder	-13555
baserat	-13556
ledaren	-13557
▁almmái	-13558
▁beliin	-13559
▁doalut	-13560
▁eleven	-13561
▁geahpe	-13562
▁mávsse	-13563
▁ráđđái	-13564
▁sajiin	-13565
▁searvá	-13566
▁soahte	-13567
▁urheim	-13568
▁árvvoš	-13569
▁areálat	-13570
▁eallima	-13571
▁jearrat	-13572
▁lohppii	-13573
▁máŋggas	-13574
▁normalt	-13575
▁omständ	-13576
▁synliga	-13577
grupperna	-13578
sförmåner	-13579
▁begränsa	-13580
▁beloppet	-13581
▁förekomm	-13582
▁föreslog	-13583
▁garanter	-13584
▁initiera	-13585
▁oainnuid	-13586
▁praktisk	-13587
▁sameting	-13588
▁seksuála	-13589
▁stáhtaid	-13590
▁árvvusat	-13591
erbjudande	-13592
prográmmas	-13593
▁christina	-13594
▁fylkagiel	-13595
▁gymnasium	-13596
▁medborger	-13597
▁obligator	-13598
kommišuvnna	-13599
▁boraspirel	-13600
▁doarjagiin	-13601
▁funktionsn	-13602
▁lágiduvvui	-13603
▁regionerna	-13604
▁samiskolan	-13605
▁válgabiire	-13606
▁čilgejuvvo	-13607
▁allaskuvlii	-13608
▁doarjjaoažž	-13609
▁identiteten	-13610
▁kontinuitet	-13611
▁kulturskydd	-13612
▁återbetalas	-13613
▁veahkkeneavv	-13614
▁čielggadeapmi	-13615
▁mielddisbuktit	-13616
▁vealtameahttun	-13617
▁överensstämmer	-13618
.8	-13619
md	-13620
ich	-13621
ous	-13622
ula	-13623
áge	-13624
▁79	-13625
▁93	-13626
▁oz	-13627
edde	-13628
kiat	-13629
ovtt	-13630
čovd	-13631
▁007	-13632
▁010	-13633
▁450	-13634
▁dkk	-13635
▁ers	-13636
▁fac	-13637
▁fak	-13638
▁gah	-13639
▁jog	-13640
▁liŋ	-13641
▁ägt	-13642
avare	-13643
ibmii	-13644
ittee	-13645
▁1970	-13646
▁mott	-13647
▁nymo	-13648
▁oinn	-13649
▁teat	-13650
▁tryg	-13651
aktien	-13652
aruhta	-13653
emeari	-13654
oráhka	-13655
ruđaid	-13656
ávccat	-13657
▁1800-	-13658
▁areal	-13659
▁diggi	-13660
▁emrip	-13661
▁fatta	-13662
▁fullt	-13663
▁turis	-13664
emorand	-13665
prosedy	-13666
▁duppal	-13667
▁frihet	-13668
▁juoidá	-13669
▁lahkon	-13670
▁muttus	-13671
▁oaččut	-13672
▁träder	-13673
▁visste	-13674
sproblem	-13675
▁bargiin	-13676
▁bivddii	-13677
▁födelse	-13678
▁huvudav	-13679
▁lagamus	-13680
▁planera	-13681
▁stivret	-13682
▁ställas	-13683
▁tråante	-13684
ällningen	-13685
▁artister	-13686
▁bearraša	-13687
▁befinner	-13688
▁iehčanas	-13689
▁kvalsund	-13690
▁maŋŋonan	-13691
▁stáhtain	-13692
▁varierar	-13693
hållandena	-13694
prográmmat	-13695
▁begränsat	-13696
▁byggnaden	-13697
▁doktorsex	-13698
▁fatnasiid	-13699
▁ledarskap	-13700
▁meannudii	-13701
▁viidodaga	-13702
▁festiválat	-13703
▁förbättras	-13704
▁grundskola	-13705
▁landsbygds	-13706
▁ledningens	-13707
▁långsiktig	-13708
▁raporteren	-13709
▁árvaluvvon	-13710
▁deaivvadans	-13711
▁eanandollui	-13712
▁gávpogiidda	-13713
▁medvetenhet	-13714
▁ovanstående	-13715
▁struktuvrra	-13716
räkenskaperna	-13717
▁genomsnittet	-13718
▁juolludusaid	-13719
▁mánáidgárdes	-13720
▁språkcentrum	-13721
sförvaltningen	-13722
▁fokusområdena	-13723
▁medborgerliga	-13724
▁oaivvilduvvon	-13725
▁riikaantikvára	-13726
▁språkstyrelsen	-13727
▁vuođđooahpahusa	-13728
lå	-13729
to	-13730
-15	-13731
hop	-13732
nge	-13733
vda	-13734
▁83	-13735
ikop	-13736
oven	-13737
▁005	-13738
▁1,2	-13739
▁130	-13740
▁20%	-13741
▁202	-13742
▁asa	-13743
▁båt	-13744
▁jie	-13745
▁usa	-13746
iessu	-13747
raxis	-13748
temii	-13749
ándda	-13750
▁bank	-13751
▁beas	-13752
▁makt	-13753
▁moai	-13754
▁vižž	-13755
aldall	-13756
iijain	-13757
inguin	-13758
áššenr	-13759
▁1998:	-13760
▁2014:	-13761
▁andre	-13762
▁covid	-13763
▁dålig	-13764
▁enger	-13765
▁gávpe	-13766
▁kvant	-13767
▁mánás	-13768
▁nidar	-13769
agirjer	-13770
utövare	-13771
▁faremo	-13772
▁fältet	-13773
▁guovlo	-13774
▁införs	-13775
▁publik	-13776
▁sutnje	-13777
adeapmái	-13778
ahttimis	-13779
deaddjin	-13780
sförmåga	-13781
statisti	-13782
▁betonat	-13783
▁duodjái	-13784
▁flickor	-13785
▁gohččun	-13786
▁psykisk	-13787
▁uppnått	-13788
▁uppstår	-13789
▁vintern	-13790
medlemmar	-13791
▁avsattes	-13792
▁godkänna	-13793
▁plánemis	-13794
▁searvama	-13795
▁slutföra	-13796
▁čoakkáld	-13797
sprojektet	-13798
▁kapihttal	-13799
▁logaldall	-13800
▁osäkerhet	-13801
▁personlig	-13802
▁sjukdomar	-13803
andoaimmaid	-13804
▁befattning	-13805
▁mohtorjoht	-13806
▁mångkultur	-13807
atnegasvuođa	-13808
▁fierpmádaga	-13809
▁gollegiella	-13810
▁internáhtas	-13811
▁jearahallan	-13812
▁nuppástuhtt	-13813
▁tidsfrister	-13814
▁uppgifterna	-13815
▁funktionsned	-13816
▁förklaringen	-13817
▁riikkasearvi	-13818
▁ráhkadeapmái	-13819
▁suodjaleapmi	-13820
▁tilldelnings	-13821
▁ássanguovlluin	-13822
▁finanskommittén	-13823
pi	-13824
bry	-13825
luo	-13826
nit	-13827
okt	-13828
ora	-13829
pdf	-13830
erbø	-13831
hand	-13832
ivat	-13833
jalg	-13834
ppat	-13835
rett	-13836
sess	-13837
vest	-13838
álab	-13839
▁2,5	-13840
▁850	-13841
▁dyn	-13842
▁nče	-13843
▁ávv	-13844
asmus	-13845
sfull	-13846
upmái	-13847
uttus	-13848
▁1917	-13849
▁dras	-13850
▁föra	-13851
▁gárv	-13852
▁nora	-13853
▁snpl	-13854
▁áidd	-13855
▁áŋgi	-13856
rätten	-13857
skrift	-13858
uoigat	-13859
utnytt	-13860
vuođus	-13861
önster	-13862
▁atnán	-13863
▁dagah	-13864
▁redog	-13865
▁tider	-13866
▁utöka	-13867
▁vadsø	-13868
▁övert	-13869
kapitel	-13870
oavttir	-13871
sstödet	-13872
ystemet	-13873
▁avverk	-13874
▁gaskav	-13875
▁gávpog	-13876
▁juohká	-13877
▁narvik	-13878
▁rasmus	-13879
▁rievdá	-13880
▁skjalg	-13881
▁unesco	-13882
▁čatnat	-13883
gáibádus	-13884
inisttar	-13885
▁dávista	-13886
▁geahčad	-13887
▁innebar	-13888
▁mearrad	-13889
▁nagodan	-13890
▁ohcamis	-13891
▁ortnamn	-13892
▁session	-13893
▁skuvlav	-13894
▁snarare	-13895
▁ställer	-13896
▁unionen	-13897
farandena	-13898
studenter	-13899
▁birrasis	-13900
▁boađusin	-13901
▁expropri	-13902
▁heivehan	-13903
▁ovddasta	-13904
▁storting	-13905
▁ulbmilla	-13906
▁uttryckt	-13907
vuogádagas	-13908
▁2009-2013	-13909
▁bargoaddi	-13910
▁committee	-13911
▁framgångs	-13912
▁historisk	-13913
▁kulturguo	-13914
▁miellaguo	-13915
▁mánáiguin	-13916
▁olmmošlaš	-13917
▁utmanande	-13918
▁vásihusat	-13919
konferánssa	-13920
▁olggobeale	-13921
▁föreslagits	-13922
▁girjáivuođa	-13923
▁kristiansen	-13924
▁långsiktigt	-13925
▁meddelandet	-13926
▁tilldelades	-13927
▁geatnegahttá	-13928
▁juolludeapmi	-13929
▁ursprungliga	-13930
▁álgoálbmogin	-13931
▁davviguovlluin	-13932
▁diehtojuohkima	-13933
▁flyttsamelista	-13934
▁luondduhálddaš	-13935
▁beslutsfattande	-13936
▁företagsförvärv	-13937
80	-13938
hf	-13939
cis	-13940
umm	-13941
äst	-13942
▁4:	-13943
lass	-13944
ávžž	-13945
▁320	-13946
▁ens	-13947
▁gum	-13948
▁kam	-13949
▁sav	-13950
▁yle	-13951
-2007	-13952
ddjen	-13953
sning	-13954
álain	-13955
▁boađ	-13956
▁hävd	-13957
▁lesb	-13958
▁list	-13959
▁mátk	-13960
▁sund	-13961
▁váss	-13962
▁ágga	-13963
ammans	-13964
uovdag	-13965
▁avläg	-13966
▁duoht	-13967
▁motiv	-13968
▁omlok	-13969
▁álggu	-13970
ahoavda	-13971
issaide	-13972
▁birget	-13973
▁examen	-13974
▁friddj	-13975
▁förfog	-13976
▁prente	-13977
▁suorgi	-13978
▁transp	-13979
▁vistel	-13980
▁váldde	-13981
aliseren	-13982
byggande	-13983
išuvdnii	-13984
maningar	-13985
språkiga	-13986
ständigt	-13987
▁almmuha	-13988
▁barggai	-13989
▁daiguin	-13990
▁geaidda	-13991
▁grammat	-13992
▁strider	-13993
▁árvalit	-13994
▁antagits	-13995
▁bibehåll	-13996
▁eatnamat	-13997
▁semester	-13998
▁skickade	-13999
▁välfärds	-14000
▁ávdnasat	-14001
anguovddáž	-14002
distrikten	-14003
ttideaddji	-14004
▁förändras	-14005
▁markägare	-14006
▁nordnorge	-14007
▁ossodagas	-14008
▁paragráfa	-14009
▁skolägare	-14010
▁språktekn	-14011
▁stáhtamin	-14012
▁unjárggas	-14013
▁álbmotreg	-14014
▁árvalusat	-14015
information	-14016
▁bušeahttar	-14017
▁fungerande	-14018
▁föreningar	-14019
▁författare	-14020
▁kulturland	-14021
▁uppfostran	-14022
▁utrustning	-14023
▁vuorrasiid	-14024
▁vuđolaččat	-14025
▁buohccivies	-14026
▁registrerat	-14027
▁övervakning	-14028
elbbolašvuođa	-14029
▁birasgáhtten	-14030
▁diskussioner	-14031
▁fjordområden	-14032
▁oahppočuoggá	-14033
▁folkräkningen	-14034
▁nödvändigtvis	-14035
▁váikkuhanfámu	-14036
▁julevsámegielas	-14037
-7	-14038
ää	-14039
cet	-14040
gom	-14041
▁5,	-14042
▁7:	-14043
▁96	-14044
▁lk	-14045
mmen	-14046
osof	-14047
seff	-14048
skan	-14049
usta	-14050
vald	-14051
värr	-14052
▁3.6	-14053
▁dun	-14054
▁sfp	-14055
▁čuh	-14056
illii	-14057
oađus	-14058
ottis	-14059
utnii	-14060
ándor	-14061
▁drog	-14062
▁halv	-14063
▁loab	-14064
▁lyft	-14065
▁ordn	-14066
▁ring	-14067
▁spår	-14068
beited	-14069
belopp	-14070
ivviin	-14071
ningom	-14072
oahppo	-14073
▁2000-	-14074
▁ambit	-14075
▁buohc	-14076
▁dimen	-14077
▁doalu	-14078
▁máhte	-14079
▁rahpp	-14080
▁summa	-14081
▁váidd	-14082
▁vásti	-14083
▁ávvir	-14084
ovuogád	-14085
álbmoga	-14086
▁ansökt	-14087
▁bivddu	-14088
▁bustáv	-14089
▁dutkat	-14090
▁fástad	-14091
▁guliid	-14092
▁tyvärr	-14093
▁vánhem	-14094
báikkiid	-14095
ohálddaš	-14096
paragráf	-14097
ssammans	-14098
▁bevaras	-14099
▁bálddal	-14100
▁egendom	-14101
▁föreläs	-14102
▁hehttet	-14103
▁lifjell	-14104
▁mearrar	-14105
▁mielkeb	-14106
▁skickar	-14107
▁sámerad	-14108
▁teknisk	-14109
joavkkuid	-14110
smaterial	-14111
▁beavttál	-14112
▁dialogen	-14113
▁leverant	-14114
▁njuovvan	-14115
ekostnader	-14116
fierpmádat	-14117
▁journalis	-14118
▁julevsáme	-14119
▁ođasmuvvi	-14120
▁projekten	-14121
▁sisaboaht	-14122
▁småningom	-14123
▁lasihuvvon	-14124
▁prinsihpat	-14125
▁skillnaden	-14126
▁tillfällen	-14127
▁čađaheapmi	-14128
bálvalusaide	-14129
▁dieđiheapmi	-14130
▁merkejuvvon	-14131
▁mielváikkuh	-14132
▁situationer	-14133
▁ändringarna	-14134
arehketdoallu	-14135
beitedistrikt	-14136
juolggadusain	-14137
▁ođđajagemánu	-14138
▁tillräckliga	-14139
▁ansvarsområde	-14140
▁digitaliseren	-14141
▁láhkaásahusas	-14142
▁vuoruhuvvojit	-14143
▁čielggaduvvon	-14144
▁iešmearrideami	-14145
▁labourpartiets	-14146
▁ordförandeskap	-14147
▁kulturministtar	-14148
bör	-14149
már	-14150
öts	-14151
▁lu	-14152
.00.	-14153
inen	-14154
mäss	-14155
okus	-14156
orks	-14157
plac	-14158
saut	-14159
ájit	-14160
ánne	-14161
▁125	-14162
▁cer	-14163
▁lie	-14164
▁lyn	-14165
▁stå	-14166
▁svf	-14167
/2010	-14168
icens	-14169
ioder	-14170
▁biev	-14171
▁hamn	-14172
▁leif	-14173
▁länk	-14174
▁oför	-14175
▁port	-14176
▁sägs	-14177
▁term	-14178
asaset	-14179
blemat	-14180
ejođih	-14181
imustá	-14182
lärare	-14183
ráđđea	-14184
▁britt	-14185
▁rader	-14186
oarjjan	-14187
▁earáin	-14188
▁fertej	-14189
▁fiskar	-14190
▁girkon	-14191
▁lämnat	-14192
▁uppgav	-14193
bargiide	-14194
čilgehus	-14195
▁alkohol	-14196
▁beaivái	-14197
▁behoven	-14198
▁bådåddj	-14199
▁eanebut	-14200
▁formála	-14201
▁försöka	-14202
▁háliide	-14203
▁mediain	-14204
▁stipean	-14205
▁unjárga	-14206
▁valkeap	-14207
▁överträ	-14208
osexuella	-14209
▁dássedis	-14210
▁därefter	-14211
▁effekter	-14212
▁fiskerid	-14213
▁nannosit	-14214
▁resulter	-14215
[...]
