[<PAD>]	0
[<UNK>]	0
[<SOS>]	0
[<EOS>]	0
.	-3.4642
▁	-3.80585
s	-4.09287
▁ja	-4.13739
,	-4.17173
▁och	-4.17996
t	-4.29678
▁.	-4.34614
▁i	-4.36739
▁att	-4.46622
▁för	-4.57872
▁lea	-4.73116
▁,	-4.80728
▁av	-4.82604
a	-4.88087
-	-5.00208
n	-5.01103
▁som	-5.14222
▁leat	-5.19267
▁sámi	-5.20754
▁till	-5.21541
▁det	-5.24301
▁en	-5.25415
▁samiska	-5.25524
▁ahte	-5.31407
▁är	-5.31535
▁har	-5.38708
▁de	-5.4157
en	-5.42427
▁med	-5.42645
▁på	-5.53663
e	-5.55258
▁om	-5.58449
▁go	-5.68126
▁den	-5.72088
▁sametinget	-5.73208
▁ett	-5.77131
:	-5.79333
r	-5.85585
i	-5.87144
in	-5.89478
▁(	-5.93937
id	-5.95261
er	-5.9708
▁-	-6.17224
▁sámediggi	-6.18315
▁mii	-6.21048
▁från	-6.24734
▁detta	-6.27641
▁inte	-6.28073
▁kommer	-6.29498
▁kan	-6.34951
▁sámedikki	-6.3687
▁dan	-6.36932
▁sametingets	-6.37009
▁dat	-6.39324
▁ii	-6.40673
▁mat	-6.42163
▁galgá	-6.50167
▁kultur	-6.52459
▁maid	-6.54536
▁birra	-6.54668
et	-6.56256
▁måste	-6.57179
d	-6.58302
▁också	-6.60554
)	-6.60559
na	-6.61623
▁/	-6.62894
ar	-6.6402
▁eará	-6.65746
▁:	-6.66697
▁samisk	-6.68216
▁nu	-6.69794
▁dán	-6.71363
▁var	-6.73854
▁ska	-6.77586
▁mielde	-6.77646
▁vi	-6.79163
▁maiddái	-6.82373
▁norska	-6.89042
▁sáhttá	-6.89146
▁lei	-6.89651
▁000	-6.90815
▁under	-6.90858
š	-6.91118
▁eller	-6.9135
▁andra	-6.91475
▁1	-6.93993
▁inom	-6.95537
▁)	-6.97142
▁sin	-6.97678
▁språk	-6.99442
it	-7.02135
ii	-7.02338
▁ođđa	-7.02428
▁dát	-7.03122
▁dahje	-7.03316
▁b	-7.04941
▁§	-7.06185
;	-7.07036
▁vara	-7.0966
de	-7.12994
▁jagi	-7.13921
at	-7.15279
▁eai	-7.16296
ide	-7.16642
▁giella	-7.1713
▁ferte	-7.18136
▁finns	-7.19059
▁2	-7.20182
▁utbildning	-7.22974
▁när	-7.23489
▁man	-7.24079
▁vid	-7.2517
quot	-7.25442
▁genom	-7.2617
▁år	-7.26886
▁alla	-7.27612
b	-7.2971
l	-7.29784
▁efter	-7.31517
▁s	-7.3182
▁där	-7.32247
h	-7.32837
▁så	-7.32974
▁galget	-7.32981
▁–	-7.33038
▁ektui	-7.3385
▁dasa	-7.35232
▁upp	-7.35233
▁förslag	-7.35464
▁3	-7.35995
▁mellan	-7.36675
▁norgga	-7.36863
▁ge	-7.37178
▁ha	-7.37636
▁sámegiela	-7.38273
á	-7.386
▁muhto	-7.40699
an	-7.41234
▁områden	-7.41329
▁eanet	-7.4301
▁nr	-7.43048
▁men	-7.43531
▁ollu	-7.44213
ma	-7.44767
laš	-7.4479
▁bokte	-7.44922
g	-7.4558
▁daid	-7.46077
▁dessa	-7.46198
▁norge	-7.46271
▁geat	-7.46355
▁oktavuođas	-7.4659
as	-7.46672
ge	-7.47583
▁2010	-7.48043
▁barn	-7.48764
▁över	-7.49503
▁buot	-7.52379
sihke	-7.53003
▁mas	-7.53288
/	-7.54182
▁ášši	-7.54913
is	-7.55162
▁kommun	-7.55915
▁4	-7.57238
▁denna	-7.57847
k	-7.57981
▁5	-7.58179
▁olika	-7.58357
iguin	-7.5868
y	-7.58787
▁du	-7.58851
▁gäller	-7.58963
▁mer	-7.5914
f	-7.59297
▁båd	-7.59488
▁leamaš	-7.60899
▁dál	-7.61793
o	-7.6182
▁vuođul	-7.62508
▁utveckling	-7.62539
▁oažžut	-7.62606
▁stáhta	-7.62642
▁bidrag	-7.62705
▁finnmark	-7.62879
da	-7.63076
▁nya	-7.63181
▁jag	-7.63447
▁2011	-7.65016
v	-7.65066
▁sig	-7.6601
6	-7.66625
▁deaŧalaš	-7.67502
▁ledje	-7.67537
▁åtgärder	-7.67928
▁sámediggeráđđi	-7.68552
▁in	-7.6866
▁das	-7.68816
▁råd	-7.68968
▁jus	-7.69518
▁ru	-7.70714
▁rättigheter	-7.71149
5	-7.72196
jit	-7.72229
▁därför	-7.73865
▁samiskt	-7.7414
▁dakkár	-7.74458
▁10	-7.7483
m	-7.77032
▁doarjja	-7.77309
▁danne	-7.77527
1	-7.77529
▁får	-7.78314
▁várás	-7.78428
▁rätt	-7.78458
▁viktigt	-7.7864
▁än	-7.79028
▁enligt	-7.79064
▁samerna	-7.7926
▁&	-7.79494
▁sierra	-7.7997
).	-7.80335
▁arbete	-7.80968
▁sáhttet	-7.80991
▁kunskap	-7.81177
▁många	-7.82608
▁dearvvašvuođa	-7.82727
▁vai	-7.83039
▁bland	-7.83627
▁hade	-7.84466
▁få	-7.847
▁kronor	-7.85199
▁6	-7.85441
▁grund	-7.85686
no	-7.85779
▁mot	-7.8594
&	-7.85957
▁del	-7.86155
▁nok	-7.86372
vuođa	-7.86692
2	-7.86947
▁ealáhus	-7.87163
▁·	-7.87909
4	-7.88258
▁samarbete	-7.88296
▁ain	-7.88656
▁mo	-7.88743
▁mycket	-7.89436
▁sii	-7.89971
▁2009	-7.90396
▁rájes	-7.90938
▁språket	-7.91033
▁frågor	-7.91077
7	-7.91485
9	-7.91954
erna	-7.92125
▁guovlluin	-7.92379
▁regeringen	-7.92607
al	-7.92924
▁bör	-7.9301
▁särskilt	-7.95176
▁hur	-7.95282
▁e	-7.95345
▁forskning	-7.95618
8	-7.95685
p	-7.95861
▁vejolaš	-7.96722
▁áigu	-7.96988
▁se	-7.97343
▁stuorra	-7.98114
▁behov	-7.98294
▁projekt	-7.983
▁kultuvrra	-7.98375
▁ut	-7.9865
▁min	-7.98767
▁mánáid	-7.98869
u	-7.99072
▁beslut	-7.99108
▁två	-7.99225
▁2012	-7.99321
▁ministeriet	-7.99396
▁earret	-7.99541
▁ansvar	-8.00199
?	-8.00242
▁gos	-8.01201
▁vill	-8.01427
▁per	-8.01516
▁o	-8.01801
▁a	-8.01853
▁dagis	-8.02389
go	-8.02421
▁iežas	-8.02847
▁ovdal	-8.03431
▁almmolaš	-8.03522
▁varit	-8.03628
▁seamma	-8.0367
▁sami	-8.03772
▁son	-8.03835
▁%	-8.03903
▁7	-8.04268
▁plána	-8.0458
▁dárbu	-8.04584
▁första	-8.05282
▁finnmárkku	-8.05316
▁11	-8.05452
▁ta	-8.05957
▁ny	-8.06155
▁ovddidit	-8.06205
▁main	-8.06264
▁ovddasvástádus	-8.06414
▁dihte	-8.06484
ga	-8.06505
▁doaibma	-8.06729
▁fall	-8.07591
▁hälso	-8.07652
▁oahpahus	-8.07769
▁skuvla	-8.0806
▁”	-8.08088
ning	-8.08333
▁8	-8.0864
▁h	-8.08763
▁kompetens	-8.09177
▁boazodoallo	-8.09208
▁information	-8.09358
▁lassin	-8.09905
▁arbetet	-8.09979
0	-8.10332
▁användning	-8.10522
▁«	-8.10796
▁kommuner	-8.11107
▁9	-8.11208
▁duodji	-8.11289
▁budget	-8.11702
▁flera	-8.12099
▁mål	-8.12284
▁samer	-8.12455
▁geavahit	-8.12916
%	-8.13006
▁ráđđehus	-8.13381
▁18	-8.1351
▁sámedikkis	-8.13828
▁området	-8.13933
▁anti	-8.14819
▁iežaset	-8.14851
▁stor	-8.14852
▁befolkningen	-8.15041
▁annat	-8.15075
▁dehálaš	-8.15181
▁15	-8.15243
▁här	-8.15325
▁rådet	-8.15499
▁20	-8.1558
▁guoská	-8.15618
3	-8.15924
or	-8.16065
▁ursprungs	-8.16108
▁dušše	-8.16496
▁guovddáš	-8.16628
tta	-8.1667
▁hui	-8.16763
ne	-8.16899
▁miljoner	-8.17095
▁stärka	-8.17222
ä	-8.17548
▁rapport	-8.17752
▁bargo	-8.18343
▁stöd	-8.18419
▁följande	-8.18441
▁sätt	-8.18727
▁fága	-8.19441
anser	-8.19453
re	-8.19683
▁nsr	-8.20035
mis	-8.20715
▁ungdomar	-8.20977
▁utveckla	-8.21411
▁váldo	-8.2145
som	-8.22057
▁sitt	-8.22226
▁bra	-8.22421
▁ärendet	-8.22432
▁större	-8.2294
▁12	-8.23092
▁r	-8.2314
▁movt	-8.23153
▁antalet	-8.23594
▁ellen	-8.23886
▁kunna	-8.24021
▁fram	-8.24597
j	-8.25162
nde	-8.25391
▁troms	-8.25408
▁säkerställa	-8.25601
▁oktasaš	-8.25749
▁även	-8.25803
▁2005	-8.25929
▁19	-8.2599
▁rekommendation	-8.26127
▁säger	-8.26163
on	-8.26247
▁ovttas	-8.26505
▁boazodoalu	-8.26654
departemeanta	-8.2723
▁parlamentarisk	-8.27972
▁30	-8.28043
▁prošeakta	-8.28096
▁nugo	-8.28117
vuohta	-8.28219
mii	-8.28428
▁dáid	-8.2863
▁evttohus	-8.28656
▁be	-8.28679
lávdegotti	-8.28908
▁báikkálaš	-8.2918
▁eira	-8.29183
▁vuođđun	-8.29263
▁50	-8.29335
▁okta	-8.29352
▁staten	-8.29639
▁makkár	-8.29755
arna	-8.29967
je	-8.29968
▁bidra	-8.30013
▁vuosttaš	-8.30038
▁sámiid	-8.30141
▁1.	-8.30204
▁13	-8.30332
▁kr	-8.30365
▁dessutom	-8.30696
▁ger	-8.307
▁bargat	-8.30765
▁politihkalaš	-8.31133
ra	-8.31198
▁juohke	-8.31204
▁nationella	-8.31371
▁sida	-8.31571
▁ovddas	-8.32211
la	-8.32511
▁utvecklingen	-8.32585
▁dutkan	-8.32973
▁davvi	-8.3309
▁dain	-8.33199
▁barggu	-8.33295
▁visar	-8.33471
▁tre	-8.33743
ái	-8.34014
▁samband	-8.34093
▁sámediggái	-8.34093
▁geain	-8.34251
▁renhållning	-8.34482
▁samhället	-8.3469
▁vad	-8.35381
▁ovdan	-8.35588
▁dalle	-8.35614
▁samma	-8.3565
▁k	-8.3597
▁val	-8.36211
c	-8.3632
▁doarjaga	-8.36532
▁han	-8.36891
▁gaskkas	-8.37408
▁giela	-8.37483
▁norggas	-8.37568
▁samråd	-8.3773
me	-8.37968
▁ovtta	-8.38062
lávdegoddi	-8.38227
▁utan	-8.38398
▁kommunerna	-8.38676
▁förhållande	-8.38831
▁sámediggeráđi	-8.38869
ande	-8.38994
▁2000	-8.39018
ba	-8.39756
des	-8.40716
▁hela	-8.40746
▁2008	-8.41119
▁lagen	-8.41145
▁14	-8.41271
▁idag	-8.41361
▁vel	-8.41367
▁vuoigatvuođa	-8.4144
▁sedan	-8.41474
▁administrativa	-8.41632
▁fiske	-8.4168
▁sámegiella	-8.41761
ja	-8.42101
▁muhtun	-8.42151
▁jos	-8.42178
▁erenoamážit	-8.42233
▁berre	-8.42292
▁möte	-8.42574
▁dás	-8.42883
▁sihkkarastit	-8.43235
▁regler	-8.439
▁eambbo	-8.44126
▁offentliga	-8.44232
▁skolan	-8.44363
▁maŋŋá	-8.44792
▁gitta	-8.44793
▁innebär	-8.44871
▁erenoamáš	-8.4496
▁stora	-8.44979
▁dieđuid	-8.45031
▁bušeahtta	-8.45185
iid	-8.45212
enlighet	-8.45278
▁ser	-8.45423
▁g	-8.45469
▁nannet	-8.45592
▁nord	-8.456
▁rapporten	-8.45777
▁kommittén	-8.46148
▁f	-8.4646
▁sis	-8.46556
▁projektet	-8.46692
▁viktig	-8.46704
ens	-8.46747
▁váldit	-8.4718
▁iešguđet	-8.47528
▁romssa	-8.47883
▁dasto	-8.4794
▁norsk	-8.48423
▁nuoraid	-8.48457
▁v	-8.48507
▁oassi	-8.48559
▁sámegillii	-8.48806
▁ytterligare	-8.4889
▁dievasčoahkkin	-8.48891
▁addit	-8.49072
▁njuolggadusaid	-8.49263
va	-8.49596
laččat	-8.50018
▁ekonomalaš	-8.50213
▁tidigare	-8.50247
▁organ	-8.50399
▁antal	-8.50466
eami	-8.50569
eapmi	-8.5065
▁muđui	-8.50915
▁buorre	-8.51005
▁pedersen	-8.5113
▁16	-8.51192
▁kl	-8.51356
▁lag	-8.51409
▁arbeta	-8.51509
se	-8.51739
▁ožžot	-8.51747
▁2007	-8.51788
▁fertejit	-8.51977
▁användningen	-8.52117
▁skulle	-8.52258
ik	-8.5226
▁gelbbolašvuođa	-8.5235
▁samtidigt	-8.5271
▁stuora	-8.52861
▁utbildnings	-8.53015
▁gaskka	-8.53401
min	-8.53511
▁geažil	-8.5353
ri	-8.53606
riikkaidgaskasaš	-8.53717
▁árbevirolaš	-8.54261
▁lávdegotti	-8.5436
es	-8.54613
sii	-8.54725
▁čállit	-8.54889
▁dainna	-8.54988
ministeriet	-8.55135
▁olles	-8.55157
10	-8.55387
▁inga	-8.554
▁medel	-8.55415
▁renskötsel	-8.55823
edje	-8.56413
▁resurser	-8.56647
▁kvinnor	-8.56892
▁áiggi	-8.56989
▁jordbruk	-8.57043
us	-8.57053
▁viktiga	-8.57055
▁for	-8.57247
▁čoahkkingirjji	-8.57362
▁áššis	-8.57412
▁högre	-8.57646
▁fas	-8.57865
ut	-8.57866
▁ieš	-8.57925
di	-8.58031
▁siidu	-8.58219
▁m	-8.58599
▁čoahkkin	-8.58635
▁servodat	-8.58716
▁sosiála	-8.58745
▁vissa	-8.58943
▁álbmot	-8.59091
▁möjligt	-8.59163
▁göra	-8.5918
▁använda	-8.59185
▁representant	-8.59358
▁förvaltning	-8.59362
▁mearkkaša	-8.59412
▁sáme	-8.59759
ju	-8.59839
▁oahpahusa	-8.59846
▁oslo	-8.60143
▁vilke	-8.60449
▁vuoigatvuođaid	-8.60667
▁politiska	-8.60722
▁váikkuhit	-8.60923
▁máŋgga	-8.60951
▁17	-8.6116
▁exempel	-8.61203
be	-8.61313
▁utmaningar	-8.6152
▁2006	-8.61854
▁luonddu	-8.62063
▁21	-8.62177
▁fler	-8.62179
▁čájeha	-8.6242
▁ovttasbargo	-8.62476
▁vuođđo	-8.62565
▁siiddus	-8.62584
▁p	-8.62643
▁25	-8.62649
▁dáfus	-8.62799
▁tromsø	-8.62949
▁riikka	-8.6346
▁seammás	-8.63528
▁oaivvilda	-8.63603
▁oahpu	-8.63723
▁studenter	-8.63784
utveckling	-8.63795
▁skol	-8.6385
▁olli	-8.64051
iin	-8.64255
▁árvvoštallat	-8.64516
▁kapitel	-8.64609
ste	-8.64653
miid	-8.64843
är	-8.64942
▁siida	-8.65315
▁lärare	-8.65381
▁mun	-8.65433
▁ges	-8.65435
pp	-8.65612
▁oahppo	-8.6572
▁čuovvovaš	-8.65746
▁su	-8.65867
▁2001	-8.6605
▁lokala	-8.66158
▁buori	-8.66188
▁st	-8.66273
▁karasjok	-8.66307
▁procent	-8.66428
▁skapa	-8.66728
aid	-8.6684
▁juo	-8.66937
▁verksamhet	-8.66982
för	-8.6713
ö	-8.67285
▁fortfarande	-8.67306
ve	-8.67374
▁roll	-8.67472
▁ulbmil	-8.67837
▁kontroll	-8.67854
▁särskild	-8.67936
▁marit	-8.68144
▁guokte	-8.68253
▁samt	-8.68312
▁jordbruks	-8.68365
▁dem	-8.68381
▁människor	-8.68465
▁inklusive	-8.6854
▁mielas	-8.68589
▁22	-8.68617
▁sámegiel	-8.68737
▁dálá	-8.68868
▁ožžon	-8.69063
▁nivå	-8.69158
are	-8.69185
▁tid	-8.69215
▁institutioner	-8.69281
▁vidare	-8.69336
jedje	-8.69432
▁re	-8.6956
▁nationála	-8.69814
▁bures	-8.70285
00	-8.7035
▁grupp	-8.70804
▁doaimmaid	-8.70957
▁ásahit	-8.70959
▁lika	-8.71061
▁sammanhang	-8.71221
▁dihtii	-8.71261
▁mearrádus	-8.71288
▁traditionell	-8.71374
▁läns	-8.71931
▁máŋga	-8.72178
▁elever	-8.72289
▁ollislaš	-8.72358
▁sáhte	-8.72467
▁d	-8.72705
▁stortinget	-8.72918
▁utanför	-8.73043
vá	-8.73099
▁vuostá	-8.73115
▁system	-8.73198
▁láhka	-8.73321
vi	-8.73496
▁lága	-8.73659
▁mark	-8.73989
▁sådan	-8.74099
▁ráđđehusa	-8.74148
ing	-8.74222
▁oažžu	-8.74246
ka	-8.74278
▁bargu	-8.74353
▁fick	-8.74474
▁något	-8.74584
området	-8.74777
▁sáhttit	-8.74809
▁badjel	-8.74827
lu	-8.75024
▁lávdegoddi	-8.75063
▁suohkan	-8.75181
▁företag	-8.7519
▁og	-8.75263
▁c	-8.75393
ø	-8.75442
▁kautokeino	-8.75477
▁fn	-8.75532
sk	-8.7557
▁område	-8.75808
befolkningar	-8.76016
án	-8.76218
▁kulturen	-8.76286
▁mearridit	-8.76633
▁egen	-8.76764
▁bara	-8.76825
▁doaibmabijuid	-8.77188
▁ekonomiska	-8.77405
▁separat	-8.77493
▁hon	-8.77586
▁olggobealde	-8.77791
▁enskilda	-8.78027
▁40	-8.78104
▁čađahit	-8.78142
▁bättre	-8.78256
▁hárrái	-8.7849
kommittén	-8.78531
▁mötesekreterare	-8.78609
▁gaskal	-8.78646
▁addá	-8.78776
▁punkt	-8.78777
saš	-8.78999
▁álgoálbmot	-8.79017
▁guovllu	-8.79089
▁šaddá	-8.79195
▁myndigheter	-8.79251
▁dock	-8.7932
▁beaivvi	-8.79329
▁stuorát	-8.79669
▁undervisning	-8.79796
▁dii	-8.79842
▁áirras	-8.80026
▁ovttaskas	-8.80035
▁1999	-8.80132
deras	-8.80301
▁23	-8.80511
▁bor	-8.8057
▁39	-8.80738
▁mu	-8.80787
▁plan	-8.80829
šii	-8.80866
▁åren	-8.80915
▁álbmoga	-8.812
▁hálddašan	-8.81299
▁guovlluid	-8.81388
▁regionala	-8.81552
gi	-8.81705
▁haft	-8.81726
ár	-8.81785
▁gielda	-8.82068
san	-8.8225
▁dili	-8.8225
▁vilk	-8.82274
▁grunden	-8.82375
▁olbmot	-8.82417
▁några	-8.82799
dan	-8.82805
▁mánát	-8.82871
▁öka	-8.82923
▁renhållningen	-8.82996
▁prográmma	-8.83175
▁senaste	-8.83196
▁on	-8.83197
▁lean	-8.83253
bidjat	-8.83413
▁tar	-8.83496
▁landet	-8.83514
▁sådana	-8.8363
ke	-8.83638
el	-8.8364
▁media	-8.83641
▁24	-8.83923
▁áigodagas	-8.84063
jo	-8.84164
▁á	-8.84192
▁bo	-8.8424
▁tabealla	-8.8433
▁ordförande	-8.84385
▁dábálaš	-8.8465
▁fokus	-8.84831
▁2017	-8.84861
▁rádjai	-8.84936
▁miljö	-8.84942
▁departemeanta	-8.84967
▁vård	-8.85081
▁siskkobealde	-8.85154
▁statliga	-8.85198
▁geavaheami	-8.85269
dda	-8.8532
▁intressen	-8.85372
▁närvarande	-8.85414
▁ren	-8.855
▁finnmárkkus	-8.85636
▁bearráigeahččan	-8.85697
–	-8.85709
▁njuolggadusat	-8.86121
ll	-8.86213
ering	-8.86526
▁riktlinjer	-8.86577
▁máhtto	-8.86751
▁fortsätta	-8.86792
▁arbets	-8.86909
▁kommunen	-8.86952
▁områdena	-8.86993
▁egil	-8.87047
dit	-8.87113
▁gusket	-8.87175
▁vuoigatvuohta	-8.87323
▁ovddidan	-8.87391
▁mánáidgárde	-8.87464
▁ilo	-8.87711
kommitténs	-8.87739
▁guolástus	-8.87858
▁háliida	-8.88077
▁boahtá	-8.88311
▁perioden	-8.88523
▁uppgifter	-8.88547
av	-8.88566
▁ruđaid	-8.8876
▁ovttasbarggu	-8.88831
▁tjänster	-8.88868
▁gii	-8.88994
tá	-8.89088
▁ärende	-8.89107
▁dákkár	-8.89111
lag	-8.89192
▁ovttasbargu	-8.89198
▁möjlighet	-8.89424
▁unnán	-8.89502
▁tabell	-8.89857
▁eret	-8.89986
▁uppföljning	-8.90026
▁galgga	-8.9025
▁ökad	-8.90291
▁finnmarks	-8.90362
▁oktiibuot	-8.90422
▁totalt	-8.90525
▁regional	-8.906
▁danin	-8.9078
▁dadjá	-8.90952
ro	-8.91
▁bi	-8.91001
mat	-8.91051
▁viidáseappot	-8.91084
plána	-8.91142
▁doppe	-8.9135
▁fått	-8.91404
▁stycket	-8.91454
▁internationella	-8.91481
▁doaimma	-8.91573
▁fråga	-8.91633
▁500	-8.91719
▁kulturella	-8.91818
▁áššiid	-8.91834
▁100	-8.91885
▁vejolašvuođa	-8.9196
▁oassin	-8.91981
▁dárbbašlaš	-8.92046
sat	-8.92057
▁omfattande	-8.92097
prográmma	-8.92103
▁industrier	-8.92337
▁administration	-8.92527
20	-8.92533
politihka	-8.92547
▁ráhkadit	-8.92579
▁sámegielat	-8.92788
▁l	-8.92988
▁jahkái	-8.93053
▁dásis	-8.93196
▁evttohusa	-8.93205
li	-8.93291
▁sp	-8.93387
▁skydd	-8.93455
▁alit	-8.9346
▁ovdamearkka	-8.93464
▁innan	-8.93653
▁servodagas	-8.93713
▁dahkat	-8.93778
▁regionála	-8.93781
ck	-8.94066
▁medan	-8.94187
▁behovet	-8.94434
▁systemet	-8.94459
ade	-8.94552
▁nuvarande	-8.94623
▁olbmuid	-8.94627
má	-8.94638
▁södra	-8.94876
▁ansökan	-8.94954
▁underlätta	-8.95005
▁as	-8.95042
▁hand	-8.95094
▁sámegielas	-8.95586
▁mötet	-8.95623
▁2004	-8.95695
▁3.	-8.95714
▁behandling	-8.95884
ččat	-8.9593
▁...	-8.9596
▁traditionella	-8.9598
▁lohku	-8.95984
▁nödvändigt	-8.95988
▁jođiheaddji	-8.96061
▁gieldda	-8.96316
▁jo	-8.9636
▁doaibmabijut	-8.96372
departemeantta	-8.96462
▁huvud	-8.9651
▁keskitalo	-8.96546
▁geir	-8.96691
▁28	-8.96785
▁guovtti	-8.9711
▁används	-8.97181
▁övergripande	-8.97191
▁allaskuvla	-8.97281
▁gör	-8.97324
endast	-8.97334
▁mienna	-8.97393
▁mearriduvvon	-8.97431
▁hjälp	-8.9745
▁kultuvra	-8.97534
▁mearkkašupmi	-8.97534
▁jagis	-8.97666
▁jagiid	-8.97863
▁personer	-8.97961
▁nuppi	-8.98104
▁säkra	-8.98139
▁oahppit	-8.98425
▁ná	-8.98536
▁rev	-8.98762
▁2.	-8.98812
▁mearridan	-8.9884
▁ämnen	-8.99051
▁rättslig	-8.99071
▁guttorm	-8.99105
▁guovllus	-8.99217
▁året	-8.99689
▁ann	-8.9971
ko	-8.99774
▁26	-8.99816
▁universitehta	-8.99822
▁eavttuid	-8.99943
▁tillsammans	-8.99973
▁prošeavtta	-9.00044
land	-9.00091
▁nästa	-9.00118
▁egna	-9.00119
▁servodaga	-9.00322
▁tillgång	-9.00364
▁gal	-9.00433
▁god	-9.00463
mi	-9.00486
▁aili	-9.00556
do	-9.0057
▁skydda	-9.0065
▁oahppi	-9.00889
▁framtida	-9.00942
▁mathis	-9.01038
▁gullet	-9.01166
▁sociala	-9.01288
▁följa	-9.01405
▁ofta	-9.01562
ain	-9.01637
▁mindre	-9.01738
▁čájehit	-9.01748
▁stort	-9.02
▁syftet	-9.02046
å	-9.02093
▁affärs	-9.02096
▁ruhta	-9.02145
▁hög	-9.02316
▁buoret	-9.02326
▁politik	-9.02419
▁are	-9.02457
▁27	-9.02545
▁renar	-9.02608
juvvon	-9.02739
▁2016	-9.02821
▁ord	-9.02844
▁tana	-9.03009
▁delar	-9.03015
30	-9.03139
▁forsknings	-9.03183
▁1000	-9.03207
▁samhällen	-9.03222
▁juni	-9.03224
▁råds	-9.03248
▁program	-9.03342
▁deltagande	-9.03461
▁vejolašvuohta	-9.03503
▁minst	-9.03545
mo	-9.03794
▁jordbruket	-9.03944
ska	-9.04264
bu	-9.04367
▁miljovnna	-9.04428
▁finland	-9.04428
▁rätten	-9.04477
▁blir	-9.04497
▁internationell	-9.04595
▁betydelse	-9.04735
miin	-9.04808
▁lokal	-9.04834
▁gulahallan	-9.04908
▁främja	-9.05034
▁ruovttoluotta	-9.05037
▁ingen	-9.05038
▁namn	-9.05068
ru	-9.05069
▁då	-9.05095
▁föreslår	-9.0511
▁fylkka	-9.05255
▁areála	-9.05317
▁beassat	-9.05497
▁kultuvrralaš	-9.05667
▁sa	-9.05693
stad	-9.059
▁möten	-9.05925
▁annan	-9.06015
rev	-9.06082
▁sam	-9.06212
▁oaidná	-9.06217
▁sullii	-9.06267
▁livččii	-9.06271
kt	-9.06323
▁sápmelaččaid	-9.06344
▁máhttu	-9.06441
▁vaikko	-9.06455
▁2013	-9.06729
▁kom	-9.06751
lo	-9.06793
▁oss	-9.06963
lá	-9.0703
▁sverige	-9.07044
▁skuvllas	-9.07133
▁válga	-9.07147
vd	-9.07245
▁mis	-9.07255
▁målet	-9.07267
▁arbetar	-9.07423
▁resursa	-9.07456
▁social	-9.07457
tu	-9.07515
▁konst	-9.07563
ht	-9.0758
▁láhči	-9.07611
▁reglerna	-9.07778
▁avsnitt	-9.07871
lága	-9.07879
▁oktavuođa	-9.07901
barggu	-9.08017
▁sk	-9.08021
▁olmmoš	-9.08075
▁oahpaheaddji	-9.08167
▁musea	-9.08222
▁alta	-9.08288
le	-9.08316
▁golmma	-9.08457
utbildning	-9.08501
▁skuvlla	-9.08515
▁gulaskuddan	-9.08576
▁kommentarer	-9.08688
▁olu	-9.08737
▁antogs	-9.0876
▁direkt	-9.08819
ad	-9.08965
ig	-9.09292
▁krav	-9.09466
▁delta	-9.09474
▁unnit	-9.09537
ráđđi	-9.09766
▁ovddasvástádusa	-9.09805
▁dávjá	-9.0989
▁kräver	-9.0989
politihkalaš	-9.09908
▁muotka	-9.10211
▁riddo	-9.10299
▁utsträckning	-9.10533
▁sápmelaččat	-9.1054
ol	-9.10575
▁bedömning	-9.10596
mm	-9.1061
▁dialog	-9.10877
lle	-9.10916
▁biras	-9.10958
relaterade	-9.10975
▁ökat	-9.1103
▁vuhtii	-9.11037
▁helt	-9.11141
ui	-9.11167
ör	-9.11185
▁avtal	-9.11264
ex	-9.11325
ag	-9.11379
▁representanter	-9.11413
▁fuolahus	-9.11687
▁čujuha	-9.11687
iv	-9.11755
▁boazodoallu	-9.11837
▁namma	-9.11994
▁mánáide	-9.1202
▁eanadoallo	-9.12163
šiehtadusa	-9.12223
gá	-9.12316
▁kap	-9.12579
▁finnas	-9.12669
▁produktion	-9.12669
▁anställda	-9.12809
▁rolla	-9.13116
▁ansökningar	-9.13156
▁girko	-9.13258
▁post	-9.13285
▁brist	-9.13288
▁dáidda	-9.13352
▁hálddahus	-9.13479
▁doarvái	-9.13482
▁departemeantta	-9.13575
tetge	-9.13619
▁någon	-9.1381
▁ruvnno	-9.13815
▁användas	-9.13849
▁artikel	-9.13918
hkk	-9.13989
▁johan	-9.14016
▁golbma	-9.14317
▁biebmo	-9.14326
gu	-9.14352
▁förslaget	-9.14454
”	-9.1455
▁instrument	-9.1459
jagi	-9.14605
▁huksen	-9.14693
▁ohppiid	-9.15168
▁kontakt	-9.15235
▁gr	-9.1542
▁bidraget	-9.15501
▁barggus	-9.15516
ation	-9.15599
▁studie	-9.15609
▁fágalaš	-9.1569
▁sáhka	-9.15705
vuoigatvuođaid	-9.15982
▁dag	-9.1601
▁själv	-9.16157
▁renhållnings	-9.16251
▁2014	-9.16271
▁váikkuhangaskao	-9.16305
▁klimat	-9.16332
ssa	-9.16383
▁poasta	-9.1639
▁29	-9.16438
▁boraspire	-9.16691
ála	-9.16755
▁vuoigatvuođat	-9.16757
▁vuo	-9.16957
▁följer	-9.1705
▁bosättning	-9.17088
▁guoskevaš	-9.17123
▁uppnå	-9.17196
▁dilli	-9.17323
▁södersamiska	-9.17396
▁industri	-9.17689
▁myndigheterna	-9.17772
▁finansiering	-9.17805
▁miljon	-9.1784
▁háliidit	-9.17904
▁fyra	-9.17905
▁31	-9.17923
om	-9.1799
gga	-9.18214
eapmái	-9.18235
▁centrala	-9.18255
▁iešguđetlágan	-9.18259
nes	-9.18271
▁nordland	-9.1835
▁samelagen	-9.18362
▁da	-9.18401
▁2015	-9.18449
▁duodje	-9.18511
▁ruđat	-9.18693
▁čoahkkimis	-9.1877
▁doaibmaplána	-9.18864
▁form	-9.18886
▁vuođu	-9.18892
hálddašanguovllu	-9.18943
▁kvalitehta	-9.19251
▁nrk	-9.19258
▁årlig	-9.19309
▁lite	-9.1939
50	-9.19517
▁läromedel	-9.19653
▁baserat	-9.19686
▁hástalusat	-9.19696
▁nationell	-9.19752
▁muhtin	-9.20008
▁geahča	-9.20209
▁raportta	-9.20233
▁2002	-9.20253
▁áššiin	-9.20282
▁sápmi	-9.20355
▁maŋimuš	-9.20363
dde	-9.20394
sta	-9.2049
▁inhemska	-9.20498
▁president	-9.20537
▁organisationer	-9.20584
▁parterna	-9.20599
▁jfr	-9.20616
▁álbmogii	-9.20649
▁jämställdhet	-9.2072
▁möjligheter	-9.20822
▁meannudeapmi	-9.2086
▁party	-9.20906
▁máhtu	-9.20969
▁resurs	-9.21
▁vår	-9.21056
05	-9.21382
▁sør	-9.21442
▁anges	-9.21627
▁dutkama	-9.21693
▁redan	-9.21726
▁gč	-9.21806
▁framtiden	-9.21857
▁mihttomearri	-9.21857
industrin	-9.21876
affärsutveckling	-9.21938
▁sed	-9.22018
12	-9.22045
▁regeringens	-9.22061
▁nubbi	-9.22167
▁nytt	-9.2217
▁galggašii	-9.22209
▁kulturell	-9.2222
▁169	-9.22299
▁lágiin	-9.22326
▁februari	-9.22524
▁å	-9.22621
▁utskottet	-9.22646
▁lassánan	-9.22672
▁lämna	-9.22681
▁dieđut	-9.22707
▁gaski	-9.22708
▁váttis	-9.22764
▁största	-9.22806
il	-9.22824
▁göras	-9.2283
▁svar	-9.22852
▁situationen	-9.23203
▁bohtet	-9.23303
▁ovddiduvvon	-9.23338
un	-9.23363
▁rámma	-9.23377
▁riekte	-9.23435
▁eget	-9.23443
▁oppalaš	-9.23466
▁resurssaid	-9.23549
▁gelbbolašvuohta	-9.23599
▁rá	-9.23854
▁bargui	-9.23937
▁álgoálbmogiid	-9.2394
▁čielga	-9.24173
▁tomm	-9.2425
▁4.	-9.24258
▁árvalus	-9.24307
trine	-9.24389
▁fem	-9.24467
▁digitála	-9.24546
▁grundval	-9.2457
fálaldaga	-9.24597
▁eanandoallo	-9.2465
▁ala	-9.24664
▁inkluderar	-9.2467
▁ärenden	-9.24718
▁nuorat	-9.24808
▁evttoha	-9.24808
▁nils	-9.24843
▁mearrádusaid	-9.24892
▁oahpponeavvuid	-9.24976
▁bušeahtas	-9.24999
▁norra	-9.25045
▁totala	-9.25129
▁folk	-9.25201
▁kulturminnen	-9.25243
▁balto	-9.25246
▁olbmo	-9.25272
ov	-9.25298
▁suoma	-9.25301
▁35	-9.25466
▁álggahit	-9.25532
▁láhkai	-9.25537
met	-9.25684
giela	-9.25685
ráđi	-9.25738
▁aktiviteter	-9.25804
eaddji	-9.25818
▁före	-9.25831
đ	-9.25848
lig	-9.2598
ce	-9.2615
▁10.	-9.26167
vuhtii	-9.26179
▁norga	-9.26213
▁an	-9.26218
02	-9.26343
du	-9.2638
/-	-9.26407
▁mearriduvvui	-9.2642
▁deltog	-9.2642
▁sámelága	-9.26461
▁henrik	-9.26605
▁hänsyn	-9.26715
ld	-9.26746
▁tove	-9.26805
▁14.	-9.26888
▁fanns	-9.26907
▁lulesamiska	-9.2696
▁män	-9.2707
tte	-9.27105
▁silje	-9.27185
▁flesta	-9.27249
▁gu	-9.27255
▁doaimmat	-9.27304
▁university	-9.27371
▁gemensamma	-9.27412
▁rádjái	-9.27563
▁kon	-9.27606
▁avtalet	-9.27667
▁j	-9.27712
▁bá	-9.27732
▁al	-9.27772
▁lo	-9.27778
dá	-9.27835
▁national	-9.27958
liga	-9.27978
▁eamiálbmot	-9.2807
▁organisation	-9.28104
der	-9.28165
▁län	-9.28228
▁9.	-9.28242
▁protokoll	-9.28281
▁bud	-9.28426
hk	-9.28508
vuo	-9.28556
▁mearra	-9.28563
ur	-9.28588
▁árvalusa	-9.28714
▁romssas	-9.2876
▁skolor	-9.28891
▁maj	-9.28921
▁heivehuvvon	-9.29029
▁rr	-9.29038
jođiheaddji	-9.29109
▁stn	-9.29113
▁eana	-9.29179
del	-9.29246
▁amundsen	-9.29301
▁viktigaste	-9.29336
▁ášše	-9.29354
▁sisa	-9.29365
▁kunde	-9.29366
▁ersättning	-9.29628
▁ökning	-9.29746
▁47	-9.29809
▁kust	-9.3004
▁marie	-9.30095
▁strategier	-9.30207
ras	-9.30247
▁special	-9.30268
▁barnet	-9.30268
▁33	-9.30309
▁linje	-9.30352
▁skickas	-9.30431
▁maŋŋil	-9.30475
▁oktii	-9.30624
▁främst	-9.30672
fi	-9.30691
▁kultuvrii	-9.3087
▁allmänhet	-9.30958
▁200	-9.30988
oahpu	-9.3107
▁roy	-9.31108
▁åter	-9.31172
▁bli	-9.31255
▁radio	-9.31312
▁anders	-9.31402
▁ram	-9.31434
ministtar	-9.31569
vuoigatvuođa	-9.31656
▁avgörande	-9.31671
06	-9.31681
▁máksojuvvo	-9.31711
▁nav	-9.31755
▁behöver	-9.31864
▁oaidnit	-9.31967
▁fuolahit	-9.32067
▁eleverna	-9.32105
▁genomföra	-9.32146
▁5.	-9.32162
▁gáibidit	-9.32275
▁eiseválddit	-9.32324
▁mearrádusa	-9.32355
▁ruoŧa	-9.32359
▁cirka	-9.32366
▁áŋgiruššan	-9.32373
▁vá	-9.32385
▁planering	-9.32399
▁sara	-9.32527
▁ráđi	-9.32601
▁jahkásaš	-9.32613
tor	-9.32635
▁2018	-9.32688
▁landstings	-9.32848
▁aktivt	-9.32893
▁buš	-9.32972
guovlluin	-9.33006
ul	-9.33011
▁rum	-9.3302
▁bakgrund	-9.33084
▁gå	-9.33266
vo	-9.33405
▁förhållanden	-9.33582
▁jienasteapmi	-9.33683
▁hástalusaid	-9.33683
▁nordsamiska	-9.33697
njuolggadusat	-9.33719
▁ändringar	-9.33802
▁gielddaid	-9.3387
lagen	-9.33878
po	-9.33881
▁norges	-9.34093
▁rovdjur	-9.34151
▁hem	-9.34172
08	-9.34183
▁går	-9.34245
▁utgör	-9.34291
▁vikt	-9.34304
▁själva	-9.34319
▁eat	-9.34539
▁innehåll	-9.34556
▁01	-9.34715
guovllus	-9.34772
▁34	-9.34865
▁grundläggande	-9.34906
▁áibba	-9.34906
oa	-9.34924
▁buoridit	-9.34935
▁planerings	-9.34979
x	-9.35014
vv	-9.35023
▁tv	-9.35118
▁ber	-9.35155
▁ovdáneami	-9.3519
▁máná	-9.35197
▁föräldrar	-9.35308
▁deanu	-9.35319
▁evttohuvvo	-9.35319
▁lasihit	-9.35359
ji	-9.3552
▁förståelse	-9.35533
▁behandlas	-9.35534
▁medlemmar	-9.35664
▁ske	-9.35677
▁nou	-9.3568
▁raporta	-9.35727
▁sámediggejoavku	-9.35737
▁musik	-9.35748
▁karine	-9.358
▁mielddisbuktá	-9.36012
11	-9.36086
▁duohta	-9.3611
▁spr	-9.36119
▁samisktalande	-9.36233
njuolggadusaid	-9.36254
▁allt	-9.36281
▁villkor	-9.36313
trøndelag	-9.36382
bb	-9.36456
▁04	-9.36475
▁ligger	-9.36568
▁geassemánu	-9.36581
▁32	-9.36599
▁60	-9.3673
▁relevanta	-9.36773
▁masa	-9.3678
▁yrkes	-9.36827
ká	-9.36976
logu	-9.37021
mu	-9.37094
ha	-9.37177
▁äldre	-9.37198
▁ca	-9.37199
▁geavaheapmi	-9.37213
▁inför	-9.37225
▁ráđđi	-9.37227
▁dokument	-9.37257
nas	-9.37264
▁tor	-9.37465
sis	-9.37468
▁säkerställ	-9.37549
▁mearrida	-9.37589
▁patienter	-9.37644
bargu	-9.37651
▁sökande	-9.37652
▁ealáhusaid	-9.37668
nd	-9.3767
▁ortnega	-9.3772
ic	-9.3772
▁earenoamáš	-9.37833
▁boahtteáiggi	-9.37875
▁sidan	-9.37883
▁tog	-9.37913
▁identitehta	-9.38163
▁doarju	-9.38177
emiin	-9.38253
▁bidrar	-9.38259
▁resultat	-9.38414
▁magga	-9.38482
bargiidbellodaga	-9.38541
▁árvvoštallan	-9.38628
▁fokusera	-9.38668
▁norr	-9.3867
▁sådant	-9.38706
▁mig	-9.38807
▁daidda	-9.38818
▁ingår	-9.38881
▁válde	-9.389
15	-9.38979
dili	-9.38991
▁bevara	-9.39087
▁art	-9.39286
▁haga	-9.39336
tal	-9.3935
▁milj	-9.39373
▁ramen	-9.39387
▁lulli	-9.39394
▁eanaš	-9.3944
▁hälsa	-9.39472
▁hálddašeami	-9.39552
skap	-9.39648
sámi	-9.39852
dat	-9.39876
▁kommunal	-9.39878
politihkka	-9.39908
▁gielddain	-9.39972
▁utvecklas	-9.39976
▁buriid	-9.39979
.)	-9.39996
▁etc	-9.4002
▁lohkan	-9.4007
▁konsultašuvdna	-9.40194
▁deattuhit	-9.40196
▁150	-9.40201
▁gullá	-9.40208
▁grundskolan	-9.40356
▁förvaltningen	-9.40363
▁proseanta	-9.40378
▁nära	-9.40516
▁gusto	-9.40526
▁dihto	-9.40577
uvvui	-9.40607
▁deattuha	-9.40619
▁jørn	-9.40628
▁fiskeri	-9.40655
fága	-9.40718
▁čoahkkima	-9.40822
▁doarjjaoažžu	-9.40847
▁förbättra	-9.40847
▁2003	-9.40889
▁no	-9.41189
▁plats	-9.41221
▁300	-9.41256
lla	-9.41275
guovddáš	-9.41416
ál	-9.41435
▁15.	-9.41462
hus	-9.41466
▁ruovttu	-9.41477
▁37	-9.41514
ver	-9.417
▁buorebut	-9.41725
▁rekrytering	-9.41747
mari	-9.41751
han	-9.41796
▁maŋemus	-9.41946
▁ohcan	-9.41955
▁sista	-9.42006
kka	-9.42029
▁larsen	-9.42041
17	-9.42183
▁syfte	-9.42236
▁guvlui	-9.42243
bá	-9.42254
utom	-9.42255
▁röster	-9.42279
ás	-9.42293
▁initiativ	-9.42358
▁betydande	-9.42391
▁la	-9.42615
▁nuoraide	-9.42735
▁identitet	-9.42837
hr	-9.42859
frågor	-9.42869
▁17.	-9.42928
▁eiseválddiid	-9.43015
suorggi	-9.43018
▁parlamentáralaš	-9.43057
▁davviriikkalaš	-9.43068
▁goda	-9.43108
bo	-9.43284
juvvui	-9.43328
▁willy	-9.43505
▁diehtojuohkin	-9.43505
▁searvat	-9.43509
era	-9.4352
▁viidáset	-9.43574
▁dárbbu	-9.436
▁verktyg	-9.43633
▁gaska	-9.4364
doarjaga	-9.43739
▁sámedikkiin	-9.43806
▁oktober	-9.43955
▁liv	-9.44046
▁bušeahta	-9.44076
▁sisdoalu	-9.44195
▁stáhtalaš	-9.44315
▁kommunala	-9.44338
else	-9.44356
▁gáibida	-9.44368
talet	-9.44377
▁studier	-9.44397
▁má	-9.44503
▁lagstiftning	-9.44517
ks	-9.44557
▁gen	-9.44559
▁gávdno	-9.44599
▁tas	-9.4462
▁váldá	-9.44647
▁hans	-9.44772
▁gielddat	-9.44798
▁din	-9.44882
▁arktisk	-9.44913
▁70	-9.44948
▁suohkaniin	-9.44996
▁ekonomiija	-9.45045
▁sak	-9.45195
▁mearrádusat	-9.45241
▁december	-9.45546
▁don	-9.45546
▁presideanta	-9.45546
▁budgeten	-9.45546
▁boazodollui	-9.45547
▁politisk	-9.45628
▁mänskliga	-9.45695
▁priváhta	-9.46005
evttohusa	-9.46031
▁ra	-9.46046
het	-9.46119
▁bestämmelser	-9.46225
▁maŋŋel	-9.46235
▁rievdadit	-9.46282
▁våra	-9.46307
/10	-9.4635
▁boazodoalus	-9.46413
▁dáhttu	-9.46468
▁offentlig	-9.46523
▁ulbmilin	-9.46613
▁ohcat	-9.46699
vik	-9.46786
▁suohkanis	-9.46815
▁november	-9.4693
▁mearkkašumit	-9.46953
▁78	-9.46957
03	-9.46975
hit	-9.46987
▁mánáidsuodjalus	-9.46993
▁status	-9.47012
▁ieža	-9.4706
▁inge	-9.47089
▁natur	-9.47124
▁dásseárvo	-9.47146
▁buktit	-9.47162
ch	-9.47308
já	-9.47358
▁dálkkádat	-9.47381
▁john	-9.47389
▁erohus	-9.47404
▁lassi	-9.47434
▁nystad	-9.47443
samiska	-9.47616
▁čađahuvvon	-9.47631
nu	-9.47828
▁oberoende	-9.47866
▁all	-9.47871
▁oktavuohta	-9.479
gat	-9.47994
op	-9.48009
▁boahtte	-9.48028
institutioner	-9.48176
doarjja	-9.48201
▁lahttu	-9.48307
▁riikkas	-9.48333
▁college	-9.48333
▁innovation	-9.48333
▁oahppoplána	-9.48499
▁sá	-9.48518
▁jiena	-9.48623
▁ohppiide	-9.48635
ng	-9.48647
▁lik	-9.48654
▁gymnasiet	-9.48699
sprogram	-9.48711
ring	-9.48741
hka	-9.48742
▁ola	-9.48905
var	-9.48936
▁förändringar	-9.48955
▁ođasmahttin	-9.49063
▁användare	-9.4925
▁dohkálaš	-9.49523
áiggi	-9.49544
▁ma	-9.4968
▁vuogi	-9.49698
▁namuhuvvon	-9.49702
▁september	-9.49757
bálvalusaid	-9.49804
▁innehåller	-9.49818
▁meahcce	-9.49861
▁gáldu	-9.49937
▁nana	-9.50054
▁utvecklings	-9.50117
▁utmark	-9.5014
▁álggahan	-9.50283
▁geavahan	-9.50309
▁njiedjan	-9.50314
▁senare	-9.50478
▁6.	-9.50489
▁därmed	-9.50507
▁gá	-9.50608
▁geavahuvvot	-9.50762
og	-9.50797
▁viiddis	-9.5081
▁proseassa	-9.50811
▁spridning	-9.50972
pa	-9.51005
▁stöder	-9.512
▁vibeke	-9.51201
/99	-9.51232
▁båda	-9.51265
▁duoji	-9.5128
▁lära	-9.51328
▁muddui	-9.51335
▁orgána	-9.51652
ddo	-9.51664
▁etablera	-9.51708
▁drift	-9.51714
09	-9.51728
departemeanttain	-9.51735
▁oahppat	-9.51744
▁eallin	-9.5177
▁dearvvasvuođa	-9.51835
▁oktavuođain	-9.51882
▁statistik	-9.51902
mus	-9.52172
▁små	-9.52184
▁period	-9.52191
▁hálddaša	-9.52199
▁barnen	-9.5223
▁styrelse	-9.52236
▁logut	-9.52265
ku	-9.52353
▁nanne	-9.52493
▁skola	-9.52508
▁nilsen	-9.52511
▁mest	-9.52599
vuođu	-9.52633
▁00	-9.52645
▁mars	-9.52647
▁jahke	-9.52689
▁guhkes	-9.52707
▁2019	-9.52724
▁kommitté	-9.52725
ningar	-9.52729
▁frågan	-9.52739
▁hálddahuslaš	-9.52753
▁til	-9.52771
områden	-9.52791
▁universitetet	-9.5281
▁oainnu	-9.52842
▁1989	-9.52912
▁kraft	-9.53
▁personal	-9.53002
▁aktivitet	-9.53071
ot	-9.53088
▁boahtteáiggis	-9.53119
deami	-9.53167
▁livsmedels	-9.53169
▁kulturmuito	-9.53213
▁guovvamánu	-9.53228
▁samhälle	-9.53301
▁arbetsgruppen	-9.53349
alaš	-9.5336
▁boazologu	-9.53419
▁film	-9.53425
▁vuoruhit	-9.53428
▁allmänn	-9.53468
▁olis	-9.53472
▁dohkkehuvvon	-9.5361
▁álggahuvvui	-9.53661
▁betalas	-9.53676
▁somby	-9.53689
▁evttohusat	-9.53731
▁márkan	-9.53741
agnhild	-9.53884
▁nätverk	-9.53904
▁rabas	-9.5391
▁ansvaret	-9.53911
▁unnimusat	-9.53957
▁boahtteva	-9.53972
w	-9.54
▁láhkaásahusa	-9.54032
doaibma	-9.54141
▁klass	-9.54195
▁distrikts	-9.54234
llu	-9.54282
▁föreslås	-9.54346
▁dađistaga	-9.54403
▁thomassen	-9.54406
▁allmän	-9.54483
▁land	-9.54491
▁šaddet	-9.54492
▁várrejuvvo	-9.5457
▁mångfald	-9.54573
politik	-9.54583
minister	-9.54599
llo	-9.54676
program	-9.54733
▁he	-9.54754
▁fortsatt	-9.54766
gaskasaš	-9.54852
▁inrätta	-9.54853
▁mátta	-9.55179
▁ohcama	-9.55246
▁almmá	-9.55297
▁dáin	-9.55352
▁anne	-9.55375
▁atnit	-9.5541
▁hos	-9.55546
▁sámegielaid	-9.55557
▁kommunikation	-9.55614
▁grupper	-9.5572
▁medlen	-9.55784
▁kyrkan	-9.55789
kko	-9.55813
▁skyldigheter	-9.55848
▁dagaha	-9.55884
▁arkiv	-9.55896
▁översikt	-9.55912
▁hálddašit	-9.55945
ovd	-9.56038
emiid	-9.56069
▁lunddolaš	-9.56171
▁váilevaš	-9.56171
▁brev	-9.56177
plan	-9.5622
▁nordiska	-9.56232
▁oaččui	-9.56251
usa	-9.56291
▁relevant	-9.56295
▁vice	-9.56325
▁varj	-9.56337
▁w	-9.56355
▁central	-9.56381
ken	-9.56394
▁januari	-9.56426
▁odne	-9.56434
▁li	-9.56506
▁čilgehus	-9.56523
▁guovddážis	-9.56557
▁andelen	-9.56574
▁betonar	-9.56659
▁baseras	-9.5667
▁plenum	-9.56682
▁oasi	-9.56779
ere	-9.56782
▁gemensamt	-9.56939
šuvnna	-9.56946
▁litteratur	-9.56956
▁orru	-9.56965
▁bálvalusaid	-9.56979
▁gávdnojit	-9.56988
▁står	-9.57024
ord	-9.57024
▁liten	-9.57153
▁duo	-9.57185
▁loahppa	-9.57195
▁maidda	-9.57197
▁ro	-9.57322
▁stivra	-9.57338
▁fylkkamánni	-9.57411
▁dárogiela	-9.57427
▁lars	-9.57584
▁eanemus	-9.57622
▁miehtá	-9.57712
▁buorit	-9.57727
▁tal	-9.57763
▁kostnader	-9.57778
04	-9.57794
▁strategiija	-9.578
▁påverka	-9.57847
searvvi	-9.57891
▁genomförandet	-9.57919
▁aktörer	-9.57921
▁dárbbuid	-9.57966
▁golggotmánu	-9.5797
▁distrikt	-9.58111
stående	-9.58214
▁ökade	-9.58226
▁stuorámus	-9.5823
▁myndighet	-9.58274
▁7.	-9.58291
▁šat	-9.58393
itet	-9.58422
▁längre	-9.5849
▁figur	-9.58647
▁kultuvrras	-9.58838
▁ap	-9.58895
▁museum	-9.58922
▁problem	-9.59048
bálvalusa	-9.59069
uv	-9.59083
▁först	-9.5909
kon	-9.59144
rådet	-9.59182
▁nationellt	-9.5919
▁görs	-9.59207
▁prinsihpa	-9.59248
▁kárášjogas	-9.5927
▁bealit	-9.59294
sarbete	-9.59348
▁påpekar	-9.59396
▁hösten	-9.59402
▁vejolašvuođaid	-9.59422
▁eavttut	-9.59521
▁atná	-9.5954
▁dohkkehit	-9.59552
▁2011.	-9.59599
▁använder	-9.59638
år	-9.5966
suorggis	-9.5969
▁buoremus	-9.59714
▁sadjái	-9.59764
▁bidjá	-9.59803
▁labour	-9.59808
▁stuorradikki	-9.59814
▁bálvalus	-9.59912
▁váldi	-9.5995
guovlluid	-9.60057
▁álbmogis	-9.60067
▁handlar	-9.60076
am	-9.60101
▁minska	-9.60128
▁bero	-9.60171
▁kvalitet	-9.60268
▁siffror	-9.60303
▁öppna	-9.60332
▁jna	-9.60538
▁ørnebakk	-9.60599
▁čuovvu	-9.60626
▁05	-9.60703
13	-9.6075
▁riekti	-9.60763
sättning	-9.60847
▁muitalit	-9.60896
alla	-9.60963
▁diskriminering	-9.60985
▁co	-9.60987
geavaheami	-9.61016
▁seminára	-9.61018
▁johnsen	-9.61141
▁parlamentet	-9.61176
organ	-9.61183
▁lá	-9.61198
pi	-9.61227
▁turism	-9.61252
▁bort	-9.61289
▁intresse	-9.61298
su	-9.61362
▁kruvnnu	-9.61392
▁1998	-9.61406
oald	-9.61417
guin	-9.61558
▁čujuhit	-9.61607
▁sex	-9.61618
▁36	-9.61707
aš	-9.61724
▁historia	-9.61737
▁dievasčoahkkimi	-9.61898
▁undantag	-9.6194
▁center	-9.62035
há	-9.62257
▁konsekvenser	-9.6238
▁digitala	-9.62393
▁u	-9.62417
▁gemensam	-9.62421
▁lärarutbildning	-9.62475
▁njuolga	-9.6248
▁45	-9.62575
▁fisk	-9.62584
▁dien	-9.62672
▁planen	-9.62676
▁čuo	-9.6274
▁pro	-9.62804
▁behandlingen	-9.62814
▁barents	-9.62877
rapport	-9.62896
▁långt	-9.62897
šuvdna	-9.62927
nsr	-9.62936
▁tillstånd	-9.62954
hall	-9.62955
samediggi	-9.62985
▁čakčamánu	-9.63025
▁vägledning	-9.63028
▁ko	-9.63053
heami	-9.63151
giella	-9.63232
▁válljen	-9.63248
um	-9.63271
os	-9.63297
▁38	-9.6337
šiehtadus	-9.63478
▁suohkana	-9.63484
▁investeringar	-9.63501
konvenšuvnna	-9.63505
▁06	-9.63533
▁internationellt	-9.6355
▁ändamål	-9.63553
▁guovdageainnu	-9.63556
láhka	-9.63594
▁påverkar	-9.63602
▁upprätthålla	-9.63611
16	-9.63619
▁sker	-9.63652
▁oktan	-9.63698
▁fylkkas	-9.637
uvvon	-9.63733
▁lahtu	-9.63812
▁bygga	-9.63833
▁lađđasa	-9.63846
▁gonagas	-9.63847
▁roger	-9.6385
▁sáhtášii	-9.63875
▁vállje	-9.6393
▁strategi	-9.64042
ojuvvon	-9.64048
▁váikkuhan	-9.64115
▁vuosttažettiin	-9.64122
ling	-9.6413
▁utöver	-9.64131
▁šaddat	-9.64158
fa	-9.64372
sam	-9.644
▁kulturmuittuid	-9.64401
vuođđu	-9.64409
▁galggai	-9.64465
▁förskolor	-9.64497
đi	-9.64528
erade	-9.64532
▁boazo	-9.64574
▁oahppu	-9.64716
▁eamiálbmogiid	-9.64719
projekt	-9.64756
▁barget	-9.64921
▁läs	-9.65103
▁mánáidgárddiin	-9.65151
▁di	-9.65171
▁väg	-9.65188
▁bygger	-9.65205
▁gillii	-9.65208
▁virggi	-9.65232
▁inkomst	-9.65233
▁ovddideapmái	-9.65244
▁mánáidgárddiid	-9.65308
orgána	-9.65513
▁styrelsen	-9.65541
▁16.	-9.65759
råd	-9.65766
▁njukčamánu	-9.65791
▁árktalaš	-9.65795
▁jämför	-9.65863
▁bargan	-9.65923
gg	-9.65943
▁rådgivare	-9.65979
▁teáhter	-9.66037
▁diskutera	-9.66043
▁hitta	-9.66067
▁eanadoalu	-9.66105
▁ásahusat	-9.66128
▁ea	-9.66221
ssystem	-9.66261
▁čuoggá	-9.6635
▁bargá	-9.66361
▁handlingsplan	-9.66428
▁guhkit	-9.66449
▁tiden	-9.66464
▁2020	-9.66494
▁organisašuvnna	-9.6651
▁dieđáhusa	-9.66523
▁omfatta	-9.66604
▁transport	-9.66639
▁beviljas	-9.66668
▁oahppan	-9.66689
▁andel	-9.6684
▁bargiid	-9.66912
▁ändå	-9.6692
▁eriksen	-9.66922
▁ohcanvuđot	-9.66925
▁bestå	-9.66946
▁bygg	-9.66949
▁sihkkarastin	-9.67058
▁bivdo	-9.67065
▁porsanger	-9.67084
▁överens	-9.67174
▁hållbar	-9.67239
▁ásaheami	-9.67249
▁dárbbašit	-9.67263
▁väl	-9.67279
▁ekonomisk	-9.67325
▁oahpponeavvo	-9.67375
40	-9.67399
▁fálaldaga	-9.675
▁mearrasámi	-9.67501
▁besse	-9.67528
sministeriet	-9.67595
iidda	-9.67652
▁politihka	-9.6766
▁lágan	-9.67688
▁árja	-9.6778
▁sidjiide	-9.67783
▁ledare	-9.67844
doaimma	-9.67892
mer	-9.67997
▁galle	-9.67999
▁stortingets	-9.68055
▁våld	-9.68061
▁ovdánahttit	-9.68062
▁geavahuvvon	-9.6808
iga	-9.68101
sti	-9.6818
▁čielgasit	-9.6835
▁dagahit	-9.68351
▁čuovvolit	-9.68362
tan	-9.68383
▁ovda	-9.68409
▁registrerade	-9.68447
and	-9.68551
▁proseantta	-9.68648
▁guovdageainnus	-9.68653
▁gávdnat	-9.68661
▁renskötseln	-9.6868
hta	-9.68728
▁erbjudande	-9.68884
▁lösningar	-9.68934
▁dási	-9.6896
▁maŋimus	-9.69046
husa	-9.69078
▁doaibmabidju	-9.69079
äl	-9.69123
stivrra	-9.69126
▁sámepolitihka	-9.69205
▁sisdoallu	-9.69224
▁alltid	-9.6929
▁bestämmelserna	-9.69304
▁dilálašvuođaid	-9.69313
organisationer	-9.69378
ddi	-9.69383
ala	-9.69403
▁aslaksen	-9.69506
▁11.	-9.6954
▁berit	-9.69642
▁vårt	-9.6967
▁válddi	-9.69688
ät	-9.69704
▁of	-9.69718
▁leda	-9.69763
▁dá	-9.69763
▁susanne	-9.69797
isk	-9.69799
▁samarbetsavtal	-9.69833
▁miessemánu	-9.69885
▁loahpa	-9.699
▁bálká	-9.70003
▁goluid	-9.70009
▁naturliga	-9.70043
▁lágaid	-9.70044
tto	-9.70052
▁gielddas	-9.70062
▁addojuvvo	-9.70068
▁professionella	-9.70115
▁förutsättning	-9.70119
▁ásahuvvon	-9.70129
▁mánná	-9.70224
▁ovdalgo	-9.70264
▁bivdá	-9.70302
▁veahkehit	-9.70393
▁dokumentation	-9.70398
▁djur	-9.70441
val	-9.7047
styrelsen	-9.70507
doaimmaid	-9.70553
▁dieđáhus	-9.70586
▁áššit	-9.70666
▁företrädare	-9.70677
▁således	-9.70677
▁lagar	-9.70685
håller	-9.70701
stivra	-9.70735
▁utarbeta	-9.70775
såtgärder	-9.70781
ningen	-9.70811
▁ođđasis	-9.70815
nivå	-9.70835
▁centrum	-9.70959
▁bođii	-9.70973
▁čielggadit	-9.71013
▁ásahusaid	-9.71088
ry	-9.71111
▁sven	-9.71133
▁bealde	-9.71169
▁ordning	-9.7122
▁universitet	-9.71227
▁dahká	-9.71268
▁gili	-9.7136
▁museer	-9.71399
▁90	-9.71558
▁áirasis	-9.71565
▁marianne	-9.71597
▁tredje	-9.71602
01	-9.71644
▁gjort	-9.71688
▁allaskuvlla	-9.71775
▁institutionerna	-9.7184
▁bajásšaddan	-9.71862
▁oskal	-9.71864
▁rör	-9.71877
▁konvenšuvnna	-9.71904
▁nödvändiga	-9.71933
kom	-9.71952
▁álttá	-9.7199
slagen	-9.7202
produktion	-9.72025
organisašuvnnaid	-9.7205
▁planer	-9.72114
▁övrig	-9.72161
kommunerna	-9.72165
▁branschen	-9.7217
▁1997	-9.72176
▁50%	-9.72285
▁verkar	-9.72303
▁situation	-9.72308
hu	-9.72415
▁wilhelmsen	-9.7246
▁lång	-9.72472
▁randi	-9.72473
▁boahtán	-9.72509
▁fylkkagieldda	-9.72548
▁kunskaps	-9.72558
▁befintliga	-9.72587
dal	-9.72701
rat	-9.72787
▁platsnamn	-9.7307
ima	-9.73073
▁anslag	-9.73076
▁joatkit	-9.73092
▁programmet	-9.7313
▁hukset	-9.73143
▁svårt	-9.73147
▁medlem	-9.7326
▁guorahallan	-9.73292
▁šiehtadusa	-9.73311
14	-9.73319
▁te	-9.73375
▁ealli	-9.73381
álaš	-9.73598
▁ungdoms	-9.73635
dási	-9.73714
▁landshövdingen	-9.73743
▁ramvillkor	-9.73835
▁guovlluide	-9.73891
lli	-9.73933
▁sámediggeválgga	-9.73977
▁ändra	-9.74002
▁nisson	-9.74044
▁ga	-9.74084
idda	-9.74164
▁ruhtadan	-9.74165
▁dahkan	-9.74182
men	-9.74237
ster	-9.74245
▁komma	-9.74262
▁2011:	-9.74309
▁čađa	-9.74438
▁värdeskapande	-9.74443
▁suodjalan	-9.7445
iiguin	-9.74559
▁faktum	-9.74581
▁liknande	-9.74582
jođihangotti	-9.74587
htta	-9.74602
▁geahčadit	-9.74606
▁cealkámuša	-9.74638
▁ovdáneapmi	-9.74642
▁gick	-9.74654
▁samarbetet	-9.74755
▁lägga	-9.7476
guovllu	-9.74825
▁deltar	-9.74839
▁guohtun	-9.74868
▁helhet	-9.74901
▁värde	-9.74975
▁genomföras	-9.75002
▁byggnader	-9.75104
▁dess	-9.75165
▁konkrehta	-9.75196
▁ruvnnu	-9.75227
▁iige	-9.75334
▁ålder	-9.75454
▁atnui	-9.75504
▁eliassen	-9.75504
▁tillbaka	-9.75505
▁geahččat	-9.75508
▁oppalaččat	-9.75516
▁2.1	-9.75536
▁nj	-9.75559
gen	-9.75574
▁lági	-9.75577
▁tilldelning	-9.75736
oahppu	-9.75751
vuoigatvuohta	-9.7578
▁skyldighet	-9.75786
▁språken	-9.75794
▁fefo	-9.75848
dásis	-9.75998
▁samla	-9.76051
▁uppdrag	-9.76121
▁bistevaš	-9.76125
▁rievtti	-9.76125
▁dagen	-9.76142
▁eavttuhus	-9.76187
▁valet	-9.76204
den	-9.76259
goluid	-9.76271
▁interreg	-9.76346
▁datum	-9.76402
▁same	-9.76434
▁artihkal	-9.76436
▁nystø	-9.76436
▁replihkka	-9.76436
▁johtui	-9.76436
▁lullisámi	-9.76448
▁duođaštit	-9.76453
pe	-9.76469
las	-9.76477
▁oa	-9.76566
▁kulturarv	-9.76578
gar	-9.76579
▁risk	-9.76611
▁guhká	-9.76649
set	-9.76695
▁utbildningen	-9.76721
självbestämmande	-9.76749
▁earenoamážit	-9.76749
▁buohkat	-9.76749
▁jahkásaččat	-9.76749
▁alternativ	-9.76794
arbete	-9.76814
▁75	-9.76908
▁material	-9.76949
▁rámmaid	-9.76978
▁12.	-9.76988
▁början	-9.77016
▁ämnet	-9.77036
▁birasgáhtten	-9.77065
▁säga	-9.77096
▁gustojit	-9.77126
▁permanent	-9.77151
▁eventuell	-9.77276
▁senast	-9.77304
z	-9.77311
▁áigái	-9.77315
▁váldán	-9.77358
▁skum	-9.7739
▁betona	-9.77413
ligt	-9.77444
▁ásahuvvo	-9.77519
▁há	-9.77599
▁joatkkaskuvlla	-9.77604
▁ássan	-9.7767
▁april	-9.77692
▁forum	-9.77741
skolan	-9.77834
ortnega	-9.77874
▁siskkáldas	-9.77919
▁beaivváš	-9.78009
▁guorahallat	-9.78009
▁kön	-9.78019
▁utmaning	-9.78044
▁prioritera	-9.78066
▁blev	-9.78084
▁geas	-9.78103
▁andersen	-9.78104
▁orrot	-9.78124
▁gruppen	-9.78153
▁lu	-9.7825
▁barns	-9.78255
▁länder	-9.78283
▁tillgängliga	-9.78291
áššiid	-9.78299
▁kárášjohka	-9.78326
▁olsen	-9.78332
kan	-9.78345
lohku	-9.78363
▁positivt	-9.78398
▁registrering	-9.78408
▁institutionen	-9.78436
▁vuos	-9.78487
▁innehållet	-9.78553
▁tagit	-9.78574
skuvla	-9.78604
▁ráhkadan	-9.78604
▁skatte	-9.7862
dje	-9.78657
▁ealáhusat	-9.78764
▁and	-9.78798
▁livčče	-9.7897
▁fásta	-9.78973
▁veaháš	-9.79041
fálaldat	-9.79048
kl	-9.79118
▁energiija	-9.79119
▁80	-9.79122
▁suodjalus	-9.79174
▁gáibiduvvo	-9.79209
▁samhälls	-9.79213
▁šattai	-9.79257
▁prioriteringar	-9.79258
▁valáštallan	-9.79285
▁manne	-9.79308
▁ovddideami	-9.79329
▁bevarande	-9.79337
▁genomfördes	-9.79343
▁statsbudgeten	-9.79352
deapmi	-9.79441
▁nå	-9.79447
isera	-9.79493
samisk	-9.7951
▁bedöma	-9.7955
gång	-9.79654
▁logu	-9.79751
▁me	-9.79835
▁ortnet	-9.79838
joavku	-9.79923
▁bohccuid	-9.79929
▁kirsti	-9.79929
ligen	-9.80019
▁si	-9.80045
vvo	-9.80113
amit	-9.80119
▁heivehit	-9.80259
▁čuovvut	-9.80282
▁ovddi	-9.80302
joavkku	-9.80337
iska	-9.80392
▁geavahuvvo	-9.80461
▁minister	-9.80474
▁doarjagat	-9.80496
amp	-9.80551
▁13.	-9.80575
▁jåma	-9.80577
▁utfärda	-9.80577
▁paulsen	-9.80578
▁hansen	-9.80667
lis	-9.80683
ahtti	-9.80696
norgga	-9.8071
▁beroende	-9.80801
ed	-9.80815
▁perspektiv	-9.80839
▁juovlamánu	-9.80869
▁09.	-9.80898
▁laila	-9.80903
▁bargojoavku	-9.80931
uvvo	-9.80954
▁person	-9.80999
▁länge	-9.80999
▁áigumuš	-9.81006
ff	-9.81009
▁vars	-9.81045
vaš	-9.81074
▁čađahan	-9.81113
oalle	-9.81141
▁8.	-9.81204
ama	-9.81264
kk	-9.81301
▁šiehtadus	-9.81314
vis	-9.81322
▁princip	-9.81344
▁slutet	-9.81363
▁váikkuhusat	-9.81466
▁fálaldat	-9.8153
▁válljet	-9.81534
▁lágidit	-9.81573
▁álggah	-9.81601
▁besök	-9.81683
▁ställning	-9.81756
▁beliid	-9.81758
dii	-9.81764
politiken	-9.81773
▁02	-9.81831
ortnet	-9.81899
resurser	-9.819
företag	-9.81976
▁53	-9.81993
▁inrättandet	-9.81995
kr	-9.82001
▁sámedigge	-9.82016
prošeavtta	-9.82025
▁erfarenhet	-9.82196
▁aktiv	-9.82214
▁utvärdering	-9.82234
;.	-9.82265
▁48	-9.82284
sområden	-9.8238
▁čállin	-9.82401
▁ee	-9.82464
▁johansen	-9.82485
▁hänvisar	-9.82494
▁vuođđu	-9.82545
▁ollásit	-9.82548
▁boahtit	-9.82548
▁studera	-9.82571
▁doarjagiid	-9.82616
▁befolknings	-9.82621
spolitiken	-9.82682
▁fördelning	-9.82695
▁energi	-9.827
čoahkkin	-9.827
sektorn	-9.82752
rätt	-9.82767
▁minskning	-9.8277
giid	-9.82776
▁suorggis	-9.82811
▁skriv	-9.82844
doalu	-9.82855
▁privata	-9.8294
▁golut	-9.82961
▁beaivválaš	-9.82975
▁váikkuha	-9.83068
kas	-9.83141
▁čađahuvvo	-9.8315
▁kárášjoga	-9.83221
▁doarjjaortnega	-9.83229
▁åtgärd	-9.83237
▁nama	-9.83251
kki	-9.83252
▁cealká	-9.83267
▁styr	-9.83294
ev	-9.83355
▁07	-9.83393
▁samordning	-9.83398
▁400	-9.83469
▁loahpahuvvui	-9.83547
▁dáža	-9.83552
▁otná	-9.83553
▁omröstningen	-9.83554
▁hástalussan	-9.83562
he	-9.83568
▁festivála	-9.83604
áš	-9.83609
gående	-9.83661
▁försäljning	-9.83732
▁isak	-9.83733
▁váikkuhusaid	-9.83806
▁gár	-9.83863
▁46	-9.83889
▁enhälligt	-9.8402
øy	-9.84021
▁2010:	-9.84085
▁servodahkii	-9.84131
0.000	-9.84136
▁11-	-9.84156
▁diliid	-9.84157
▁diehtit	-9.8422
▁stoltenberg	-9.8422
▁dieđáhusas	-9.84221
▁daghem	-9.84225
ledare	-9.84244
▁mánu	-9.8425
▁fungera	-9.84269
▁strategiijat	-9.84327
▁doaimmaide	-9.84391
▁talar	-9.84423
▁jobb	-9.84431
▁bargit	-9.84486
▁bidragsmottagar	-9.84564
/05	-9.84652
▁kontor	-9.84743
▁nödvändig	-9.84815
▁eaktun	-9.84856
▁ovttasráđiid	-9.84897
▁knut	-9.84898
▁ođđajagimánu	-9.84898
▁överväga	-9.84903
▁ri	-9.84929
bálvalus	-9.84949
▁kurser	-9.84951
▁verksamheten	-9.84988
httá	-9.84996
▁gett	-9.85005
▁mánáin	-9.85013
verk	-9.85014
▁šaddan	-9.85085
gis	-9.85117
▁kammaren	-9.85165
▁modersmål	-9.85237
▁smávva	-9.85237
llinor	-9.85237
▁vidareutveckla	-9.85238
len	-9.85358
befolkningen	-9.85391
▁säkerhet	-9.85436
▁hál	-9.85504
▁1990	-9.85512
▁goalmmát	-9.85578
▁43	-9.85583
▁bästa	-9.85611
▁váldojuvvo	-9.8579
▁stivren	-9.85852
▁olbmuide	-9.85867
▁čilget	-9.85917
▁överenskommelse	-9.8592
▁fylkkasuohkan	-9.8597
▁hänvisa	-9.85976
nne	-9.85977
▁bealis	-9.86004
97	-9.86025
▁beroštupmi	-9.86025
dieđ	-9.86103
▁berrejit	-9.86107
▁dig	-9.86119
árvvoštallojuvvo	-9.86137
oasi	-9.86247
befolkningarna	-9.86279
▁ovdánan	-9.86285
konvention	-9.86286
planen	-9.8629
uhtti	-9.86403
▁konventionen	-9.86476
▁arena	-9.86572
▁lokalt	-9.86574
▁dábálaččat	-9.86609
▁dáppe	-9.86609
▁förutsättningar	-9.86659
▁ovddida	-9.86671
▁vihtta	-9.86737
konsultašuvnnaid	-9.86746
ovddideami	-9.86755
▁doaibmat	-9.86837
kta	-9.86898
▁joavku	-9.86905
▁tillräckligt	-9.86942
▁relativ	-9.86955
▁väljer	-9.86955
▁föreskrifter	-9.86993
förvaltningen	-9.87042
ren	-9.8705
tion	-9.87056
▁dárbbaša	-9.87094
▁dárogillii	-9.8714
bas	-9.87143
-19	-9.8721
▁vuosttas	-9.87298
▁cuoŋománu	-9.87302
▁garrasit	-9.87304
▁rektor	-9.87304
▁geavaheddjiid	-9.87351
projektet	-9.87391
▁dokumentera	-9.87411
▁1,	-9.87562
▁inleddes	-9.87611
▁mikkel	-9.87643
▁bargojoavkku	-9.87651
▁váikkuhus	-9.87684
▁oahpponeavvut	-9.87688
▁várre	-9.87765
▁åt	-9.87794
kommande	-9.87815
guovddáža	-9.87871
▁ämne	-9.87893
▁mariann	-9.87962
45	-9.87962
▁našuvnnalaš	-9.88
▁guovlo	-9.88001
▁ásahuvvui	-9.88008
▁finnmarkslagen	-9.88083
▁antas	-9.88107
47	-9.88144
vugiid	-9.88233
▁meannudeami	-9.88234
▁nannen	-9.88254
▁le	-9.88304
▁biddjo	-9.88307
▁doibmii	-9.88313
▁doaibmabijuide	-9.88352
▁áigi	-9.88447
▁vásihit	-9.88491
lm	-9.88519
▁eu	-9.88564
▁oahpaheaddjit	-9.88576
▁rapporter	-9.88588
▁áigodaga	-9.88637
▁titta	-9.88667
▁ingå	-9.88678
ovttajienalaččat	-9.88703
▁fallet	-9.88718
▁oahpaheddjiid	-9.88829
▁ka	-9.889
▁verklig	-9.88951
ram	-9.88958
▁bivdit	-9.88965
▁politiskt	-9.88966
▁tio	-9.88999
▁bisuhit	-9.89057
▁fortsätter	-9.89057
▁garra	-9.89058
▁gränser	-9.89071
▁villkoren	-9.89099
ske	-9.89222
▁dáinna	-9.89255
▁års	-9.89263
vu	-9.89306
▁orohaga	-9.89314
res	-9.89397
▁riddu	-9.89415
▁fá	-9.89415
▁naturresurser	-9.8942
▁bil	-9.89447
▁heller	-9.89462
▁ökar	-9.89536
▁skicka	-9.89538
▁välja	-9.89591
▁uit	-9.89613
▁so	-9.89639
18	-9.89688
▁guolle	-9.89699
▁váste	-9.898
▁buhtadus	-9.89817
ud	-9.89818
▁www	-9.89831
▁ve	-9.89882
▁naturligt	-9.89926
post	-9.89936
slag	-9.89969
hko	-9.89986
▁riika	-9.90016
▁30.	-9.90056
▁syn	-9.90076
▁delen	-9.90146
▁sektorn	-9.90158
čoahkkima	-9.90162
▁hálddašeapmi	-9.90281
gas	-9.90328
▁suohkanat	-9.9039
šedje	-9.90404
▁ruvdno	-9.90477
▁inflytande	-9.90483
▁ráđđeaddi	-9.90484
▁stipendier	-9.90535
▁03	-9.90571
▁slut	-9.90581
▁fartyg	-9.90592
ion	-9.9061
▁bea	-9.90641
hki	-9.90699
▁davvin	-9.90841
▁eaktuda	-9.90903
▁ruošša	-9.90938
▁jienastuslohkui	-9.90955
▁logi	-9.9101
▁stivrra	-9.91058
▁industrin	-9.91069
▁anse	-9.91083
mearkka	-9.91123
ča	-9.91148
▁teater	-9.91154
đa	-9.91168
▁lasáhus	-9.9119
▁renskötselavtal	-9.91203
▁hittills	-9.91203
ades	-9.91229
▁avslutades	-9.91259
▁gav	-9.91311
▁kv	-9.91323
▁eanemusat	-9.91328
▁ealáhusa	-9.91334
▁skábmamánu	-9.91348
guo	-9.91491
sarbetet	-9.91511
▁guovlu	-9.91516
fall	-9.91541
▁såsom	-9.91563
pl	-9.91586
▁čađahuvvot	-9.91591
▁började	-9.91603
▁hálddašeamis	-9.91648
direktoráhta	-9.91655
barggus	-9.91658
▁mineral	-9.91689
em	-9.91736
▁professionell	-9.91772
▁čá	-9.91774
▁guo	-9.91875
39;	-9.91929
▁badjelasas	-9.91929
▁mearridii	-9.91929
▁iv	-9.91968
▁skyddade	-9.91975
▁möjliga	-9.91979
▁juolluduvvo	-9.91993
▁statistihka	-9.9203
▁juli	-9.92074
fo	-9.92101
▁buvttadan	-9.92125
▁läroplanen	-9.92147
lágan	-9.92178
kku	-9.92226
▁vanliga	-9.92275
baserade	-9.92284
▁ovddeš	-9.92295
▁lule	-9.92296
▁hölls	-9.923
▁subventioner	-9.92303
▁gáibádusaid	-9.9232
guovlu	-9.92346
▁minerála	-9.92365
▁näringslivet	-9.92448
▁máilmmi	-9.92459
▁snart	-9.92482
registrerejuvvon	-9.92515
▁doaimmas	-9.92568
▁timmar	-9.92597
▁skapar	-9.92652
rievttálaš	-9.92657
▁täcka	-9.92661
▁bissovaš	-9.92662
▁motsvarande	-9.92663
van	-9.92668
▁mathisen	-9.92676
▁goas	-9.9268
▁ovddideapmi	-9.92748
▁rievdaduvvo	-9.92749
▁minoritet	-9.92755
▁kort	-9.92764
avdegirjelasáhus	-9.92768
åtgärder	-9.9277
▁viss	-9.9287
▁duogáš	-9.92879
▁hástalus	-9.9288
fiske	-9.929
▁joik	-9.92937
▁julev	-9.9302
fjell	-9.93027
▁kåfjord	-9.93028
▁veckor	-9.93028
▁čoahkis	-9.93028
▁váhnemat	-9.93042
▁meannuduvvo	-9.93049
▁riktlinjerna	-9.93069
▁oavsett	-9.93191
▁borde	-9.93198
▁omd	-9.93235
språk	-9.93256
▁far	-9.93264
▁gunn	-9.9329
▁bu	-9.93312
▁doa	-9.93318
▁skyddas	-9.9333
▁ob	-9.93352
▁jens	-9.93381
kul	-9.93466
▁dutkamii	-9.9354
▁rievdadusaid	-9.93581
lan	-9.93603
dis	-9.93662
sak	-9.93691
▁beslutet	-9.93694
undervisning	-9.93715
▁vearro	-9.93721
▁arenor	-9.93771
departemeanttas	-9.93776
dd	-9.93781
▁valkrets	-9.93801
▁biddjojuvvo	-9.93931
gård	-9.93954
07	-9.93963
▁56	-9.93995
▁3.1	-9.94011
▁rehketdoalu	-9.94017
grupp	-9.94019
▁vuođđuduvvon	-9.9404
▁student	-9.94133
▁lax	-9.94134
▁eanas	-9.94137
▁mávssolaš	-9.9414
▁icke	-9.94154
▁juohki	-9.94237
▁52	-9.94248
gande	-9.94256
sto	-9.94271
fágalaš	-9.94273
▁bl	-9.9432
▁geavat	-9.94327
▁landstinget	-9.94342
▁el	-9.94386
▁förändring	-9.9446
▁ryssland	-9.94512
://	-9.94515
temot	-9.94516
▁2016:	-9.94529
akt	-9.94539
▁mandat	-9.94545
områdena	-9.94553
juvvo	-9.94563
▁biddjojuvvon	-9.94622
förhållanden	-9.94652
▁fördelningen	-9.94657
▁mánáidgárddiide	-9.94735
▁länet	-9.94863
/18	-9.94899
▁oasse	-9.94977
▁800	-9.95031
▁processen	-9.95036
▁konferánssa	-9.95044
▁fállat	-9.95096
▁našunála	-9.95143
mearrádusa	-9.9515
▁18.	-9.95151
▁utse	-9.95174
stis	-9.95183
sihkkarastojuvvo	-9.95184
keahtes	-9.95259
▁addet	-9.95268
sprojekt	-9.95269
▁politihkka	-9.95351
▁funktion	-9.95364
▁godkännande	-9.95409
ki	-9.9548
▁fáddán	-9.95514
▁tillväxt	-9.95562
▁mea	-9.95583
▁starka	-9.95597
dokumeantta	-9.95598
und	-9.95613
▁diekkár	-9.9564
ap	-9.95646
▁telefon	-9.95686
▁áiggis	-9.95807
žž	-9.95834
▁ty	-9.95854
▁starkt	-9.95903
▁praxis	-9.95944
▁erbjudanden	-9.95983
run	-9.95991
▁huvudsaklig	-9.96019
▁upplever	-9.96019
led	-9.9603
lit	-9.96035
oassi	-9.96053
▁vejolašvuođat	-9.96197
jeaddji	-9.96222
▁gávnna	-9.96222
▁kapihttalis	-9.96234
▁konferensen	-9.96332
▁2009.	-9.96344
▁ansvarig	-9.96392
▁augusti	-9.96399
▁rehketdoallo	-9.96399
iva	-9.96413
▁tr	-9.96437
hálddašeami	-9.96477
▁surggiin	-9.96533
▁mandáhta	-9.96551
▁specifika	-9.96625
▁álgo	-9.9669
all	-9.96704
▁gielas	-9.96715
▁servodateallima	-9.96781
▁vuxna	-9.96781
▁viđa	-9.96906
▁sea	-9.96911
for	-9.96918
ggi	-9.97007
▁láhkaásahus	-9.97036
▁fuolahan	-9.97063
departementii	-9.97164
▁skörd	-9.97165
▁extra	-9.97166
▁resten	-9.9717
▁iii	-9.97278
hkka	-9.97279
▁sáhtát	-9.97368
▁addán	-9.97428
nordkalottfolket	-9.97549
▁lägre	-9.97549
▁sámediggeráđđái	-9.97552
▁rávve	-9.97552
▁submi	-9.97594
▁sakka	-9.97599
▁akt	-9.97649
▁55	-9.97799
▁tror	-9.97841
ran	-9.97918
politiska	-9.97928
▁biologisk	-9.97935
▁beroštumiid	-9.97938
bar	-9.98007
▁ikt	-9.98025
▁användar	-9.98067
▁doarjut	-9.98082
fu	-9.98095
▁lassána	-9.98114
mål	-9.98133
▁skuvlii	-9.98193
lanja	-9.98242
▁fri	-9.98264
forskning	-9.98275
▁beräkna	-9.98322
▁duhtavaš	-9.98322
▁föremål	-9.98336
utbildningslagen	-9.98343
▁ligga	-9.98344
▁njeallje	-9.98356
▁mánáidgárddi	-9.98363
geatnegasvuođaid	-9.98376
▁prioriteras	-9.98412
prošeakta	-9.98434
duvvon	-9.98435
▁nim	-9.98506
▁ol	-9.9852
▁po	-9.98582
▁dahkko	-9.98607
▁galga	-9.98643
deaddji	-9.98676
▁teknisk	-9.98697
▁suomas	-9.98705
▁dassážii	-9.98711
▁vuolde	-9.98712
▁doarjjareivve	-9.98723
▁lohkat	-9.98748
▁gozihit	-9.98751
dearvvašvuođa	-9.98759
▁oahpahussii	-9.98765
▁19.	-9.9879
25	-9.98816
fri	-9.98818
▁mánáidgárddis	-9.98822
ojuvvo	-9.98846
▁čovdosiid	-9.9891
splan	-9.98923
▁näringsliv	-9.98939
bma	-9.99009
▁organisationen	-9.99023
tur	-9.99026
ngen	-9.99039
▁gova	-9.99048
▁ville	-9.99055
eamos	-9.99098
▁kapihtal	-9.99102
▁avseende	-9.99102
▁jonassen	-9.99103
▁granska	-9.99112
maiguin	-9.99113
▁saji	-9.99123
▁bajimus	-9.9913
dieđáhusa	-9.99175
kommuner	-9.99189
▁medie	-9.99227
▁lassáneapmi	-9.9925
▁iešguđetge	-9.99362
dilli	-9.99368
▁20.	-9.99375
čča	-9.99456
heapmi	-9.99458
▁ole	-9.99481
▁girjjálašvuođa	-9.99494
▁wollman	-9.99494
avtal	-9.99505
▁berörda	-9.99531
systemet	-9.99588
▁etablering	-9.99624
▁lär	-9.99635
▁berg	-9.99662
▁evttohan	-9.99725
▁anit	-9.99726
▁ásah	-9.99732
änd	-9.99798
▁process	-9.99798
sp	-9.99803
eimmet	-9.99844
kke	-9.99878
▁bargguid	-9.9989
▁ceavzilis	-9.99891
▁hea	-9.99953
red	-9.99999
fievrrid	-10.0002
▁starta	-10.0005
▁erfarenheter	-10.0005
grupper	-10.0009
▁álggahuvvon	-10.001
rle	-10.0012
▁upprätta	-10.0016
▁meningen	-10.0023
▁läroplaner	-10.0026
▁syfta	-10.0028
▁varandra	-10.0031
▁låg	-10.0031
▁inrättas	-10.0052
▁muitala	-10.0056
ruđaid	-10.0056
▁kåven	-10.0068
▁http	-10.0068
▁háhkat	-10.0068
▁ansträngningar	-10.0068
▁tillägg	-10.0073
▁unga	-10.0073
▁luo	-10.0074
▁41	-10.0074
▁buhtadusa	-10.0075
stöd	-10.0075
jienain	-10.0078
sbidrag	-10.008
strategiija	-10.0086
▁51	-10.0086
ly	-10.0088
▁lahtut	-10.0093
ára	-10.0094
▁historjjálaš	-10.0099
olbmui	-10.0099
dettiin	-10.0101
lažžan	-10.0101
befolkningens	-10.0101
▁historjjá	-10.0104
▁árvo	-10.0107
▁joatkkaskuvla	-10.0108
kurs	-10.0108
▁sus	-10.0112
▁igen	-10.0117
▁ruoŧas	-10.0119
möte	-10.0124
▁lágiduvvo	-10.0127
bivdu	-10.0133
▁språkcentra	-10.0139
lev	-10.014
▁hus	-10.0141
▁vuođđoskuvlla	-10.0143
▁bajimu	-10.0145
▁čavčča	-10.0148
▁oahpahusas	-10.0152
▁loga	-10.0155
▁översättning	-10.0156
▁oro	-10.0158
▁tillgänglig	-10.0162
mp	-10.0164
▁folket	-10.0166
/00	-10.0167
fjord	-10.0169
▁tydligt	-10.0173
▁galge	-10.0173
hur	-10.0178
▁ođas	-10.018
▁neahtta	-10.018
skuvlla	-10.0181
sindustrin	-10.0181
▁gaup	-10.0188
▁bygglagen	-10.0189
▁platser	-10.0191
dag	-10.0195
daga	-10.0196
▁álo	-10.0206
▁kurs	-10.0222
▁åtgärderna	-10.0223
▁fáddá	-10.0227
▁rastá	-10.0228
▁kartläggning	-10.0229
▁annars	-10.0229
▁dárogiella	-10.023
ende	-10.023
▁áššejođiheaddji	-10.023
▁veahki	-10.0233
▁ledamöter	-10.0234
▁läggas	-10.0245
▁čo	-10.0248
ft	-10.0248
▁gjorts	-10.0252
▁ávkin	-10.0254
od	-10.0264
▁diskuteras	-10.0265
▁vatten	-10.0265
▁nesseby	-10.0269
▁förklara	-10.0269
▁kirsten	-10.0269
▁guđe	-10.027
▁internet	-10.0276
▁suohkaniid	-10.0278
▁bred	-10.0278
▁behandlar	-10.0283
▁ásset	-10.0285
▁talesman	-10.0288
system	-10.0292
▁registrera	-10.0297
▁uttryck	-10.0299
▁boares	-10.0305
▁ses	-10.0306
áššiin	-10.0307
▁uppfattning	-10.0309
▁njuolgga	-10.0313
▁minskat	-10.0314
▁1996	-10.0315
▁hantera	-10.0319
láv	-10.0325
bargui	-10.0325
2005	-10.0332
▁09	-10.0338
▁eatnamiid	-10.0339
vvá	-10.0344
åt	-10.0349
▁girku	-10.035
▁geardde	-10.035
▁ožžo	-10.0353
center	-10.0353
▁geavahuvvojit	-10.0356
▁rievdadusat	-10.0359
▁ur	-10.0367
direktoratet	-10.0371
doaimmat	-10.0377
▁valt	-10.0381
vuogádaga	-10.039
asta	-10.0391
▁respektive	-10.0391
upp	-10.0395
▁dc	-10.0402
▁hemma	-10.0403
isering	-10.0404
giellan	-10.0405
▁grad	-10.0417
▁distriktet	-10.0427
▁oslos	-10.0428
▁gil	-10.0429
▁1994	-10.0431
▁nammii	-10.0432
▁tysfjord	-10.0432
▁notera	-10.0433
▁rievdadus	-10.0444
▁erohusat	-10.0448
▁överklagande	-10.0449
▁överväganden	-10.0459
▁vet	-10.0462
▁gánnáhahtti	-10.0465
▁via	-10.0472
▁42	-10.0472
▁dáhpáhuvvá	-10.0474
▁sihkkarastá	-10.0474
▁avvikelse	-10.0474
juvvojit	-10.0475
uvvojit	-10.0478
19	-10.0485
▁guovddáža	-10.049
▁hálddahusa	-10.049
▁naturen	-10.0496
▁110	-10.0497
▁antar	-10.0498
▁poastta	-10.0498
▁medier	-10.0503
▁bohte	-10.0506
▁veahá	-10.0506
▁samråds	-10.0509
▁oidno	-10.0512
▁bearaš	-10.0515
át	-10.0522
99	-10.0525
▁höll	-10.0527
▁öst	-10.0531
▁jienastuslogu	-10.0532
▁mainna	-10.0534
▁organisašuvdna	-10.0536
▁arbetsgrupp	-10.0537
▁600	-10.0541
▁vem	-10.0541
sametinget	-10.0544
forum	-10.0546
▁čujuhuvvo	-10.0546
▁betes	-10.0556
▁ovddalgihtii	-10.0557
▁revisor	-10.0557
▁ohcanáigemearri	-10.0557
▁rámmaeavttuid	-10.0558
▁doaimmahit	-10.0559
▁leder	-10.0559
▁uttalande	-10.0566
mark	-10.0568
2.1	-10.0572
▁44	-10.0578
▁landsting	-10.058
▁ju	-10.058
áigi	-10.0581
▁seminariet	-10.0581
▁mihttomeriid	-10.0584
stat	-10.0589
▁unnimus	-10.059
▁fungerar	-10.0593
▁beroškeahttá	-10.0599
▁ursprungsfolk	-10.06
▁siidaoasi	-10.0601
▁bb	-10.0601
ggu	-10.0602
▁vuordá	-10.0608
▁regionen	-10.0609
▁kontakta	-10.0613
▁gånger	-10.0617
▁sf	-10.0618
▁ändras	-10.0618
ija	-10.0619
eara	-10.0626
▁beali	-10.0635
▁plenarsession	-10.0638
▁högsta	-10.0639
▁anledning	-10.0639
▁positiv	-10.064
▁krävs	-10.0641
▁lösa	-10.0647
iija	-10.0647
▁högskolan	-10.0647
▁organiseren	-10.0654
▁gažaldat	-10.0655
▁lista	-10.0666
gotti	-10.0668
▁diehto	-10.067
▁bealli	-10.0672
▁årsrapport	-10.0677
▁världen	-10.0682
▁deaŧalaččat	-10.0683
▁utifrån	-10.0683
▁emot	-10.0683
▁lagas	-10.0685
▁ronn	-10.0693
▁diet	-10.0704
▁vuollái	-10.0708
ovddideapmi	-10.071
ho	-10.0711
▁12-	-10.0719
ets	-10.0723
▁tro	-10.0724
▁julevsámi	-10.0726
▁stuorradiggi	-10.0728
▁toril	-10.0728
mearri	-10.0739
▁div	-10.0742
▁guđet	-10.0746
▁lágain	-10.0747
▁allmänheten	-10.0751
programmet	-10.0757
▁ekonomiskt	-10.0758
▁bibliotek	-10.0759
▁buo	-10.0762
▁doaibman	-10.0763
▁livsmedel	-10.0767
▁engagemang	-10.0768
▁förutsätter	-10.0768
▁čálalaš	-10.0768
▁olbmuin	-10.0769
▁text	-10.0773
▁65	-10.0773
▁čoahkkinortnegi	-10.0782
▁hábmet	-10.0784
báikki	-10.0785
pma	-10.0785
▁lágas	-10.0786
ställ	-10.0788
▁stipeanda	-10.0799
▁traditioner	-10.0807
▁erbjuda	-10.0808
▁service	-10.0811
▁bidjan	-10.0812
▁ansöka	-10.0815
▁ulbmiliid	-10.0819
▁inkludera	-10.0819
▁dieđihit	-10.082
gruppen	-10.0823
erje	-10.0823
▁27.	-10.0826
▁ohcamat	-10.0828
▁utmaningarna	-10.0831
lar	-10.0832
sjon	-10.0835
eamen	-10.0837
väg	-10.084
meari	-10.0845
▁synliggöra	-10.0845
easet	-10.0845
▁äga	-10.0846
▁ledamot	-10.0852
fredsställande	-10.0853
▁miljarder	-10.0854
▁rösta	-10.0854
▁ovddidii	-10.0854
▁vahku	-10.0859
▁aud	-10.086
▁presenteras	-10.0862
assi	-10.0865
▁rapportering	-10.0865
▁nyckel	-10.0868
▁musihkka	-10.0869
▁buvtta	-10.087
ášši	-10.0875
▁mánáidgárddit	-10.0875
▁terminologi	-10.0881
▁omröstning	-10.0896
▁ollislaččat	-10.0897
▁tvung	-10.0897
miljöministeriet	-10.0898
▁korrekt	-10.0899
ggá	-10.0901
▁eanandoalu	-10.0903
▁kommit	-10.0907
▁inhemsk	-10.0907
▁dása	-10.0909
▁lagt	-10.091
▁processer	-10.0911
▁andraspråk	-10.0916
▁heive	-10.0918
▁dieđih	-10.0923
▁áigge	-10.0923
▁subventionen	-10.0925
▁ohppiin	-10.0927
▁ulbmila	-10.0928
70	-10.0932
▁havs	-10.0932
▁nämns	-10.0934
vuđot	-10.0934
▁dárbbašuvvo	-10.0938
kommitté	-10.0938
änsöverskridande	-10.094
▁betrakta	-10.094
▁resurssat	-10.0942
▁eanetlohku	-10.0948
gräns	-10.0953
aktiviteter	-10.096
sätt	-10.0965
kti	-10.0969
▁bete	-10.0972
▁slutlig	-10.0973
▁insatser	-10.0981
▁bovde	-10.0981
▁peder	-10.0983
▁guvsám	-10.0983
▁namalassii	-10.0983
▁samfundet	-10.0983
▁máhtolašvuođa	-10.0983
▁uppmana	-10.0986
▁mearkkašahtti	-10.0986
▁the	-10.0987
kar	-10.099
laga	-10.0996
▁uppföljningen	-10.0999
▁ministeriets	-10.1006
▁statistihkka	-10.1006
▁ruđa	-10.1008
▁mearkkašumi	-10.101
▁regi	-10.1014
logus	-10.1015
▁vái	-10.1015
rättigheter	-10.1016
▁ho	-10.1017
muš	-10.1021
behov	-10.1021
ealáhusa	-10.1026
▁evttohit	-10.1027
▁händelse	-10.1027
▁steinar	-10.1028
tti	-10.1029
till	-10.103
▁almmuhit	-10.1033
000	-10.1036
▁rikta	-10.1037
▁skillnader	-10.1039
▁álggahuvvo	-10.104
váldi	-10.104
▁geavaheamis	-10.1044
håll	-10.1047
oahpaheaddji	-10.1047
▁underhåll	-10.1053
▁struktur	-10.1054
▁uppgift	-10.1054
▁dássi	-10.1068
▁nammadan	-10.1068
▁fe	-10.107
▁bajás	-10.1071
▁kappfjell	-10.1071
▁press	-10.1079
ovddideapmái	-10.108
▁direktoratet	-10.1083
foandda	-10.1086
▁nie	-10.109
suorgái	-10.109
▁skillnad	-10.1091
▁oahpahuslága	-10.1096
▁förordningar	-10.1101
diggepresideanta	-10.1115
▁searvan	-10.1115
eamis	-10.1122
▁ännu	-10.1123
▁gårdar	-10.1125
man	-10.1126
▁aktuella	-10.1127
▁hålla	-10.1127
▁br	-10.1127
▁språkregler	-10.1131
▁22.	-10.1133
▁samordna	-10.1134
▁lärar	-10.1147
▁guhte	-10.1155
▁rapportera	-10.1156
▁čielggas	-10.1159
politihkas	-10.1161
▁bedömningar	-10.1161
▁iežamet	-10.1161
▁avsättas	-10.1164
▁ásahus	-10.1164
▁23.	-10.1165
▁föräldrarna	-10.1166
▁regionalt	-10.117
▁álki	-10.1171
▁buvttadeami	-10.1175
▁(20	-10.1176
čoahkkimis	-10.1178
ment	-10.1181
▁hälsovård	-10.1187
birrasa	-10.1195
▁juolludusa	-10.1195
▁ovdánahttin	-10.1202
▁rávvagiid	-10.1204
▁soaba	-10.1204
▁dievasčoahkkima	-10.1205
kor	-10.1209
▁utsi	-10.1212
aiguin	-10.1213
▁begär	-10.1224
eame	-10.1237
▁anpassade	-10.1239
▁betalning	-10.124
▁hjälpa	-10.1244
▁rovvilt	-10.1247
▁guvllolaš	-10.1248
▁närmare	-10.1248
▁sáhkavuorru	-10.1248
▁lotnolasealáhus	-10.1253
▁dárbbaš	-10.1256
sáme	-10.1257
▁månader	-10.1258
▁nordlándda	-10.1262
avtalet	-10.1265
▁juoga	-10.1267
▁juolludus	-10.1273
▁produktions	-10.1276
▁juridiska	-10.1276
▁grundutbildning	-10.1281
▁oktage	-10.1284
▁26.	-10.1288
▁geográfalaš	-10.1293
▁bakken	-10.1293
▁searvadahttin	-10.1295
▁erkännande	-10.1296
▁chef	-10.1297
▁delvis	-10.1299
▁sju	-10.1303
cc	-10.1309
område	-10.1314
▁sektor	-10.1315
▁gjorde	-10.132
▁tillsyn	-10.1326
2008	-10.1331
▁dilis	-10.1331
departementet	-10.1338
▁borgemánu	-10.1338
▁presentation	-10.1338
▁dáruiduhttin	-10.1341
▁betonas	-10.1351
▁čuvvot	-10.1351
ea	-10.1351
▁digital	-10.1352
▁dieđu	-10.1353
▁föreslag	-10.1358
▁kapacitet	-10.1364
stit	-10.1367
▁ändring	-10.1367
▁representation	-10.1368
juvvot	-10.137
▁position	-10.1379
▁miljárdda	-10.1383
▁stimulera	-10.1383
▁erbjuder	-10.1384
▁sámediggeráđis	-10.1385
▁bilaga	-10.1385
▁presidenten	-10.1386
▁presenterades	-10.1397
▁pedagogalaš	-10.1399
▁beaivi	-10.1404
▁meroštallan	-10.1404
tjänster	-10.1405
▁slutsats	-10.1409
eames	-10.1409
▁čilge	-10.1418
▁områdes	-10.1418
▁rievdad	-10.1419
▁dadjat	-10.1429
▁mobil	-10.1429
▁politiija	-10.1429
▁artikeln	-10.1429
▁renkött	-10.1429
▁veahkkin	-10.143
▁kar	-10.143
▁majoritet	-10.1435
/17	-10.1435
▁trond	-10.1441
▁duođaštuvvon	-10.1442
trøndelága	-10.1445
▁språkrådet	-10.1445
▁sirdojuvvo	-10.1448
▁visat	-10.1452
proseassa	-10.1453
▁guolástan	-10.1454
▁förbereda	-10.1457
▁uppfylle	-10.1459
▁várrejuvvon	-10.1461
hte	-10.1463
▁par	-10.1466
▁offentligt	-10.1469
▁ruvnnuin	-10.147
▁dahket	-10.1471
▁deltagit	-10.1475
▁ohcci	-10.1476
▁starkare	-10.148
▁erbjudandet	-10.148
▁fiska	-10.1486
▁máŋggabealat	-10.1487
doaimmahaga	-10.1488
opmodaga	-10.149
-1	-10.1495
▁do	-10.1495
suorggit	-10.1499
▁jr	-10.1502
▁geavaheaddji	-10.1508
▁gielalaš	-10.1509
skola	-10.151
▁ealáhusaide	-10.151
▁förhandlingarna	-10.1518
▁läggs	-10.152
▁rekrytera	-10.152
▁kvot	-10.1528
▁prošektii	-10.1529
áhka	-10.1532
berg	-10.1532
▁šiehtadallan	-10.1533
ven	-10.1536
▁gažaldagat	-10.1538
▁storlek	-10.1541
▁tidsfristen	-10.1542
▁deaivvad	-10.1542
▁mor	-10.1543
▁lohpi	-10.1543
▁personlig	-10.1547
▁377	-10.1549
▁filbma	-10.155
▁tillhandahålla	-10.1559
ella	-10.1561
▁jagiin	-10.1564
▁guovttegielalaš	-10.1567
▁henriksen	-10.1568
▁árran	-10.1574
▁ásahan	-10.1574
▁addo	-10.1579
▁webbplats	-10.158
▁fi	-10.158
▁norgalaš	-10.1581
▁stödja	-10.1583
▁sáddejuvvo	-10.1591
▁ovddiduvvo	-10.1591
▁et	-10.1592
skatt	-10.1592
delning	-10.1597
▁davvisámegiela	-10.1599
▁nöjd	-10.16
ođastusa	-10.1609
skole	-10.161
▁förhindra	-10.1613
det	-10.1614
▁inleda	-10.1614
▁ordna	-10.1616
nnu	-10.1626
▁ráddje	-10.1629
kontor	-10.1629
▁generationer	-10.163
▁fuola	-10.1635
▁fast	-10.1643
perioden	-10.1651
▁ø	-10.1653
▁store	-10.1658
▁prošeavttat	-10.1665
▁svara	-10.1666
▁álge	-10.1677
▁finska	-10.1686
▁49	-10.1687
▁åtgärden	-10.1689
▁full	-10.1706
▁máksit	-10.1706
▁samtycke	-10.1706
▁nej	-10.1707
▁čađaheami	-10.1707
▁gullat	-10.171
▁guoskka	-10.171
▁meddelande	-10.1711
▁árvvoštallama	-10.1711
▁framtid	-10.1712
▁lämpligt	-10.1712
2009	-10.1713
áhta	-10.172
▁juridisk	-10.1724
▁deattuhuvvo	-10.1729
▁boraspiriid	-10.1733
ohc	-10.1739
fálaldagaid	-10.1741
▁befolkning	-10.1743
▁fjord	-10.1746
dus	-10.1752
▁aktiivvalaččat	-10.1753
lill	-10.1753
▁theres	-10.1754
ret	-10.1759
▁huksenlága	-10.176
▁dáiddár	-10.176
föreningen	-10.1768
▁sajis	-10.1768
▁möjligheten	-10.1771
▁avdelningen	-10.1774
laččaid	-10.1777
▁administrativ	-10.1777
oh	-10.1778
▁förstå	-10.1786
▁registrere	-10.1787
▁oahppoplánaid	-10.1789
▁juolluduvvon	-10.1793
hpa	-10.1794
▁heajos	-10.18
▁fördelas	-10.18
▁čuovvoleapmi	-10.1801
▁stuorit	-10.1804
ok	-10.1804
▁áigeguovdilis	-10.1805
uvvot	-10.1805
ak	-10.1805
▁lärande	-10.1808
▁siidda	-10.1812
huvvo	-10.182
▁miel	-10.182
organisationerna	-10.182
▁följs	-10.1826
headdji	-10.1828
▁genomförs	-10.1842
▁áigodahkii	-10.1847
▁čatna	-10.1847
▁tonvikt	-10.1848
▁dvs	-10.1848
▁1993	-10.185
▁runt	-10.1862
▁fokusområden	-10.1862
▁turist	-10.1865
▁tolk	-10.1873
▁juollud	-10.1877
rän	-10.188
▁skuvllain	-10.1884
▁bestämmelsen	-10.1888
▁ráhkaduvvon	-10.1895
▁potential	-10.1895
▁nuorra	-10.1895
▁goitge	-10.1896
allan	-10.1901
▁anpassning	-10.1906
▁parlament	-10.1906
ort	-10.1908
bok	-10.191
▁váidda	-10.1911
▁gielddaide	-10.1918
pu	-10.1921
▁buktá	-10.1924
▁reviderejuvvo	-10.1925
▁allaskuvllas	-10.1929
plats	-10.193
stra	-10.1932
▁reglering	-10.1934
mearrádusárvalus	-10.1935
▁nuorta	-10.1937
▁acceptera	-10.1943
▁fjärde	-10.1943
▁njealji	-10.1943
▁sápmelaččain	-10.1943
▁parlamenten	-10.1945
▁finans	-10.1946
hč	-10.1948
▁áŋgiruššama	-10.195
▁införa	-10.1954
,3	-10.1954
▁samarbets	-10.1957
vård	-10.1958
▁geatnegasvuohta	-10.1961
▁sáddet	-10.1961
lávdegoddái	-10.1961
ža	-10.1962
▁loahpas	-10.1976
▁lobi	-10.1976
▁informerade	-10.1983
▁ruovttus	-10.1989
▁hittar	-10.1992
▁levande	-10.1993
▁oljo	-10.1994
▁dieđihan	-10.1998
▁långsiktig	-10.1999
▁hálddašeapmái	-10.2
▁nissonolbmuid	-10.2001
▁gáibádus	-10.2006
vuohki	-10.2012
▁positiva	-10.203
▁giellaguovddáži	-10.2032
▁govva	-10.2033
▁tørfoss	-10.2039
▁árvoháhkan	-10.2039
▁bas	-10.204
▁vealaheami	-10.2041
▁vuollel	-10.2047
▁tromssa	-10.205
▁typ	-10.2055
▁kungen	-10.2055
▁genomförande	-10.2057
▁tel	-10.2057
ortnegiid	-10.2061
▁domstol	-10.2063
.2.2	-10.2063
▁vuoruhuvvon	-10.2065
▁virgái	-10.2065
▁elin	-10.2068
▁pris	-10.2069
▁areálaid	-10.2075
▁duojáriid	-10.2079
kostnader	-10.2085
▁positiiva	-10.2088
▁beassá	-10.2089
▁magnhild	-10.2092
▁meannudit	-10.2093
▁viidát	-10.2093
▁bargguin	-10.2103
rre	-10.2105
▁áigemeari	-10.2106
▁förmåga	-10.2111
baserad	-10.2122
▁čilgehusa	-10.2126
▁direkta	-10.2137
▁rihkku	-10.2137
▁gulahallama	-10.2137
diggedieđáhusa	-10.2142
▁regjeringen	-10.2143
▁fidno	-10.2147
▁målen	-10.2153
▁čálli	-10.2153
▁bar	-10.2156
ašuvnna	-10.2161
his	-10.2161
▁sápmelaččaide	-10.2162
nna	-10.217
▁doaibmá	-10.2186
▁officiell	-10.2186
▁granskning	-10.2186
▁márjá	-10.2186
▁vrd	-10.2186
▁tillhör	-10.2187
▁beavdegirje	-10.2188
unn	-10.219
▁steg	-10.2191
▁2,	-10.2191
▁kommissionen	-10.2207
viesu	-10.2208
prp	-10.2211
.3.1	-10.2212
▁almmuhan	-10.2217
▁plánaid	-10.2219
▁samman	-10.2225
▁hel	-10.2229
▁suoidnemánu	-10.2235
▁doallat	-10.2235
▁eanadoallu	-10.2236
▁organiserema	-10.2236
▁gällande	-10.2238
▁biddjojuvvojit	-10.2242
▁57	-10.2242
ca	-10.2244
▁mi	-10.2259
▁utför	-10.226
jord	-10.2261
▁97	-10.2263
▁bohccot	-10.2263
▁res	-10.2265
báiki	-10.2268
vuoigatvuođat	-10.2268
▁undersökning	-10.2271
▁beaktas	-10.2271
eddjiid	-10.2272
▁region	-10.2272
▁säker	-10.2279
▁konvention	-10.2284
▁utforma	-10.2289
▁dáláš	-10.2289
▁vuotna	-10.2299
form	-10.2299
379	-10.23
dig	-10.2301
▁patient	-10.2303
doaimmaide	-10.2306
▁rámmaplána	-10.2309
▁boazodoallolága	-10.2311
▁ran	-10.2316
▁juohká	-10.2317
▁handlingsplanen	-10.2325
▁67	-10.2328
.2011	-10.2331
eddjiin	-10.2333
▁deaŧaleamos	-10.2334
▁justiisa	-10.2334
▁återspegla	-10.2334
▁boazolohku	-10.2335
▁luossa	-10.2335
▁marknads	-10.2341
konferens	-10.2341
▁skäl	-10.2342
▁akademisk	-10.2346
▁21.	-10.2352
▁sáddejuvvon	-10.2357
▁čearddalaš	-10.2361
dokument	-10.2363
▁samhällsliv	-10.237
mann	-10.2376
▁je	-10.2377
várra	-10.2377
▁gått	-10.2378
▁válljejuvvon	-10.2383
▁ansökningsfrist	-10.2384
dávdda	-10.2384
▁friija	-10.2385
▁3.2	-10.2386
▁dagahan	-10.2392
▁ája	-10.2394
▁siva	-10.2397
hálddašeapmi	-10.2398
▁joavkku	-10.2401
aide	-10.2403
▁universitehtas	-10.2407
▁sáb	-10.2408
▁boađus	-10.2412
▁28.	-10.2413
rámma	-10.2413
▁adnojuvvo	-10.2415
dom	-10.2416
▁daglig	-10.2418
▁nivåer	-10.2418
▁pl	-10.2419
▁oaivvildit	-10.242
sámediggejoavkku	-10.2422
▁kommune	-10.2424
▁áddejumi	-10.2425
▁lasih	-10.2427
but	-10.2429
▁biddjon	-10.243
▁aldrig	-10.2435
▁biträdande	-10.2435
▁investera	-10.2435
▁viehka	-10.2435
▁gávpe	-10.2435
▁anta	-10.2439
eg	-10.2441
▁ledning	-10.2443
lasáhusat	-10.2446
▁sett	-10.2448
▁stark	-10.245
platser	-10.2451
▁familje	-10.2453
▁ämnes	-10.2455
lista	-10.2462
▁prošeavttaid	-10.2462
▁kostnaderna	-10.2464
låt	-10.2465
▁geahččali	-10.2466
▁urfolk	-10.2466
▁fastställa	-10.2467
vrra	-10.247
▁gohčoduvvo	-10.2472
▁utgifter	-10.2476
▁250	-10.248
▁aasrud	-10.2485
▁klemet	-10.2485
▁finansiell	-10.2485
▁längs	-10.2486
▁rievdan	-10.2486
▁måsø	-10.2486
▁ásaheapmi	-10.2488
▁čuovvoleami	-10.2488
▁bohtosiid	-10.249
▁doarjjastivra	-10.2492
▁retter	-10.2494
▁renhållningslag	-10.2494
imet	-10.2498
▁čielggadusa	-10.2498
eavttu	-10.2499
bud	-10.2501
▁idrotts	-10.2503
konferánssa	-10.2515
▁länderna	-10.2516
▁konflikt	-10.2519
▁29.	-10.2519
▁vistti	-10.252
▁våren	-10.2521
▁evttohusaid	-10.2522
▁meannudan	-10.2524
▁vidta	-10.2526
▁mihttomearrin	-10.2528
▁slakt	-10.2531
▁socialtjänster	-10.2532
situationen	-10.2536
▁vuollásaš	-10.2536
▁röst	-10.2537
▁trots	-10.2539
▁eanan	-10.2539
▁ásahusain	-10.254
▁finansiera	-10.254
▁ráhkkan	-10.2542
▁analys	-10.2547
▁council	-10.2548
▁bild	-10.2551
oahpa	-10.2552
lohko	-10.2557
▁samarbeta	-10.2558
▁kräva	-10.2561
▁investering	-10.2566
▁lullisámegiela	-10.2569
▁beroštumi	-10.2569
▁os	-10.2572
▁seammá	-10.2574
suorgi	-10.2574
▁pr	-10.2579
▁begränsa	-10.2581
▁presenterade	-10.2582
▁klargöra	-10.2586
huvvon	-10.2588
▁vuođđoskuvla	-10.259
▁nammadit	-10.2591
▁giellagáldu	-10.2592
buvttadeami	-10.2596
ahttit	-10.2597
▁ossodaga	-10.2605
▁ner	-10.2605
siidda	-10.2606
ttu	-10.2606
eamit	-10.2612
inarie	-10.2614
▁speciella	-10.2615
▁infrastruktur	-10.2615
▁fad	-10.2616
▁konton	-10.262
britt	-10.2621
▁fal	-10.2622
▁kriterier	-10.2624
▁historjá	-10.2625
▁professionellt	-10.2625
sel	-10.2625
▁inkomster	-10.2626
č	-10.263
▁borramuš	-10.2634
▁lands	-10.2636
▁deháleamos	-10.2638
▁saemien	-10.2638
▁ohppui	-10.2641
▁ministern	-10.2644
▁solli	-10.2645
geaidnu	-10.2645
▁bearráigeahčča	-10.2652
demiin	-10.2656
▁läsa	-10.2657
rad	-10.2658
stjänster	-10.2664
▁nissonolbmot	-10.2667
▁fångst	-10.2677
▁utvärdera	-10.2678
▁involvera	-10.2682
▁huvudmål	-10.2691
▁ovan	-10.2694
sprogrammet	-10.2699
▁beaiváduvv	-10.2701
▁tydlig	-10.2701
året	-10.2711
lat	-10.2711
▁arkiiva	-10.2714
cealkámuša	-10.2717
čoahkkimii	-10.272
bálvalusas	-10.2725
▁stödsystem	-10.2725
▁marina	-10.2729
väntar	-10.2729
▁produktionen	-10.2732
▁fatta	-10.2735
▁sátne	-10.2739
liv	-10.274
▁organisera	-10.2741
▁guovttegielat	-10.2741
▁pasieanta	-10.2741
▁blivit	-10.2742
▁tretnes	-10.2742
▁ovddasteaddji	-10.2743
▁presentera	-10.2744
▁förhandlingar	-10.2745
riid	-10.2745
iskt	-10.2749
inger	-10.2749
▁upprättas	-10.2752
▁finánsa	-10.2752
▁4.2	-10.2757
▁buktán	-10.2762
▁válddii	-10.2764
hallan	-10.2764
sområde	-10.2765
▁vecka	-10.2771
▁diimmu	-10.2779
▁livet	-10.2779
by	-10.2783
,8	-10.2785
snämnden	-10.2789
▁utnyttja	-10.2791
das	-10.2791
▁mearriduvvo	-10.2795
▁stabil	-10.2796
oahpahusa	-10.2806
▁godkända	-10.2806
rri	-10.2807
▁buohkaide	-10.2811
▁ávžžuha	-10.2814
▁juolludan	-10.2818
3.2	-10.2822
▁meddela	-10.2823
▁sport	-10.2831
▁medlemmarna	-10.2833
ojuvvot	-10.2836
▁beroštusaid	-10.2838
skommittén	-10.2838
▁meast	-10.2839
▁invånare	-10.2846
▁rik	-10.2847
▁resultaten	-10.285
▁nedan	-10.2851
ssystemet	-10.2863
ivva	-10.2867
▁vu	-10.2868
▁geasse	-10.2874
▁lasihuvvo	-10.2874
▁tema	-10.2889
boađu	-10.2892
▁kustfiske	-10.2892
▁framgå	-10.2894
jø	-10.2896
75	-10.2897
förvaltning	-10.2897
med	-10.2898
seiendommen	-10.2899
▁siviila	-10.2899
▁dearvvašvuohta	-10.2899
▁avsätts	-10.29
▁čadnon	-10.2906
▁gáibádusa	-10.2907
▁ci	-10.2909
▁skolorna	-10.2911
▁bivdán	-10.2913
▁geavah	-10.2914
▁praktiken	-10.2916
▁beare	-10.2916
▁prioriterade	-10.292
▁bohcco	-10.2921
troms	-10.2924
▁bevilja	-10.293
čo	-10.2933
▁dra	-10.2941
máná	-10.2942
▁liige	-10.2942
www	-10.2942
▁rekrutteren	-10.2946
▁ossodat	-10.2948
▁mus	-10.2949
▁berör	-10.2949
▁sáni	-10.295
▁informations	-10.295
▁friddja	-10.295
miljöer	-10.2951
namn	-10.2951
▁arctic	-10.2951
▁iešguđege	-10.2951
▁čađahuvvui	-10.2951
▁north	-10.2952
▁doalahit	-10.2952
láhkii	-10.2957
▁jienastit	-10.2958
▁luohká	-10.2961
▁mening	-10.2962
▁tjänsten	-10.2965
▁sysselsättning	-10.2966
▁visa	-10.2967
deapmái	-10.2979
▁beslutade	-10.2983
▁arrangemang	-10.2983
rusttegiid	-10.2985
iken	-10.2992
oahpahus	-10.2995
▁pension	-10.2999
▁eanadoalus	-10.3
▁skuvllaid	-10.3
▁söder	-10.3002
arena	-10.3003
▁lávdegodde	-10.3005
▁riđđu	-10.3005
▁uppfylla	-10.3005
▁áidna	-10.3005
▁lagaš	-10.3009
▁kunskapen	-10.3009
▁áigut	-10.301
miidda	-10.3011
▁doaibmadoarjaga	-10.3012
ovddasvástádus	-10.3013
strategi	-10.3014
hat	-10.3015
dássi	-10.3019
ivččii	-10.302
▁effekt	-10.3026
▁áigot	-10.3029
▁utses	-10.3029
▁geografiska	-10.303
▁orohat	-10.3031
▁data	-10.3032
▁använts	-10.3032
kultur	-10.3032
saji	-10.3034
poster	-10.3034
▁1999:	-10.3035
▁ovdáneapmái	-10.3038
▁värden	-10.3039
▁kol	-10.304
beaivvi	-10.3048
evttohus	-10.3057
▁4,	-10.3057
▁tvåspråkighet	-10.3059
▁váilu	-10.306
▁uppväxt	-10.3061
▁parti	-10.3063
▁olahit	-10.3064
▁árvvuid	-10.3066
doaibmabijut	-10.3068
▁hehtte	-10.3083
▁siffrorna	-10.3086
▁kontrollera	-10.3091
▁beteckning	-10.3098
▁juogaduvvo	-10.3099
-3	-10.3102
▁betala	-10.3107
nämnda	-10.3111
▁bjørn	-10.3112
▁väljs	-10.3112
▁gustovaš	-10.3113
▁översyn	-10.3116
-2	-10.3118
▁diskuterades	-10.3119
▁ansöknings	-10.3124
▁doaimmain	-10.3125
▁jahkedieđáhusa	-10.3129
▁tala	-10.3136
▁hör	-10.3139
22	-10.3143
▁tvåspråkiga	-10.3144
▁konsult	-10.3149
▁156	-10.3153
ai	-10.3157
▁förbered	-10.3158
▁birge	-10.316
málle	-10.3165
▁fanas	-10.3166
▁befogenhet	-10.3166
▁snåsa	-10.3166
▁ráđđelahttu	-10.3166
▁čatnasit	-10.3166
▁ovdii	-10.3166
2011	-10.3169
▁olje	-10.317
▁ávkkástallat	-10.3171
▁fiskare	-10.3172
▁válljejit	-10.3175
▁försök	-10.3178
▁reviderade	-10.3187
▁genomförts	-10.3187
▁86	-10.3192
▁fylka	-10.3193
▁licens	-10.3199
▁dássái	-10.32
▁ba	-10.3207
ohppui	-10.3211
▁strategiijaid	-10.3213
▁rättigheterna	-10.3214
▁administrativt	-10.3214
finnmárkku	-10.3218
ruhta	-10.3218
ŧ	-10.322
▁hirbmat	-10.322
▁musihka	-10.322
▁relevánta	-10.322
▁mariidna	-10.322
▁ledningen	-10.3222
▁historiska	-10.3223
▁lagabui	-10.3223
▁ásahusa	-10.3228
arv	-10.3229
▁ange	-10.3229
▁organisašuvnnat	-10.3231
▁ásahuvvot	-10.3238
▁eventuellt	-10.3238
▁artiklar	-10.3239
förening	-10.3239
lise	-10.3242
▁raporttas	-10.3243
htii	-10.3247
▁earát	-10.3256
▁árvala	-10.3263
▁lösning	-10.3264
▁by	-10.3267
emiide	-10.327
▁statsbygg	-10.3274
▁ráhkaduvvot	-10.3275
▁behövs	-10.3275
▁färre	-10.3275
▁introduktion	-10.3275
▁utvidga	-10.3275
▁online	-10.3275
▁möta	-10.3275
▁eiseválddiiguin	-10.3275
▁samerådet	-10.3276
▁ruhtadit	-10.328
▁juolludit	-10.3286
▁sjukvården	-10.3289
▁sten	-10.3293
▁1992	-10.3295
▁nissoniid	-10.3296
▁barggut	-10.3302
geavaheapmi	-10.3303
bidrag	-10.3303
▁54	-10.3305
▁ni	-10.3306
▁válgga	-10.3313
▁barnskydd	-10.3314
▁årligen	-10.3315
▁gymnasieskolan	-10.3316
▁oasis	-10.3318
▁tidningar	-10.3318
▁ekonomi	-10.3319
▁prata	-10.332
bálvalusain	-10.3321
▁start	-10.3323
▁bal	-10.3325
varanger	-10.3326
▁gamla	-10.333
▁premiärminister	-10.333
▁värderingar	-10.333
▁midjiide	-10.333
▁oassálastit	-10.3332
▁doaibmi	-10.3337
/16	-10.3337
▁arbetsordning	-10.3342
▁förstärkning	-10.3343
▁ökningen	-10.3345
▁trafik	-10.3348
▁institution	-10.3348
▁unni	-10.3349
▁lávdegottis	-10.3352
čuo	-10.3352
▁plánejuvvon	-10.3359
▁sivvan	-10.3365
mas	-10.3366
institut	-10.3368
▁gulaskuddamii	-10.3374
norggas	-10.3374
suohkan	-10.3382
várrepresideanta	-10.3385
▁petroleum	-10.3385
▁rolf	-10.3385
▁čálgo	-10.3385
hoavda	-10.3385
▁govus	-10.3386
▁svag	-10.3388
▁inledning	-10.3391
▁vea	-10.3392
▁havet	-10.3393
vida	-10.3394
▁statlig	-10.3396
▁majoriteten	-10.3397
▁áššái	-10.3397
▁rättighet	-10.3405
▁omfattar	-10.3411
▁ensam	-10.3411
▁ortnegiid	-10.3413
▁seminarium	-10.3413
vuoru	-10.3416
▁skickade	-10.3416
▁inst	-10.3417
htu	-10.3419
rievtti	-10.342
▁förluster	-10.3423
▁primär	-10.3424
▁gången	-10.3428
spolitik	-10.3428
bel	-10.3429
▁várrelahttu	-10.3429
▁dohkkehan	-10.3435
▁ovdd	-10.3435
▁debatt	-10.3436
▁km	-10.3437
listu	-10.3439
▁west	-10.3441
girjji	-10.3442
gelbbolašvuođa	-10.3442
▁doalai	-10.3442
▁harald	-10.3443
▁sáhkavuoru	-10.3443
▁dálkkádatrievda	-10.3444
registret	-10.3449
▁buvttadeapmi	-10.345
▁2009:	-10.3458
98	-10.3464
▁bearbetning	-10.3464
verket	-10.3464
▁áirasa	-10.3472
▁begäran	-10.3473
produkter	-10.3473
▁beslutat	-10.3473
▁gosa	-10.3473
▁temat	-10.348
▁čoahkkimii	-10.3484
vástideaddji	-10.3486
▁ku	-10.3486
amis	-10.3494
▁buohcci	-10.3496
▁guovtte	-10.3496
▁čálalaččat	-10.3497
▁viidásit	-10.3497
▁lade	-10.3498
ojuvvojit	-10.3499
▁suppleanter	-10.3501
▁1.1	-10.3503
đu	-10.3503
▁vásáhusaid	-10.3503
▁loguid	-10.3508
▁helse	-10.351
▁förväntas	-10.3513
▁betonade	-10.3518
▁árvalusaid	-10.3522
▁2.2	-10.3525
▁faktorer	-10.3527
▁unnitlogu	-10.3528
▁väljare	-10.3528
mme	-10.353
▁ovddasteaddjit	-10.3532
▁innehålla	-10.3536
htti	-10.3537
▁sadji	-10.3537
55	-10.3538
.1.1	-10.3545
▁ruhtadeami	-10.3545
nis	-10.3553
▁elektronisk	-10.3553
▁oaččo	-10.3553
▁suodjalit	-10.3553
▁åarjel	-10.3553
▁beassan	-10.3553
▁váilot	-10.3553
usaid	-10.3553
▁álbmotrievtti	-10.3555
▁ovttaoaivilis	-10.3555
▁ráhkad	-10.3556
lärare	-10.3556
ändamål	-10.3557
▁nuortalaš	-10.356
▁fördelar	-10.3565
▁lönsamhet	-10.3565
▁ovdán	-10.3569
▁kristin	-10.357
searvi	-10.3574
▁áirasat	-10.3577
▁domstolen	-10.3579
▁industriija	-10.3583
erema	-10.3583
▁já	-10.3585
▁enda	-10.3589
▁socialt	-10.3591
▁ráđđádallan	-10.3591
▁doaluid	-10.3592
▁guovllut	-10.3594
ås	-10.3595
▁riikkaid	-10.3596
▁dålig	-10.3598
▁bargi	-10.36
▁typer	-10.3601
▁geavaheapmái	-10.3607
▁njealját	-10.3609
▁kjell	-10.3609
▁stuoradikki	-10.3611
▁erland	-10.3611
servodaga	-10.3612
bmo	-10.3613
gillii	-10.3613
▁tydliga	-10.3613
▁fárre	-10.3613
▁träffa	-10.3614
▁vuovdin	-10.3614
olbmuid	-10.3614
▁enhet	-10.362
lávdegottis	-10.3624
ker	-10.3625
áššenr	-10.3629
▁ládje	-10.363
▁álbmotvállje	-10.3634
▁statligt	-10.3635
▁25.	-10.3642
▁inlägg	-10.3643
▁konsultašuvnnat	-10.3646
▁dutkamis	-10.3647
▁doarjjan	-10.3651
▁prošeavttaide	-10.3653
▁hållas	-10.3653
vil	-10.3659
▁árbedieđu	-10.3659
▁stater	-10.3663
▁doavttergráda	-10.3666
▁etnicitet	-10.3666
▁juridihkalaš	-10.3666
▁stärker	-10.3666
▁äger	-10.3666
▁principer	-10.3667
▁áŋgiruššat	-10.3669
▁beasa	-10.3671
▁riikkasearvvi	-10.3673
▁gräns	-10.3673
uni	-10.3673
▁fierpmádaga	-10.3678
▁anpassa	-10.3681
▁föreslagit	-10.3682
▁joatkkaoahpahus	-10.3685
▁bio	-10.3688
▁språklig	-10.3689
▁sádde	-10.3689
▁oppa	-10.3691
doaibmabijuid	-10.3696
addi	-10.3697
skog	-10.3698
▁joatkka	-10.3704
▁stats	-10.3712
▁geahččalan	-10.3716
lighet	-10.3722
▁sámiide	-10.3723
▁gratis	-10.3723
▁ávkkálaš	-10.3723
▁sjö	-10.3727
lihttu	-10.3728
▁2016.	-10.3728
riikka	-10.373
gelbbolašvuohta	-10.3731
diggi	-10.3733
vistti	-10.3734
▁utformningen	-10.3735
▁ovttasbarggus	-10.3735
▁ledjen	-10.3739
▁hábme	-10.3739
▁distans	-10.3742
▁institutionell	-10.375
lokten	-10.375
▁ref	-10.376
▁lokaler	-10.3761
▁odd	-10.3763
▁gränsen	-10.3769
▁2008:	-10.377
dahkii	-10.3771
▁förtydliga	-10.3778
politihkkii	-10.3781
▁stärkt	-10.3781
▁kor	-10.3781
▁gažaldaga	-10.3785
▁faktiskt	-10.3788
punkt	-10.3789
▁fitnodat	-10.379
▁visttiid	-10.3793
▁förhållandet	-10.3793
▁städer	-10.3799
▁adno	-10.3803
▁bidragit	-10.3812
vuonas	-10.3814
áigodagas	-10.382
▁juksa	-10.3824
▁respekt	-10.3826
uvvan	-10.3826
▁språkliga	-10.3827
▁searvi	-10.3835
muittu	-10.3837
▁marknadsföring	-10.3838
▁synpunkter	-10.3838
▁ollašuhttit	-10.3839
▁statskog	-10.3839
nger	-10.384
▁girje	-10.3841
▁oanehis	-10.3841
veig	-10.3845
/07	-10.3846
▁lahka	-10.3847
▁ráva	-10.3848
/09	-10.3851
▁finansieras	-10.3855
▁addojuvvon	-10.3856
▁3,	-10.3861
▁birrasa	-10.3863
▁vásihan	-10.3867
▁olggos	-10.3867
▁statistiska	-10.3869
▁konsekvenserna	-10.3869
dievasčoahkkimii	-10.3875
▁lön	-10.3875
▁renodlingen	-10.3877
▁oččodi	-10.3879
ler	-10.3881
▁sadjásaš	-10.3885
▁nämn	-10.3887
▁árvvu	-10.3891
▁parter	-10.3891
sutbyte	-10.3894
bivddu	-10.3895
▁fylkkagielda	-10.3897
▁nussir	-10.3897
▁várdobáiki	-10.3897
▁filip	-10.3897
▁bohccobierggu	-10.3897
▁diehtá	-10.3897
▁norlándda	-10.3897
▁válgabiire	-10.3897
▁östsamiska	-10.3898
▁henne	-10.39
▁dárbbut	-10.3902
▁ealáhusain	-10.3902
▁årsredovisning	-10.3905
▁arbetat	-10.3907
port	-10.3911
stein	-10.3911
▁virgi	-10.3913
surggiid	-10.3914
bearráigeahčču	-10.3914
▁centralt	-10.3918
▁gälla	-10.392
▁sjukdom	-10.3921
▁lednings	-10.3922
ekt	-10.3931
▁sjukhus	-10.3939
▁behandlade	-10.3939
hku	-10.394
▁dollojuvvo	-10.3945
samma	-10.3946
▁2013:	-10.3954
keahttá	-10.3955
▁dálve	-10.3955
▁bransfjell	-10.3955
▁guovdageaidnu	-10.3955
▁hälften	-10.3955
▁sihkkaraste	-10.3955
▁sijte	-10.3955
▁rávisolbmuid	-10.3955
▁naturligtvis	-10.3956
▁dienas	-10.3957
ddu	-10.3958
▁landskommunerna	-10.3962
▁olgoriikka	-10.3962
▁publicera	-10.3963
▁lett	-10.3966
▁láhkaásahusaid	-10.3968
ealáhus	-10.397
▁namahus	-10.3972
▁gunnar	-10.3976
▁utrikes	-10.3984
▁mottagaren	-10.3991
▁produkter	-10.3991
▁företags	-10.3992
▁skriva	-10.3992
▁tecken	-10.3994
▁ämnesområden	-10.3996
▁mátke	-10.4002
utbildningen	-10.4004
oahpahussii	-10.4006
▁ledighet	-10.4007
ddá	-10.4011
▁buhcciid	-10.4013
konsuleanta	-10.4014
▁täcker	-10.4014
so	-10.4016
▁markförvaltning	-10.4019
▁08	-10.4023
▁konkurrens	-10.4028
▁höga	-10.4036
.2010	-10.4037
▁ti	-10.4037
▁01.	-10.4037
process	-10.404
▁presideantta	-10.4042
▁individer	-10.4046
▁utnyttjande	-10.4047
▁sápmelaš	-10.4048
▁3.3	-10.4049
▁levnads	-10.4056
▁fylkkasuohkana	-10.4057
▁galggaš	-10.4057
▁4.1	-10.4064
▁č	-10.4065
▁negativa	-10.4065
institutionerna	-10.4067
▁gažaldagaid	-10.4068
▁inrättades	-10.407
eappot	-10.407
▁čuovvoluvvo	-10.4071
samrådsuttalande	-10.4073
▁buohtalas	-10.4073
▁spesialista	-10.4073
▁cealkka	-10.4074
▁jienastan	-10.4078
▁jahkedieđáhus	-10.4079
▁jođihit	-10.4081
▁betyder	-10.4083
▁sádden	-10.4083
▁medför	-10.4086
▁pers	-10.4086
mihtu	-10.4086
▁följas	-10.4091
oahppo	-10.4101
io	-10.4101
▁flytta	-10.4103
▁deattu	-10.4106
lii	-10.411
▁plánen	-10.4112
ris	-10.4112
användning	-10.4117
styrelse	-10.4121
▁báikegottiid	-10.4124
▁2:	-10.4124
▁flagg	-10.4126
problem	-10.4126
▁veahkaválddálaš	-10.4133
▁eaktodáhtolaš	-10.4133
▁riekta	-10.4133
▁dađi	-10.4135
▁unna	-10.4137
vuona	-10.4139
▁dahkkojuvvon	-10.414
▁gullevašvuođa	-10.4141
▁anmärkning	-10.4144
sområdena	-10.4149
▁revision	-10.4158
hcci	-10.416
▁besluta	-10.416
▁1995	-10.4164
▁nannejuvvo	-10.4166
aktivitet	-10.4166
▁planeras	-10.4168
bet	-10.4171
▁skuvllat	-10.4171
▁85	-10.4173
▁föreslå	-10.4177
▁fo	-10.4179
▁högskolor	-10.418
vvu	-10.4181
▁62	-10.4185
kommunen	-10.4185
▁sammanfattning	-10.4186
▁stödet	-10.4191
▁nuvttá	-10.4192
▁sullasaš	-10.4192
▁jotkojuvvo	-10.4192
▁lohká	-10.4193
▁group	-10.4193
▁netto	-10.4193
▁tilldelas	-10.4193
prošeavttat	-10.4195
samarbete	-10.4197
▁motivera	-10.4198
▁flaggan	-10.4199
▁432	-10.4199
▁oahpahit	-10.4201
▁studenterna	-10.4202
▁tolkning	-10.4203
▁skyltar	-10.4206
▁porsáŋggu	-10.4206
▁dáčča	-10.4211
▁börjar	-10.4215
förhandlingarna	-10.4216
▁riikkaidgaskasa	-10.4223
▁álttás	-10.4227
▁utöva	-10.4227
eavttuid	-10.4231
sion	-10.4231
▁spela	-10.4234
hpi	-10.4236
▁oadjebas	-10.4245
▁lämnades	-10.4245
utvecklingen	-10.4247
▁företrädarna	-10.4253
▁överstig	-10.4253
barn	-10.4254
▁markanvändning	-10.4254
▁vásáhusat	-10.4258
▁vuordit	-10.4258
▁gealbo	-10.426
eabbo	-10.4261
▁ealáhusas	-10.4263
raportta	-10.4269
▁undervisningen	-10.4269
ål	-10.4269
▁vahkku	-10.4273
▁bargosajiid	-10.4275
▁leavgga	-10.4278
riggodagaid	-10.4279
▁baserad	-10.4285
▁kapihttala	-10.4293
▁bálkká	-10.4295
position	-10.4295
▁utföra	-10.4297
▁polis	-10.4299
ger	-10.4305
▁stads	-10.4305
▁opp	-10.4306
▁čakčat	-10.4308
▁namnet	-10.4312
▁lahtuid	-10.4313
▁försvarsmakten	-10.4313
▁uhcit	-10.4313
▁juolludaneavttu	-10.4314
še	-10.4315
▁guhtta	-10.4315
ön	-10.432
▁hukse	-10.4321
▁2008.	-10.4323
ökning	-10.4323
▁vuođđoskuvllas	-10.4324
▁oahppa	-10.4325
▁vuođđolága	-10.4327
▁produkt	-10.4334
▁oasit	-10.4337
áigge	-10.4337
šiehtadusaid	-10.4339
▁mildosat	-10.434
▁suodjalusa	-10.4344
ledning	-10.4345
ski	-10.435
čč	-10.4355
möten	-10.4355
▁24.	-10.436
▁rievdaduvvon	-10.4364
▁aspekter	-10.4364
▁distrikten	-10.4373
▁58	-10.4374
▁báikkálaččat	-10.4374
▁innovašuvdna	-10.4374
šlája	-10.4374
▁driftbidrag	-10.4375
▁undersöka	-10.4377
▁09.00	-10.4377
200	-10.4378
▁bok	-10.4378
▁hållbarhet	-10.438
▁grundades	-10.4381
▁centret	-10.4388
riekti	-10.4396
▁dahkkojuvvo	-10.4396
áittardeaddji	-10.4397
▁datte	-10.4397
▁skada	-10.4399
oktavuođa	-10.44
▁separata	-10.4408
hálddahusa	-10.4415
▁konstitutionen	-10.4416
▁dahkkon	-10.4418
▁godkänd	-10.4419
▁sommar	-10.4423
bme	-10.4427
▁verka	-10.4428
öt	-10.4428
▁fápmui	-10.4433
▁kurssa	-10.4434
▁gaskamearálaš	-10.4436
▁ovdagihtii	-10.4436
▁røros	-10.4436
▁önskan	-10.4436
▁mánáidgárdi	-10.4436
▁brekk	-10.4436
▁underteckna	-10.4436
▁lasse	-10.4436
▁ovddideamis	-10.4436
▁doallan	-10.4436
álbmotrievttálaš	-10.4436
▁terminologiija	-10.4436
▁geaid	-10.4439
▁čuovvovaččat	-10.4439
vuođas	-10.4441
▁mearkkašit	-10.4443
▁428	-10.4445
▁várrelahtu	-10.4446
▁bál	-10.4447
▁lađas	-10.4447
skommitté	-10.4447
▁suohkaniidda	-10.4448
geainnu	-10.4448
til	-10.4448
ac	-10.445
▁bargun	-10.4451
▁váhnen	-10.4465
▁juolluda	-10.4466
meld	-10.4468
▁63	-10.4468
▁rekommendera	-10.4469
.2012	-10.447
plánii	-10.4471
▁beale	-10.4473
konventionen	-10.4474
▁permanenta	-10.448
logi	-10.4483
▁1:	-10.4483
▁bodø	-10.4497
▁minuter	-10.4497
itehta	-10.4498
▁angående	-10.4499
▁jorgal	-10.4503
29	-10.4505
fördelning	-10.4509
vejolašvuođaid	-10.4512
▁dásse	-10.4515
▁mearka	-10.4515
▁kusten	-10.4515
▁guhkás	-10.4517
▁undersökningen	-10.4519
fá	-10.4522
▁5.1	-10.4526
▁suorggi	-10.453
bir	-10.4531
▁bruk	-10.4534
šša	-10.454
▁kulturhus	-10.4542
▁fuomáš	-10.4544
▁gång	-10.4546
▁návccaid	-10.4547
▁vä	-10.4548
▁fierpmádat	-10.4551
▁čielggadeami	-10.4552
▁anpassas	-10.4554
▁áige	-10.4555
▁proseanttain	-10.4557
▁foandda	-10.4558
▁rámmaeavttut	-10.456
▁möjligheterna	-10.4563
▁movttiidahttit	-10.4565
▁doalu	-10.4566
▁88	-10.4571
▁mill	-10.4572
▁fl	-10.4572
resurssaid	-10.4573
▁2007:	-10.4585
▁oahpah	-10.4588
▁vuxenutbildning	-10.459
▁joavkkuid	-10.459
▁stáhtus	-10.4592
▁registrerad	-10.4592
kel	-10.46
▁klart	-10.4607
▁kraven	-10.4608
93	-10.4611
drar	-10.4612
osiid	-10.4613
▁plenars	-10.4616
▁áigeguovdil	-10.4616
▁påpeka	-10.4619
▁5-	-10.462
▁förväntningar	-10.4622
▁fastställts	-10.4622
▁čuovvulit	-10.4623
▁stärkas	-10.4626
.2.3	-10.4628
▁gulahallat	-10.4631
▁reform	-10.4631
duo	-10.4631
joga	-10.464
▁vár	-10.464
▁stáhtaráđđi	-10.4641
▁2.3	-10.4642
▁strategalaš	-10.4647
▁báikki	-10.4647
distrikt	-10.4653
industri	-10.4654
ašuvdna	-10.4655
▁gáiddusoahpahus	-10.4656
21	-10.4659
grund	-10.4659
▁överlämna	-10.4662
stortingsrapport	-10.467
▁utkast	-10.467
7.	-10.4672
▁hedmark	-10.4685
▁resolution	-10.4685
▁árvaluvvo	-10.4685
▁sihkkojuvvo	-10.4685
▁bargiidbellodat	-10.4685
▁uppmärksamhet	-10.4685
▁čuožžu	-10.4685
▁eanandoallu	-10.4685
läge	-10.4689
basen	-10.4689
▁teknik	-10.4693
▁lassánit	-10.4693
▁vugiin	-10.4694
▁árbevieruid	-10.4695
▁varanger	-10.4698
▁visas	-10.4698
snivå	-10.4702
▁följd	-10.4704
▁finner	-10.4705
stid	-10.4707
▁urfolks	-10.4708
▁ad	-10.4709
▁utmaningen	-10.471
bruk	-10.4712
vuogádat	-10.4716
▁čuokkis	-10.4717
ard	-10.472
▁investeren	-10.4723
aren	-10.4724
▁vahága	-10.4728
▁hantering	-10.4729
▁effektiv	-10.4731
prošeavttaide	-10.4737
bargguid	-10.4739
▁31.	-10.4739
▁halv	-10.4741
▁lotnolas	-10.4741
▁gula	-10.4742
▁demokrati	-10.4743
▁stipeandda	-10.4744
▁okto	-10.4748
▁trondheim	-10.4748
jođihangoddi	-10.4749
▁bakom	-10.4749
▁bohtosat	-10.475
▁nor	-10.475
▁manná	-10.4751
▁ekologalaš	-10.4752
▁gielaid	-10.4756
▁ovdánit	-10.4759
▁joatkkaskuvllas	-10.4761
ortnegii	-10.4762
▁dahkkojuvvot	-10.4763
▁bergen	-10.4764
▁ollugat	-10.4765
▁evenemang	-10.4768
▁representerar	-10.4768
▁ministerierna	-10.4769
jovkui	-10.4781
▁ki	-10.4781
▁underlig	-10.4782
beaivi	-10.4783
▁sv	-10.4783
johka	-10.4787
▁utarbetas	-10.4789
▁kárten	-10.4794
▁guovllustivr	-10.4797
▁interna	-10.4798
prošeavttaid	-10.4801
▁faktisk	-10.4804
▁ovddiduvvot	-10.4808
doarjjaortnegiid	-10.4811
▁fitnodagaid	-10.4812
▁professor	-10.4812
▁rigmor	-10.4812
▁specifikt	-10.4812
▁uhccán	-10.4812
østre	-10.4812
▁kulturmuittut	-10.4812
▁oassálasttii	-10.4814
▁anledningen	-10.4815
▁leva	-10.4816
birrasiid	-10.4817
ang	-10.4818
▁vuhtiiváld	-10.4818
▁jakt	-10.4819
▁ansvariga	-10.4819
▁åsikter	-10.4826
▁fágain	-10.483
▁metod	-10.4833
▁ásahusaide	-10.4841
administrationen	-10.4841
▁eaige	-10.4842
lobi	-10.4842
árvalusa	-10.4845
▁4.3	-10.4845
kompetens	-10.4846
▁väst	-10.4847
behandling	-10.4847
90	-10.4848
ovdáneami	-10.4864
▁privat	-10.4864
▁lån	-10.4869
▁etablerade	-10.487
bord	-10.4873
data	-10.4873
▁guorahallama	-10.4873
▁research	-10.4876
▁centralbyrån	-10.4876
▁kulturarvsskydd	-10.4876
▁boazosápmelačča	-10.4877
▁árjjalaččat	-10.4877
▁heahte	-10.4877
▁gaskkustit	-10.488
▁informera	-10.488
sområdet	-10.4886
arbetet	-10.4892
▁čujuh	-10.4893
▁áššedovdi	-10.4896
erejuvvon	-10.4898
pro	-10.4899
▁eaktuduvvo	-10.4899
▁váttisvuođaid	-10.49
▁daddjo	-10.49
▁oahpponeavvu	-10.4901
▁julevsámegiela	-10.4903
▁följt	-10.4904
▁kvar	-10.4907
ráđđái	-10.4914
▁sohkabeal	-10.4915
▁eahpe	-10.4916
▁čielggadan	-10.4917
▁resurserna	-10.4921
▁former	-10.4921
▁lágádusa	-10.4922
▁čájehan	-10.4926
▁nordisk	-10.4927
▁oaidnu	-10.4928
▁publiceras	-10.4929
situation	-10.4933
▁erkänn	-10.4935
▁thomas	-10.494
rum	-10.494
▁artihkkalis	-10.494
▁tlf	-10.4941
▁vattenbruk	-10.4941
▁fylkkagielddaid	-10.4942
▁gárged	-10.4943
000,-	-10.4944
▁sandra	-10.4947
▁bosättningar	-10.4952
norge	-10.4956
▁tjänste	-10.4961
hantering	-10.497
▁förnyelse	-10.4972
dutkama	-10.4979
▁regiovnna	-10.4982
▁biddjojuvvot	-10.4984
▁påpekade	-10.499
▁leamašan	-10.4993
▁förtroende	-10.4994
▁jon	-10.4995
▁vejola	-10.4999
▁ássi	-10.5002
▁identifiera	-10.5005
▁árbediehtu	-10.5005
▁delegera	-10.5005
▁1978	-10.5005
▁design	-10.5006
▁nbr	-10.5006
▁betydligt	-10.5006
▁ovttaárvosaš	-10.5006
▁ärendehantering	-10.5007
▁máŋggalágan	-10.5009
intressen	-10.501
▁eva	-10.5011
▁avdelning	-10.5012
▁minoriteter	-10.502
▁77	-10.502
ämnen	-10.5023
▁utgångspunkt	-10.5026
▁struktuvrra	-10.5027
jor	-10.5027
▁raportere	-10.5035
▁juste	-10.5036
▁upphör	-10.5038
▁fonden	-10.5041
▁diskussion	-10.5042
tiska	-10.5042
dahje	-10.5046
▁praktiska	-10.5047
▁anger	-10.5048
▁policy	-10.5055
▁ádde	-10.5057
▁2013.	-10.5063
▁dáhpáhuvvat	-10.5071
▁hilgojuvvui	-10.5071
▁sisttisdoallá	-10.5071
▁lärarhjälpmedel	-10.5071
▁mikkelsen	-10.5072
▁čielggad	-10.5074
senter	-10.5076
▁fält	-10.5078
▁övergång	-10.5082
▁gullevaš	-10.5083
▁skuvlajagi	-10.5083
▁fattas	-10.5084
▁nuorain	-10.509
ávdnasiid	-10.509
▁álggus	-10.5094
▁álggahus	-10.5094
organisašuvnnat	-10.5096
▁livs	-10.5103
▁anläggningar	-10.5105
▁ökas	-10.5107
▁buohtastahttit	-10.5109
▁museat	-10.511
▁lávdegoddái	-10.5111
finnmárkkus	-10.5112
▁handels	-10.5114
▁beales	-10.5118
handling	-10.5119
▁mearkkašumiid	-10.5122
▁searvvai	-10.5124
▁árvu	-10.5125
igt	-10.5127
juo	-10.5131
roll	-10.5132
▁almmuh	-10.5135
▁utrymme	-10.5137
▁pengar	-10.5137
▁čieža	-10.5137
▁helst	-10.514
▁ovttasbargat	-10.5141
▁deattuhan	-10.5142
veahkki	-10.5145
hkan	-10.5145
struktur	-10.5146
▁pågående	-10.5148
▁alde	-10.5153
inna	-10.5156
▁analysa	-10.5157
surggiin	-10.5158
söker	-10.5172
pmi	-10.5173
guvlui	-10.5176
▁planerade	-10.5179
manno	-10.518
anläggningar	-10.518
▁resultatet	-10.5182
▁analyser	-10.5183
▁gulahall	-10.5184
▁sameting	-10.5187
▁earáid	-10.5192
sutveckling	-10.5194
▁huitfeldt	-10.5203
▁liikká	-10.5203
▁dehálaččat	-10.5203
går	-10.5203
mor	-10.5204
▁hälsoforskning	-10.5208
▁hålls	-10.5208
▁bellodaga	-10.521
muššan	-10.521
▁siste	-10.5211
fonder	-10.5211
▁čalmmustahttit	-10.5212
▁agi	-10.5215
▁2.4	-10.5216
▁miljön	-10.5217
eai	-10.5218
▁ovttasbargui	-10.5219
▁spelar	-10.522
▁gárvvis	-10.5221
▁driftskostnader	-10.5222
▁dö	-10.5223
dagen	-10.5225
struktuvrra	-10.5231
siida	-10.5232
tall	-10.5237
räkenskaperna	-10.5241
rapporten	-10.5241
▁nedgången	-10.5242
▁fálaldagaid	-10.5244
▁guđa	-10.5245
▁museums	-10.5247
hjälp	-10.5248
olmmoš	-10.5248
▁definiera	-10.5249
▁höja	-10.525
2019	-10.5251
skott	-10.5253
▁möjlig	-10.5257
▁(19	-10.5258
▁forskare	-10.5263
▁goassege	-10.5269
▁karaktär	-10.5269
▁öppet	-10.5269
▁fastställs	-10.5269
▁máhtolašvuohta	-10.5269
▁fortsättning	-10.527
▁dulka	-10.527
▁primärindustrin	-10.5271
▁máttasámi	-10.5272
▁landskap	-10.5272
▁oidnosii	-10.5273
▁museaid	-10.5273
▁stáhtačálli	-10.5274
▁ski	-10.5275
▁delas	-10.5276
▁heaittihuvvo	-10.5278
▁behandlat	-10.5279
bargi	-10.528
/04	-10.5283
▁suppleant	-10.5285
skydd	-10.5288
▁gáibádusat	-10.5289
ats	-10.5294
▁jođih	-10.5299
▁talade	-10.5304
rna	-10.5306
▁lärarna	-10.5306
▁uppmuntra	-10.5308
lenarsammanträde	-10.5311
▁vägen	-10.5317
▁gillá	-10.532
▁förmån	-10.5323
▁detsamma	-10.5332
jumi	-10.5332
▁lätt	-10.5335
julggaštusa	-10.5335
▁artihkkala	-10.5335
▁teknihkalaš	-10.5337
▁oassálastin	-10.5338
▁sprida	-10.5339
▁kalv	-10.5341
▁álkit	-10.5341
▁startade	-10.5346
▁positioner	-10.5349
▁rahpa	-10.535
ussii	-10.5352
▁amas	-10.5355
▁gielddaiguin	-10.5361
diggedieđáhus	-10.5363
▁čalmmustahtt	-10.5375
▁riikkalaš	-10.5376
finnmárkkuopmoda	-10.5382
dutkan	-10.5387
▁riikkain	-10.5387
▁individen	-10.5388
uppgifter	-10.5391
let	-10.5399
vuogádagas	-10.5402
direktoráhtta	-10.5404
▁buorrin	-10.5404
▁sirdit	-10.5404
▁njuo	-10.5405
▁áirasiid	-10.5405
▁lättare	-10.5406
▁kulturárbbi	-10.5408
▁bajit	-10.5409
▁dárbbašuvvojit	-10.5412
/11	-10.5414
▁báikenamaid	-10.5414
▁heid	-10.5414
hámi	-10.542
▁säkerställas	-10.5424
▁dagar	-10.5425
▁baserade	-10.5427
▁ráddjejuvvon	-10.5427
zon	-10.5433
▁vårdtjänster	-10.5434
▁förvänta	-10.5437
▁divvun	-10.5438
▁doaibmadoarjja	-10.544
former	-10.5441
▁šiehtadallamiid	-10.5441
▁čoahkkimat	-10.5443
▁biologala	-10.5445
▁3.4	-10.5449
▁fágaid	-10.5449
▁fitnodaga	-10.5451
byrå	-10.5452
▁fáttá	-10.5453
▁dutkanráđi	-10.5453
historia	-10.5453
▁kulturrådet	-10.5455
lgg	-10.5457
áššit	-10.5457
oassálasti	-10.5458
▁valda	-10.546
▁joavko	-10.5464
sförvaltningen	-10.5465
org	-10.5467
njárgga	-10.547
▁ráhkaduvvo	-10.547
▁oarje	-10.5472
▁marthinsen	-10.5472
▁duohken	-10.5472
▁inlett	-10.5472
dárkkisteaddji	-10.5473
▁bindande	-10.5473
▁renägare	-10.5473
▁ovdamearka	-10.5474
▁indre	-10.5478
▁minskar	-10.5478
▁källa	-10.5479
iseren	-10.5482
ortnegat	-10.5482
doallu	-10.5487
▁attraktiv	-10.5489
▁framför	-10.5489
samerna	-10.5489
▁geasa	-10.5503
earrá	-10.5511
▁anpassad	-10.5516
▁kvaliteten	-10.5518
▁beroštumit	-10.5518
foanda	-10.5528
bargo	-10.553
▁suo	-10.5539
▁geavaheaddjit	-10.554
▁ändrad	-10.554
saemiej	-10.5541
▁åsjord	-10.5541
▁teakstaoassi	-10.5541
▁čoavdit	-10.5542
▁mihttomeari	-10.5542
▁inställning	-10.5544
▁bargoaddi	-10.5544
▁förfaranden	-10.5545
▁59	-10.5547
▁272	-10.5548
▁skett	-10.5548
ighet	-10.5551
▁dis	-10.5552
áid	-10.5554
▁beskrivning	-10.5555
ođastus	-10.5559
▁eanetlogu	-10.5566
▁mátkeealáhusa	-10.5567
bargiid	-10.557
▁ton	-10.5574
2000	-10.5575
▁kulturellt	-10.5575
▁fylkasuohkan	-10.5577
▁minskade	-10.5578
▁tryck	-10.5585
▁olmmošvuoigat	-10.5585
▁vástádus	-10.5587
metod	-10.5588
▁almmuhuvvon	-10.5589
värde	-10.5593
▁2012:	-10.5594
konferensen	-10.5594
heter	-10.5595
teknologiija	-10.5597
▁diibmo	-10.5597
▁čie	-10.5601
▁2019.	-10.5602
▁bäst	-10.5603
návcca	-10.5605
▁tillräcklig	-10.5605
▁kostnads	-10.5607
▁davvisámegillii	-10.561
▁dološ	-10.561
▁gávpot	-10.561
▁iešmearridan	-10.561
viessu	-10.561
▁gaskaboddosaš	-10.5612
▁tanke	-10.5614
▁geavaha	-10.5614
▁fel	-10.5617
golut	-10.5618
▁intäkter	-10.5624
träd	-10.5634
26	-10.5638
▁nytta	-10.5642
hálddahus	-10.5647
hahtti	-10.5647
▁čoavddus	-10.5648
▁överföring	-10.5649
▁konvenšuvdna	-10.565
▁initiera	-10.5659
▁nordlánddas	-10.5659
umi	-10.5664
▁rådsmedlem	-10.5667
đe	-10.5668
▁underlättar	-10.567
▁fysisk	-10.5673
▁beredskap	-10.5679
▁doibmet	-10.5679
▁duođalaš	-10.5679
▁stuorimus	-10.5679
▁kroner	-10.5679
▁sälj	-10.5679
▁olmmošlohku	-10.5682
▁98	-10.5693
▁romsa	-10.5695
amhällsvetenskap	-10.5696
▁die	-10.5697
▁boasttu	-10.57
▁girjji	-10.57
▁regering	-10.5703
ossodat	-10.5704
▁sál	-10.5705
▁vuođđooahpahusa	-10.5705
▁nubbingiellan	-10.5707
institušuvnna	-10.571
▁08.	-10.5714
▁lassán	-10.5714
▁áiggiid	-10.5718
▁ägar	-10.5723
▁ministerier	-10.5726
sami	-10.5727
▁máksojuvvot	-10.5736
▁tele	-10.5738
▁doktorand	-10.574
▁förklaring	-10.5742
▁fárren	-10.5743
▁kravet	-10.5744
ovttasbarggu	-10.5746
▁veahkke	-10.5748
é	-10.5748
▁koppling	-10.5749
▁eastadit	-10.5749
▁munnje	-10.5749
▁§§	-10.5751
▁osiid	-10.5751
▁áltá	-10.5754
datumet	-10.5754
▁kvena	-10.5754
▁genomfört	-10.5759
-12	-10.5763
▁kyrko	-10.5763
▁tradition	-10.5766
ásahusaid	-10.577
▁čájehuvvo	-10.5775
▁patienten	-10.5785
▁ursprunglig	-10.5786
▁láhččojuvvo	-10.5786
▁trend	-10.5787
material	-10.5789
60	-10.579
ny	-10.5794
doallo	-10.5798
fjorden	-10.5799
▁forskningsråd	-10.5801
▁förlust	-10.5804
▁dulko	-10.581
27	-10.5811
▁södersamisk	-10.5814
▁definition	-10.5819
▁global	-10.5819
▁integration	-10.5819
▁ståndpunkt	-10.5819
▁árvvoštallá	-10.5819
▁ovddádusbelloda	-10.5819
▁neiden	-10.5819
▁bjar	-10.582
▁tillhörighet	-10.582
▁väldig	-10.582
▁duođai	-10.5821
▁isaksen	-10.5821
▁sökandebaserade	-10.5821
▁motsvarar	-10.5824
▁förebyggande	-10.5825
▁ovdána	-10.5827
▁festivaler	-10.5827
guovllut	-10.5827
▁čohkke	-10.5827
▁nordliga	-10.5827
▁utarbetat	-10.5832
▁oaivila	-10.5834
▁čoahkkimiin	-10.5835
▁materiella	-10.5836
▁fra	-10.5838
▁barnskyddet	-10.584
▁kulturásahusaid	-10.5847
kurser	-10.5848
lái	-10.5849
▁ramvillkoren	-10.5851
▁máhtte	-10.5852
ahpaheaddjeoahpu	-10.5862
▁läraren	-10.5871
▁paragráfa	-10.5872
▁diskuterat	-10.5878
veahki	-10.588
representant	-10.5881
▁spel	-10.5883
máhttu	-10.5883
utbud	-10.5886
▁publicering	-10.5888
▁öppen	-10.589
▁health	-10.589
▁riksrevisionen	-10.589
▁olgoriika	-10.589
▁snabbt	-10.589
▁dásseárvvu	-10.5891
▁diehtu	-10.5895
▁rapporterar	-10.5895
▁konstitution	-10.5896
▁2007.	-10.5897
▁sáddejuvvojit	-10.5898
region	-10.5903
▁lagkommittén	-10.5907
▁suodjaleami	-10.5907
▁válljejuvvo	-10.5909
▁association	-10.5917
▁modell	-10.5917
▁påverkas	-10.592
▁artist	-10.5929
stipeanda	-10.5935
▁studenten	-10.594
šiehtadusat	-10.5948
sprocesser	-10.595
▁förlora	-10.5951
vuotna	-10.5955
▁nrl	-10.5959
bibliotehka	-10.5962
fullmäktige	-10.5962
▁automatiskt	-10.5962
▁koordinere	-10.5962
▁mobbning	-10.5962
▁seailluhit	-10.5962
▁framsteg	-10.5962
▁input	-10.5962
▁preassa	-10.5963
▁deanus	-10.5964
▁hilde	-10.5966
▁mannat	-10.597
▁svenska	-10.5972
▁perspektiivva	-10.5974
▁deaivvadit	-10.5976
▁internat	-10.5976
▁175	-10.5977
kal	-10.598
▁sierranas	-10.5983
▁länk	-10.5985
▁3-	-10.5991
▁birrasii	-10.5993
▁rättighets	-10.5998
▁skriftligt	-10.6
one	-10.6002
▁kulturarvs	-10.6007
▁guolásteami	-10.6008
pris	-10.6008
rusttega	-10.6015
▁bagad	-10.6017
▁stat	-10.6023
reg	-10.6025
co	-10.6025
▁administreras	-10.6026
▁guohton	-10.6031
▁utsetts	-10.6033
▁buohtastahttá	-10.6034
▁prioritet	-10.6034
▁láilá	-10.6034
▁samrådet	-10.6036
biras	-10.6037
▁sd	-10.6037
▁oasseváldi	-10.6038
▁vuhtiiváldit	-10.6044
▁birrasiid	-10.6045
▁påpekat	-10.6046
miljö	-10.6046
gt	-10.6047
▁drifts	-10.6049
▁čuovvolan	-10.607
▁suf	-10.6071
▁utvecklar	-10.6072
▁historisk	-10.6084
▁ruhtaduvvo	-10.6086
▁slutförts	-10.6086
▁2018.	-10.6091
giel	-10.6092
válddi	-10.6099
▁vindkraft	-10.6099
mihttomearri	-10.61
▁rutiner	-10.6101
▁skjut	-10.6102
▁ägande	-10.6102
▁kruvnno	-10.6106
▁ovttadássásaš	-10.6106
▁tillhandahåller	-10.6106
▁viežžat	-10.6106
▁deltagare	-10.6106
▁jämställdhets	-10.6106
▁moadde	-10.6106
▁nuppe	-10.6107
▁hjälpmedel	-10.6107
▁syd	-10.6109
▁6.3	-10.6114
mar	-10.6119
▁5.3	-10.612
formulär	-10.6123
▁utkastet	-10.6123
▁kallade	-10.6125
hemiid	-10.6127
▁utvärderingen	-10.6133
▁röstlängd	-10.6135
stipendier	-10.6135
elsen	-10.6141
▁definieras	-10.6142
▁institute	-10.6142
▁expertis	-10.6144
▁metoder	-10.6147
▁guhkk	-10.6151
ovddasvástádusa	-10.6155
förmåner	-10.6156
beslut	-10.6157
▁begränsad	-10.6159
fápmuduvvo	-10.6163
▁etniska	-10.6169
kampanj	-10.6179
▁bestämma	-10.6179
▁meroštallojuvvo	-10.6179
▁vurdojuvvo	-10.6179
▁máksá	-10.6179
▁kåre	-10.6179
▁ávnnaslaš	-10.6179
▁oallug	-10.6179
▁dohko	-10.618
▁hálddašanguvlui	-10.6181
▁kruvnnuin	-10.6182
▁geaidno	-10.6184
▁teaksta	-10.6185
▁etiska	-10.6186
dárbbu	-10.6187
▁ned	-10.6189
▁nordiskt	-10.619
▁unik	-10.619
ovddideaddji	-10.6191
▁familjen	-10.6195
ordning	-10.6197
▁nissonat	-10.6201
▁dit	-10.6203
▁kring	-10.6203
odaga	-10.6204
▁beräkning	-10.6208
▁skolans	-10.6209
▁termer	-10.6209
▁läroplanerna	-10.6209
samling	-10.6211
▁kör	-10.6214
▁funnits	-10.6218
▁sturrodaga	-10.6219
▁bálvalusat	-10.6219
byggnad	-10.6225
modell	-10.6229
▁avsatts	-10.6234
▁festival	-10.6234
▁renantal	-10.6238
▁jođiha	-10.6241
▁riska	-10.6242
▁museet	-10.6243
▁invändningar	-10.6244
▁virge	-10.6247
virggi	-10.6253
▁omstrukturering	-10.6253
▁ravna	-10.6253
▁guovdu	-10.6253
registarii	-10.6253
▁nyvoll	-10.6254
▁ortnegii	-10.6255
▁to	-10.6255
▁buvttadit	-10.6255
bestånd	-10.6256
▁poasttas	-10.6257
▁bodde	-10.6259
▁äganderätt	-10.6262
▁geavaheddjiide	-10.6262
▁guđege	-10.6263
myrnes	-10.6266
▁arv	-10.6271
▁kartlägga	-10.6272
▁350	-10.6275
▁buoremusat	-10.6278
finansiering	-10.6278
gáš	-10.628
-11	-10.6281
▁riktade	-10.6283
skuvllas	-10.6284
▁gielddalaš	-10.6284
▁finnmárkkulága	-10.6284
▁ohcamiid	-10.6284
▁jápm	-10.6287
▁anslaget	-10.6289
förslag	-10.6289
▁inre	-10.6295
▁nammaduvvon	-10.6296
▁isa	-10.6298
▁čálih	-10.6312
▁personen	-10.6312
▁ulbmillaš	-10.6316
▁ei	-10.6317
smaterial	-10.632
▁jienastuslogus	-10.6321
▁váhnemiid	-10.6322
▁josef	-10.6326
▁njoammu	-10.6327
▁hantverk	-10.6328
▁nuortasámi	-10.6328
▁máhttolokten	-10.6329
▁nilssen	-10.633
bbinjođiheaddji	-10.633
▁bellodat	-10.633
▁hanteras	-10.6333
▁journal	-10.6333
▁psykisk	-10.6334
▁ágga	-10.6334
▁rekruttere	-10.6335
▁muitalii	-10.6335
▁dry	-10.6336
bálvalusaide	-10.6338
smöjligheter	-10.6341
per	-10.6343
▁gilvo	-10.6344
-10	-10.6346
▁5.2	-10.6347
▁fuo	-10.636
▁tom	-10.6363
romssas	-10.6365
▁omfattningen	-10.6367
▁pre	-10.6368
▁guoski	-10.6369
syn	-10.637
▁regulere	-10.6373
mmi	-10.6376
bušeahta	-10.6379
▁gran	-10.6383
▁deklaration	-10.6383
dalen	-10.6385
hand	-10.6386
álgga	-10.6388
▁dárbbuide	-10.6389
sápmelačča	-10.6393
lin	-10.6398
skrift	-10.64
▁jønsson	-10.6401
▁känner	-10.6401
▁licenstagare	-10.6401
▁ámmát	-10.6401
eiseváldi	-10.6401
▁davimu	-10.6401
▁álggii	-10.6401
▁mamma	-10.6402
ministeriets	-10.6403
▁1987	-10.6404
hem	-10.6404
▁övergrepp	-10.6404
▁tull	-10.6405
šiehtadusas	-10.6407
▁varför	-10.6412
▁va	-10.6412
eana	-10.6422
▁mearkkaš	-10.6422
varande	-10.6423
▁huksemii	-10.6426
▁girjjis	-10.6426
läggning	-10.643
▁nedgång	-10.6433
ansvar	-10.6437
▁mjölk	-10.6438
▁divššu	-10.6438
▁iskkadeami	-10.6439
så	-10.6439
▁konsešuvdna	-10.644
▁mátkki	-10.6445
▁bank	-10.6448
▁extern	-10.6448
▁lärarhjälp	-10.6456
▁meannudeapmái	-10.6458
ášii	-10.6459
biblioteket	-10.646
▁almmolašvuođa	-10.6461
▁införliva	-10.6461
▁majoritets	-10.6463
▁vardag	-10.6464
heten	-10.6467
2004	-10.647
▁saltfjellet	-10.6477
▁elektrovnnala	-10.6477
▁buorrán	-10.6477
▁titel	-10.6477
▁riddoguolástus	-10.6477
▁brett	-10.6477
▁beviljande	-10.648
šiehtadussii	-10.6481
organisašuvnna	-10.6483
▁kris	-10.6488
▁teknologiija	-10.649
▁sikt	-10.6492
▁váldojuvvojit	-10.6492
meahttun	-10.6497
mearrádus	-10.6499
▁duddjo	-10.6505
doaimmahat	-10.6507
▁förväg	-10.6507
vinn	-10.6507
▁dovdda	-10.6508
▁vuogádat	-10.6514
álbmoga	-10.6519
▁fitnodagat	-10.6519
ettiin	-10.652
giin	-10.6521
▁orrun	-10.6522
▁95	-10.6522
▁generation	-10.6524
ivčče	-10.6531
▁davviriikkaid	-10.6535
▁nanu	-10.6538
▁sol	-10.6539
▁900	-10.6542
ráv	-10.6542
▁träffade	-10.6548
za	-10.6551
▁duogáži	-10.6552
▁gokčat	-10.6552
▁kommersiell	-10.6552
▁dieđusge	-10.6553
▁bissu	-10.6553
▁avstånd	-10.6554
▁earet	-10.6554
▁hanssen	-10.6555
▁lansera	-10.6556
▁släktingar	-10.6558
analys	-10.6559
▁varav	-10.6559
▁total	-10.656
▁löne	-10.6564
suodjalus	-10.6564
▁guide	-10.6565
▁konsekvensbedöm	-10.6566
▁dus	-10.6568
▁áššiide	-10.6569
▁språkprojekt	-10.6569
krävande	-10.657
▁nordnorsk	-10.6572
surggiide	-10.6576
▁beaktil	-10.6576
▁yrkesutbildning	-10.6577
▁sivas	-10.6582
▁utnämning	-10.6585
haga	-10.6585
▁mötesplatser	-10.6589
▁kártet	-10.6589
øve	-10.6591
▁viesu	-10.6592
formálalaš	-10.6593
▁ipmárdusa	-10.6595
▁geatnegasvuođa	-10.6602
▁njuovvan	-10.6604
tyrelseledamöter	-10.6605
▁čuoggás	-10.6605
eari	-10.6607
▁vuogádaga	-10.6607
▁hållbart	-10.6612
▁diein	-10.6618
▁kött	-10.6618
▁2000:	-10.662
▁övervägas	-10.6621
▁ávkkástallan	-10.6627
▁annorlunda	-10.6629
▁davviguovlo	-10.6629
▁täcks	-10.6629
▁čuoččuh	-10.6629
▁miellahttu	-10.6629
amelagskommittén	-10.6629
▁čađaheapmái	-10.6629
▁saminor	-10.6629
▁sáhtii	-10.663
▁lihkostuvvan	-10.6632
buvtta	-10.6633
▁gret	-10.6634
▁innebära	-10.6634
▁kategori	-10.664
rings	-10.6641
strukturen	-10.6645
▁eaktu	-10.6646
ette	-10.6647
guovlluide	-10.6647
lačča	-10.6651
ealáhusaid	-10.6654
▁utvecklats	-10.6655
avdelning	-10.6659
▁juhkkojuvvo	-10.6662
▁čoahkkimiid	-10.6663
▁mitt	-10.6665
reformen	-10.6665
▁publikationer	-10.6666
sätter	-10.6669
dieđáhus	-10.6675
jä	-10.6677
beräkningsregler	-10.6678
▁eamiálbmogi	-10.668
▁användarna	-10.6683
▁förhandlings	-10.6685
▁mån	-10.6686
stipeandda	-10.6689
rådgivande	-10.6689
vuogi	-10.6692
goddi	-10.6694
▁subvention	-10.6697
▁daga	-10.6698
▁politiken	-10.6701
krav	-10.6703
▁ceavzi	-10.6705
gieldda	-10.6705
▁feedback	-10.6706
▁ihåg	-10.6706
▁kátjá	-10.6706
▁matematik	-10.6706
▁parliamentar	-10.6706
▁hinder	-10.6706
▁gieđahallat	-10.6706
odling	-10.6707
▁artihkkalat	-10.6707
▁ohcciid	-10.6709
från	-10.6718
▁girdi	-10.6719
▁čujuhan	-10.6721
juogo	-10.6722
▁reivve	-10.6722
▁fokusområde	-10.6724
▁bekräfta	-10.6724
▁sosiálabálvalus	-10.6724
▁274	-10.6725
▁publicerad	-10.6727
▁riv	-10.6729
▁goappaš	-10.6732
▁ealáhussan	-10.6732
▁ulbmiliidda	-10.674
▁lov	-10.674
▁dohkkeha	-10.6742
▁vára	-10.6743
eavttut	-10.6744
▁studeanttaid	-10.6744
▁markera	-10.6753
▁ees	-10.6757
▁dohkkehuvvot	-10.6757
aktier	-10.6758
▁handling	-10.6764
▁samling	-10.6765
▁vuoruheamit	-10.6772
▁listtu	-10.6779
eaddjit	-10.678
▁advokat	-10.6783
▁bekymra	-10.6783
▁replihka	-10.6783
▁ungefär	-10.6783
▁interaktion	-10.6783
▁soai	-10.6783
▁åtagande	-10.6784
▁vårdhem	-10.6785
▁guoska	-10.6786
▁förtydligande	-10.6787
▁ráđđe	-10.6788
▁normer	-10.679
▁sierralágan	-10.6792
ägare	-10.6793
seminára	-10.6795
▁doallo	-10.68
23	-10.68
▁dárogiel	-10.6801
▁sáhtte	-10.6803
▁förskolan	-10.6805
▁utbyte	-10.6806
▁registrerat	-10.681
▁staterna	-10.6819
▁undervisa	-10.682
▁máŋg	-10.6823
▁satt	-10.6829
hö	-10.6831
▁klar	-10.6832
sinstitutioner	-10.6838
medel	-10.6848
planering	-10.6853
▁anslut	-10.6857
▁fáttát	-10.6861
▁auktoritet	-10.6861
▁bidragsbrevet	-10.6861
▁ohppe	-10.6861
▁beskrivs	-10.6861
▁vejolažžan	-10.6862
▁rievdda	-10.6862
▁lágidii	-10.6863
▁board	-10.6863
▁ovttamielalaš	-10.6863
▁árjjalaš	-10.6867
ži	-10.6868
aktiivvalaš	-10.6869
▁jurdda	-10.687
htá	-10.687
▁dárkilet	-10.6872
▁kombination	-10.6875
splanen	-10.6878
▁samrådsmöte	-10.6886
▁aktiva	-10.6887
▁åge	-10.6887
vä	-10.6891
▁investerings	-10.6891
▁börja	-10.6892
▁föreskrifterna	-10.6894
▁konventioner	-10.6894
▁nammada	-10.6897
▁språkutveckling	-10.6897
▁giellaguovddáža	-10.6902
sámegieloahpahus	-10.6902
▁familj	-10.6904
doaimmaheami	-10.6907
▁arkiivva	-10.6913
▁bivdi	-10.6913
geavahus	-10.6917
ull	-10.6918
▁bestämmelse	-10.6918
▁tur	-10.6928
▁vahkus	-10.693
▁elliid	-10.6934
▁norrmän	-10.6935
▁loktet	-10.6937
šuvdnii	-10.694
▁nappo	-10.694
▁school	-10.694
▁vedhugnes	-10.694
▁láidest	-10.694
▁asbjør	-10.6941
▁förmod	-10.6941
▁ođasmahtti	-10.6941
▁marknaden	-10.6941
▁tidpunkt	-10.6942
▁minoritehta	-10.6943
▁doaibmagolut	-10.6944
▁dásseárvosaš	-10.6945
fond	-10.6947
pol	-10.6949
▁riegádan	-10.6949
▁årsmöte	-10.6954
▁summa	-10.6956
▁kunskaper	-10.6959
▁ved	-10.6959
iiva	-10.6959
proseassain	-10.6963
▁dihtor	-10.6966
son	-10.6969
▁ávdnasiid	-10.6971
čálli	-10.6971
▁författare	-10.6973
sregler	-10.6976
▁dom	-10.6981
▁eallit	-10.6983
kning	-10.699
marknad	-10.7001
▁samråden	-10.7001
▁avgifter	-10.7003
kontoret	-10.7006
▁mediaid	-10.7008
▁stáhtabušeahtas	-10.7011
▁anna	-10.7011
▁unjárgga	-10.7013
▁harstad	-10.7015
enhet	-10.7016
▁64	-10.7016
▁buohkain	-10.7019
▁erbjuds	-10.7019
▁formulera	-10.7019
▁máhttit	-10.7019
▁davve	-10.7019
▁dárkileappot	-10.702
▁överförs	-10.702
▁skuvlahistorjá	-10.702
▁maidege	-10.7021
▁dákko	-10.7021
▁tydligare	-10.7026
▁vuoruhan	-10.7026
smyndigheten	-10.7027
▁uteslut	-10.7027
▁ovddiduvvojit	-10.7027
gárd	-10.7031
▁sidor	-10.7032
tillstånd	-10.7032
▁oahpaheami	-10.7033
/20	-10.7033
▁eaiggáduššan	-10.7035
gii	-10.7036
▁stáhtusa	-10.7037
/3	-10.7039
▁čadnojuvvon	-10.7041
olaš	-10.7041
▁oaidnán	-10.7045
▁oaivil	-10.7049
juohku	-10.7049
▁buktagiid	-10.7049
▁perspektivet	-10.7055
▁ráhkadeami	-10.7057
centrum	-10.7057
▁sl	-10.7061
▁oahpus	-10.7065
▁minoritets	-10.7069
▁12.00	-10.7069
áviissa	-10.7082
aktie	-10.7083
skriterier	-10.7085
▁tänk	-10.7087
smöte	-10.7087
▁gáržžid	-10.7088
▁avsluta	-10.7091
▁relaterat	-10.7094
neavvu	-10.7098
▁diŋgo	-10.7099
▁inköp	-10.7099
intervju	-10.7099
▁arild	-10.7099
▁införandet	-10.71
▁johtilit	-10.7101
▁test	-10.7102
▁dohkkeheami	-10.7102
▁unnitlohku	-10.7102
▁jienasteami	-10.7105
beivviid	-10.7109
dre	-10.711
gáldu	-10.7111
ojuvvui	-10.7113
▁sáhkavuorrolist	-10.7115
▁váttisvuohta	-10.7115
2015	-10.7117
▁huksema	-10.7118
▁finn	-10.7119
policy	-10.7119
▁grupperna	-10.712
▁lärde	-10.712
deklarationen	-10.712
▁intern	-10.7122
▁nannejuvvot	-10.7123
▁jur	-10.7126
▁muital	-10.7139
▁klagomål	-10.7142
▁jordbrukare	-10.7143
kontrollkommitté	-10.7144
▁nordlands	-10.7145
▁rádje	-10.7145
▁geatnegahtti	-10.7151
bealit	-10.7158
diggedieđáhusas	-10.7161
▁renen	-10.7167
▁individuella	-10.7172
▁lassáneami	-10.7172
▁finnmárku	-10.7173
▁čohkket	-10.7174
▁profil	-10.7176
▁skyldig	-10.7179
▁föreslog	-10.718
▁siskkabealde	-10.718
▁sáltoduoddara	-10.718
▁utomlands	-10.718
▁čoahkkáigeassu	-10.718
▁ovttasdoaibman	-10.718
▁43/07	-10.7181
▁visot	-10.7181
▁dohkkeheapmi	-10.7181
▁rittu	-10.7181
▁positiivvalaš	-10.7181
▁geatnegahtt	-10.7182
▁oastit	-10.7184
▁läsåret	-10.7185
▁torsk	-10.7187
▁olahan	-10.7188
▁lassánii	-10.719
▁čađahuvvojit	-10.7191
vuođat	-10.7191
▁reivves	-10.7202
▁minskas	-10.7203
▁krävas	-10.7203
lašvuođa	-10.7204
šiehtadallamat	-10.7204
▁kommunernas	-10.721
miel	-10.7211
▁omfattning	-10.7217
▁konsultašuvnna	-10.7222
▁sihkkarastim	-10.7228
▁boarrásiid	-10.7228
▁utövare	-10.7229
▁museerna	-10.7232
▁rehketdoallu	-10.7237
▁genomsnittlig	-10.7238
organiserejuvvon	-10.7238
▁leavga	-10.7239
▁instrumenten	-10.7246
schema	-10.7249
33	-10.7258
▁gáivuona	-10.7258
nätverk	-10.7259
partiet	-10.726
▁dáhpáhuvvan	-10.7261
▁geahččá	-10.7261
▁hävda	-10.7261
▁jietna	-10.7261
▁vuovde	-10.7261
▁fastställer	-10.7262
▁váibmo	-10.7262
▁dáidaga	-10.7262
▁sundset	-10.7262
▁viiddidit	-10.7262
pdf	-10.7262
▁bajábealde	-10.7263
cu	-10.7263
24	-10.7264
▁branscher	-10.7264
▁läroplan	-10.7265
▁digaštallan	-10.7266
▁producera	-10.7266
▁heaittihit	-10.7267
samlingen	-10.7268
▁föräldrapenning	-10.7275
▁earáide	-10.7276
▁underlättande	-10.7277
▁international	-10.728
▁behandla	-10.728
báikkiid	-10.728
rehketdoallu	-10.7286
▁dárogielat	-10.7293
▁áhpe	-10.7293
▁66	-10.7293
▁vahágiid	-10.7293
▁čájeh	-10.7299
▁dohkkehuvvo	-10.73
sadji	-10.7304
▁vuoruhemiid	-10.7305
▁ing	-10.7308
▁31.12.	-10.7308
▁evalueren	-10.7316
▁hálddaš	-10.7321
▁geatnegasvuođat	-10.7327
ökande	-10.7328
▁báikenamma	-10.7331
▁mudde	-10.7332
49	-10.7338
▁2)	-10.7338
▁instituhta	-10.7339
▁överklaga	-10.734
▁övervakning	-10.734
▁principen	-10.7341
2013	-10.7342
▁prioritering	-10.7342
▁gymnasial	-10.7343
▁seksuála	-10.7343
▁ständigt	-10.7343
▁heivvolaš	-10.7343
▁hoppa	-10.7344
▁ansökningsdag	-10.7344
▁gradvis	-10.7344
▁skolägare	-10.7345
▁govvid	-10.7345
▁unnidit	-10.7345
▁giltig	-10.7348
▁etáhta	-10.7349
män	-10.735
▁kanada	-10.7351
skommissionen	-10.7353
▁drabbade	-10.7354
▁redovisning	-10.7355
▁tittar	-10.7356
fápmu	-10.7359
träder	-10.7364
▁arne	-10.7367
▁tjänsterna	-10.7367
▁nannemii	-10.7371
fonden	-10.7373
▁giv	-10.7375
▁sof	-10.7376
▁böcker	-10.7378
▁duođaštan	-10.7383
▁arrangera	-10.7387
siiddu	-10.739
▁dorjot	-10.7391
▁relaterad	-10.7392
dahkan	-10.7393
▁huru	-10.7395
▁länen	-10.7397
servviid	-10.7403
▁buvttaduvvo	-10.7403
styrelserna	-10.7404
uid	-10.7405
ovttasbargu	-10.7406
đđo	-10.741
dikki	-10.7413
▁duojis	-10.7414
▁árrat	-10.7418
rehketdoalu	-10.742
▁oahpaheaddje	-10.7425
▁njulge	-10.7426
▁implementera	-10.7426
▁landsbygds	-10.7426
▁lađđasis	-10.7426
▁mealgat	-10.7426
▁oktiiordne	-10.7426
▁pojkar	-10.7426
▁yrkesverksamma	-10.7426
▁čuohcá	-10.7426
▁dohkálaččat	-10.7426
▁modernisering	-10.7426
▁ođasmahttojuvvo	-10.7427
▁renägarna	-10.7427
▁förvaltas	-10.7427
▁váldoulbmil	-10.7429
čál	-10.7429
▁röstning	-10.7431
▁demokratisk	-10.7432
ock	-10.7432
regler	-10.7432
divada	-10.7438
lihtu	-10.7438
▁bakgrunden	-10.7442
žžan	-10.7447
▁beviljades	-10.7447
spr	-10.7449
▁alf	-10.7453
lie	-10.7453
▁99	-10.7453
▁rájáid	-10.7458
▁registreren	-10.746
▁álgoálbmogat	-10.7464
▁rekommenderar	-10.7465
▁700	-10.7467
▁fjordområden	-10.7467
▁hálddahusas	-10.7467
▁ark	-10.7469
▁finansieringen	-10.7472
▁tjänst	-10.7475
▁1.2	-10.7476
heapmái	-10.7476
vuođaid	-10.7476
vision	-10.7476
▁njuolggadus	-10.7478
▁sjuk	-10.7479
▁samhällena	-10.748
drag	-10.7486
geahč	-10.7488
▁gieđahallojuvvo	-10.749
▁debatten	-10.7492
▁doaibmabiju	-10.7494
plánaid	-10.7494
▁leverera	-10.7496
tv	-10.7496
vidareutbildning	-10.7497
▁šiehtadusaid	-10.7499
▁konferens	-10.7499
▁fáttáid	-10.75
▁spiehkast	-10.75
▁finanskommittén	-10.7503
kantuvra	-10.7503
▁stavning	-10.7507
kultuvrra	-10.7508
▁human	-10.7509
▁baicce	-10.7509
▁gynna	-10.7509
▁indikera	-10.7509
▁ássama	-10.7509
▁livsstil	-10.7509
▁soame	-10.7509
▁dajai	-10.7509
▁ássamii	-10.7509
▁jáhkki	-10.751
▁svein	-10.751
fl	-10.751
▁regerings	-10.751
▁nago	-10.7511
bidragsordningen	-10.7513
reaidu	-10.7513
▁utsett	-10.7514
▁doaibmaguovllu	-10.7516
▁mät	-10.7516
▁sániid	-10.7521
astin	-10.7525
tryck	-10.7526
skrav	-10.7528
lági	-10.7529
▁gáv	-10.7529
▁vuoi	-10.7534
ž	-10.7535
samer	-10.7537
▁lágat	-10.7539
poastta	-10.754
gaskkusteami	-10.7545
▁rámmat	-10.7546
▁divat	-10.7547
▁vetenskaplig	-10.7548
▁prošeavttas	-10.7554
▁betesområden	-10.7566
▁undersökningar	-10.7569
▁guovvamánus	-10.757
▁dalá	-10.7571
▁läkare	-10.7572
;,	-10.7577
▁guovddážii	-10.7578
▁vástádusa	-10.7581
▁ál	-10.7581
):	-10.7585
▁bargonávcca	-10.7587
▁skapas	-10.7587
ossodaga	-10.7591
ikt	-10.7591
▁politiker	-10.7592
▁dollojuvvu	-10.7592
lägger	-10.7592
▁máhca	-10.7593
▁álggos	-10.7593
▁rivttes	-10.7593
▁bidjet	-10.7593
▁áiggu	-10.7593
▁upplevt	-10.7593
skolor	-10.7594
▁kritisk	-10.7594
hálddašan	-10.7594
▁studeanttat	-10.7596
srapport	-10.7601
▁individuell	-10.7602
.4.1	-10.7602
▁basis	-10.7606
▁buolvva	-10.7608
▁modern	-10.7609
▁kammare	-10.7611
▁365	-10.7612
▁čájáhus	-10.7615
▁dikšu	-10.7618
▁orsaka	-10.7621
▁forskningsrådet	-10.7623
konferánsa	-10.7625
▁berättar	-10.7629
listor	-10.7634
▁formella	-10.7643
▁1)	-10.7649
▁upprättandet	-10.765
proseassaide	-10.765
prográmmaid	-10.766
▁utvinning	-10.7662
geahččan	-10.7667
▁vanligt	-10.7669
bealde	-10.767
▁miellahtut	-10.7673
▁guohtu	-10.7676
▁álbmogiid	-10.7676
▁geahččal	-10.7676
direktevra	-10.7677
vejolašvuođa	-10.7678
▁proportion	-10.7678
▁bestämmer	-10.7678
▁skånland	-10.7678
▁kommentera	-10.7678
báikái	-10.7678
▁dásseárvu	-10.7678
▁našunálateáhter	-10.7678
▁etihkalaš	-10.7679
▁digitalisering	-10.7679
▁persovnnalaš	-10.7679
▁3:	-10.768
tjänsten	-10.7683
▁prm	-10.7685
87	-10.7687
áhto	-10.7688
eddjiide	-10.7689
▁hámis	-10.769
▁nanus	-10.7695
stäm	-10.7696
▁1990-	-10.7698
ista	-10.7698
▁háliidan	-10.77
▁veckan	-10.7703
▁fágalaččat	-10.7705
▁bargga	-10.7706
ulbmil	-10.7711
tillväxt	-10.7714
▁kost	-10.7717
▁94	-10.7721
tiden	-10.7722
▁doaimmahuvvo	-10.7723
▁mearrádusain	-10.7724
dji	-10.7729
▁röstlängden	-10.773
heiveh	-10.7733
olbmot	-10.7736
joavkkuid	-10.7738
▁perspektiiva	-10.7741
28	-10.7741
▁såg	-10.7742
▁oahppofálaldaga	-10.7755
▁reguleren	-10.7755
fattar	-10.7756
▁dáru	-10.7756
▁fylkkagielddain	-10.7757
gå	-10.7763
báŋkku	-10.7764
▁distribution	-10.7764
▁iešalddis	-10.7764
▁miriam	-10.7764
jávrri	-10.7764
▁rimlig	-10.7764
▁jämlikhet	-10.7764
▁nač	-10.7764
▁glad	-10.7764
▁loppa	-10.7765
▁markägare	-10.7765
▁dáhtu	-10.7766
frp	-10.7766
▁norut	-10.7766
▁stuoradiggi	-10.7766
▁förändra	-10.7768
initiativ	-10.777
▁fullständig	-10.777
▁duođaštus	-10.7773
▁förmedla	-10.7775
▁láhkái	-10.7776
heim	-10.778
▁sand	-10.7782
▁olav	-10.7783
▁högst	-10.7786
bild	-10.779
▁inne	-10.7798
verktyg	-10.78
deltagande	-10.7801
konvenšuvdna	-10.7801
uva	-10.7802
▁ávžžuhuvvo	-10.7808
kommun	-10.7808
eallin	-10.7812
▁dovdat	-10.7813
▁kurssaid	-10.7813
far	-10.7814
▁boazodolliid	-10.7816
▁namuh	-10.7817
▁sámeálbmotfoand	-10.7818
.4.2	-10.7827
▁sommaren	-10.7827
▁eiseválddiide	-10.7829
▁orgánan	-10.7832
smyndighet	-10.7836
planer	-10.7837
httet	-10.7838
▁mar	-10.7838
eiseválddiid	-10.7838
▁jođán	-10.7841
▁osiin	-10.7845
alisering	-10.7847
34	-10.7849
rasttideaddji	-10.785
▁baicca	-10.785
▁dievdduid	-10.785
▁ekonomalaččat	-10.785
▁kännetecknas	-10.785
▁eanebu	-10.785
▁eiseválddiin	-10.785
▁gearddi	-10.785
▁jođus	-10.7851
▁efterfrågan	-10.7855
▁ahke	-10.7856
▁fárrejit	-10.7856
▁antog	-10.7857
▁verkliga	-10.7862
ök	-10.7862
▁bekräftas	-10.7863
▁fou	-10.7864
▁åtta	-10.7866
▁áigodat	-10.7872
▁oahpaheaddjin	-10.7872
valtningsområdet	-10.7884
guoski	-10.7889
linje	-10.7894
▁anslagen	-10.7897
vri	-10.7897
▁lund	-10.7898
arre	-10.7903
▁árvvus	-10.7903
▁či	-10.7904
▁runa	-10.7904
datte	-10.7906
httu	-10.7909
gohte	-10.791
igen	-10.7911
43	-10.7911
▁svåra	-10.7912
▁börjat	-10.7914
statssekreterare	-10.7916
▁sivaid	-10.7919
▁boken	-10.7921
▁ealáhussii	-10.7923
▁allaskuvllain	-10.7931
▁studien	-10.7933
▁gávnnahi	-10.7936
bargguin	-10.7936
mässig	-10.7937
▁brutto	-10.7937
▁dássážii	-10.7937
▁hammerfest	-10.7937
▁invånarna	-10.7937
▁njálmmálaš	-10.7937
▁stärks	-10.7937
▁sökarbaserade	-10.7937
▁1984	-10.7937
▁anteckning	-10.7937
▁romsdal	-10.7937
▁dárkkistit	-10.7937
▁grundskolelärar	-10.7937
▁riktning	-10.7938
▁ruvdnosa	-10.7938
▁mearrideaddji	-10.794
vieruid	-10.794
▁kallas	-10.7943
▁ovttastahttit	-10.7943
▁vest	-10.7946
▁lossa	-10.7948
▁negativ	-10.7948
▁ávkki	-10.7948
doaibmabijuide	-10.795
▁ásahuvvojit	-10.795
▁byn	-10.7951
▁integrera	-10.7954
▁šattaš	-10.7954
▁synlighet	-10.7955
▁gymnasie	-10.7955
▁čilgejuvvo	-10.7956
▁ságat	-10.7957
▁vinter	-10.7957
▁träffades	-10.7957
▁meannuda	-10.7957
▁rese	-10.7958
betalar	-10.7958
förmåga	-10.7959
▁välfärds	-10.796
▁anslutning	-10.7962
▁čea	-10.7962
▁áigumuša	-10.7964
▁visade	-10.7966
fak	-10.7967
▁köp	-10.7976
perspektiivva	-10.7978
▁svl	-10.7978
sreglerna	-10.7978
▁namuhuvvo	-10.7981
▁brott	-10.7987
▁2.5	-10.7988
oahppi	-10.7993
▁dikki	-10.7995
dán	-10.7997
▁strategiska	-10.7998
▁pri	-10.7999
▁kommittéer	-10.8006
▁čuvge	-10.801
ejuvvon	-10.8011
▁jienast	-10.8011
soahpamuš	-10.8014
▁filmma	-10.8018
▁stá	-10.8019
▁ollašuht	-10.8022
▁ávjovár	-10.8022
▁eaŋkil	-10.8024
▁demokráhtala	-10.8024
▁eurohpá	-10.8024
▁förfrågningar	-10.8024
▁konstnärer	-10.8024
▁giđa	-10.8024
▁biepmu	-10.8025
▁kapital	-10.8025
▁utvald	-10.8027
▁ovddasguvlui	-10.8028
▁vástidit	-10.8031
▁beaktilis	-10.8031
▁kulturmuitolága	-10.8034
▁etnisk	-10.8037
▁dieđiheami	-10.8038
▁stáhtabušeahta	-10.804
▁málle	-10.8041
▁sekretariat	-10.8043
galbba	-10.8044
▁nannema	-10.8045
▁stáhtaministtar	-10.8046
▁loahpahuvvo	-10.8047
▁förslagen	-10.8047
▁ráhkada	-10.805
▁metoda	-10.8053
▁87	-10.8053
listta	-10.8057
▁tilldelningen	-10.8063
▁utarbetats	-10.8063
säkerhet	-10.8064
▁dillái	-10.8067
resultat	-10.8068
seminarium	-10.8068
industriija	-10.8069
▁utvecklingsfond	-10.8071
▁bär	-10.8072
▁sund	-10.8072
▁konsultere	-10.8075
erbjudandet	-10.8077
sida	-10.808
vidareutveckling	-10.8081
▁leimme	-10.809
▁prinsihppa	-10.8092
▁ču	-10.8093
dollui	-10.8109
▁mánnái	-10.8109
▁festivalen	-10.8111
▁dievddut	-10.8113
▁hänvisning	-10.8113
▁nuppástuhttin	-10.8113
▁eadni	-10.8113
▁kvinnlig	-10.8113
▁1991	-10.8113
▁áinnas	-10.8113
▁piera	-10.8113
▁försvaga	-10.8113
▁haaker	-10.8113
▁veahkaválddi	-10.8113
▁landskommunen	-10.8113
▁museá	-10.8114
▁lokalsamhället	-10.8115
▁ásaheapmái	-10.8115
jin	-10.8116
ium	-10.8116
▁genomför	-10.8118
▁áimmahuššat	-10.8118
▁jođihan	-10.8119
idit	-10.8119
▁skriftlig	-10.8123
▁lagat	-10.8124
▁fastigheter	-10.8124
▁master	-10.8125
doarjagii	-10.8128
ahke	-10.813
▁oahpponeavvuide	-10.8132
▁árvalan	-10.8133
ång	-10.8133
▁förra	-10.8135
▁gymnasieskola	-10.8135
▁dikt	-10.8142
▁bár	-10.8142
▁ramplanen	-10.8148
▁arrangerade	-10.8155
šiehtadallamiid	-10.8159
presideantta	-10.816
▁ekologisk	-10.816
jja	-10.8162
bygg	-10.8164
ásahusat	-10.8165
.4.3	-10.8166
▁anmälan	-10.817
▁avdelningar	-10.8171
▁mötena	-10.8172
▁vaikk	-10.8173
istansutbildning	-10.8174
bellodaga	-10.8175
▁tillämpas	-10.818
▁inlärnings	-10.8189
▁företaget	-10.819
ttis	-10.8191
▁inkluderas	-10.8192
▁joavkkus	-10.8193
▁aviissa	-10.8195
atnegahttojuvvon	-10.8196
▁skyldiga	-10.8197
konferánsii	-10.8202
▁godkänt	-10.8202
▁nordkild	-10.8202
▁norwegian	-10.8202
▁rehabilitering	-10.8202
▁bearraša	-10.8202
▁deattuhii	-10.8202
▁tycker	-10.8202
▁konstatera	-10.8202
▁återbetalning	-10.8202
▁mearas	-10.8205
dahl	-10.8206
▁hálddašanorgána	-10.8207
▁soahpamuša	-10.8207
▁mannan	-10.8207
▁inrättats	-10.821
▁eli	-10.8211
▁ingått	-10.8211
reiner	-10.8217
▁kände	-10.822
▁ovdaskuvla	-10.8221
▁mielddusin	-10.8221
/15	-10.8224
▁gollomeroštalla	-10.8226
▁kriterierna	-10.8227
▁ealáhusdoaimma	-10.8227
▁oainnusmahtt	-10.823
vddii	-10.824
ism	-10.8242
▁kopplade	-10.8243
lohpi	-10.8246
▁mearrádusaide	-10.8249
▁representera	-10.8251
▁bieggafápmo	-10.8252
▁universitets	-10.8252
▁eal	-10.8259
▁grundlig	-10.826
bl	-10.826
▁bad	-10.8262
▁avslutat	-10.8265
▁sámegielain	-10.8265
▁kontinuerligt	-10.8269
.3.3	-10.8273
namma	-10.8273
resurs	-10.8274
sadministration	-10.8282
joavkkus	-10.8282
▁njuolggadusain	-10.8284
▁prioriterar	-10.8284
▁73	-10.8284
▁följde	-10.8285
▁jienastuslohku	-10.8286
▁samtal	-10.8286
lov	-10.8289
▁prioritere	-10.829
▁emellertid	-10.8292
▁geahpedit	-10.8292
▁geahppán	-10.8292
▁känna	-10.8292
▁psyhkala	-10.8292
▁árvoháhkama	-10.8292
▁revišuvdna	-10.8292
▁förankra	-10.8292
▁álgit	-10.8292
▁reindrift	-10.8292
▁1976	-10.8292
▁deatnu	-10.8292
▁saknar	-10.8293
▁världs	-10.8293
▁dárbbašlažžan	-10.8293
▁eanadollui	-10.8293
▁vuolábealde	-10.8293
komitea	-10.8294
▁luondduvuđđosa	-10.8294
▁texter	-10.8294
▁rekryterings	-10.8294
▁gustojeaddji	-10.8294
text	-10.8296
▁digaštallat	-10.8299
▁91	-10.83
▁hábmen	-10.8307
▁nuppást	-10.831
▁fálaldagat	-10.831
▁representanten	-10.831
▁funktioner	-10.8312
▁skuvllaide	-10.8313
mearrádusaid	-10.8314
▁jávka	-10.8316
▁utredning	-10.8319
▁ohcamuša	-10.8321
▁händer	-10.8323
▁kostnad	-10.8325
samhället	-10.8325
▁vuolgga	-10.8331
▁71	-10.8339
▁dr	-10.834
▁lämnar	-10.8344
sändningar	-10.8347
▁vuor	-10.8347
▁joatká	-10.8349
räkning	-10.835
duvvui	-10.8359
▁sáhtáš	-10.836
▁mađ	-10.8362
▁lyckas	-10.8373
▁servodagain	-10.8375
sajiid	-10.8381
▁intressant	-10.8383
▁plenarledningen	-10.8383
▁ruoktot	-10.8383
▁fállá	-10.8383
▁ryska	-10.8383
▁beaive	-10.8383
▁boahtteáigái	-10.8383
▁čatnasa	-10.8384
▁teakstaoasi	-10.8384
▁samrådsavtalet	-10.8384
brev	-10.8386
▁ledde	-10.8387
▁meter	-10.8388
▁signaler	-10.839
▁plenarsessionen	-10.839
▁arktis	-10.8391
uppbyggnad	-10.8394
▁vuđola	-10.8395
hálddašeamis	-10.8397
▁medvetenhet	-10.8398
aktörer	-10.8399
▁61	-10.8402
kommissionen	-10.8403
▁modealla	-10.8403
ámegieloahpahusa	-10.8408
▁termen	-10.8413
▁tidigt	-10.8414
▁2005:	-10.8423
tihkka	-10.8424
▁surggiid	-10.8427
▁gozih	-10.8428
ovttadaga	-10.843
▁nyhet	-10.843
nummer	-10.8435
böcker	-10.8435
▁kárte	-10.8438
▁konkreta	-10.8438
▁vuohki	-10.8441
▁norgii	-10.8442
minst	-10.8448
▁doaba	-10.8448
▁allvarlig	-10.8449
▁girji	-10.8455
▁bivddu	-10.8457
▁dikšun	-10.8457
sverksamhet	-10.8458
▁dieđihuvvo	-10.8458
▁4-2	-10.846
▁proseassas	-10.8461
▁prinsihpaid	-10.8461
▁lahttun	-10.8461
▁mearrádusas	-10.8464
▁mina	-10.8465
▁siiddu	-10.8466
▁teavstta	-10.8466
▁čielggadus	-10.8466
ruđat	-10.8469
▁fápmo	-10.847
▁sámedikkiid	-10.8471
▁förverkliga	-10.8472
▁giehta	-10.8472
▁byggnad	-10.8473
▁iehčanas	-10.8475
▁bredband	-10.8475
▁garantera	-10.8475
▁maŋit	-10.8475
▁muhtumat	-10.8475
▁fápmudus	-10.8475
▁agenda	-10.8475
▁soahpan	-10.8475
▁šatta	-10.8476
▁beskrive	-10.8477
▁notáhta	-10.8478
luohkká	-10.8478
▁reive	-10.8479
▁stuoris	-10.8479
jođiheddjiid	-10.848
▁ovdalis	-10.848
▁stáda	-10.8482
▁lärling	-10.8487
▁bearráigeahču	-10.8489
guovd	-10.849
▁nannejuvvon	-10.849
▁váhnenruđa	-10.8492
▁lulesamisk	-10.8493
▁förvärva	-10.8493
ádus	-10.8494
kantuvrra	-10.8496
▁hot	-10.8497
▁städerna	-10.8497
▁lämpliga	-10.8501
sfrågor	-10.8508
▁ásahusaiguin	-10.8508
▁mandatet	-10.8512
populationen	-10.8513
▁serve	-10.8514
▁relationer	-10.8522
uori	-10.8523
▁nordområde	-10.8525
▁pågår	-10.853
▁válddah	-10.8531
vejolašvuohta	-10.8531
▁företagen	-10.8533
eaiggádat	-10.8536
▁varor	-10.8537
▁stivre	-10.854
▁ovddastus	-10.8545
▁huksejuvvo	-10.8546
studier	-10.8546
▁uttalanden	-10.8547
arkivet	-10.8547
▁undvika	-10.8547
▁čalmmus	-10.8549
▁dovddaha	-10.8558
hpe	-10.8562
▁sárdnun	-10.8566
▁ledig	-10.8566
▁alimus	-10.8567
▁čoahkke	-10.8567
plattform	-10.8568
▁flickor	-10.8568
▁láhčá	-10.8568
▁opmodat	-10.8568
▁representativ	-10.8568
▁áhčči	-10.8568
▁østby	-10.8568
▁publik	-10.8568
▁girječálli	-10.8568
talarlista	-10.8568
▁ođđaáigásaš	-10.857
▁förutsägbarhet	-10.8572
▁davviguovlluid	-10.8575
▁servodagaid	-10.8575
.2.4	-10.8576
▁gessojuvvo	-10.8577
árbevieru	-10.8578
resursa	-10.8579
▁árbedieđuid	-10.858
▁lagstiftningen	-10.8582
▁guovlulaš	-10.8583
kommission	-10.8589
▁joavkkuide	-10.8589
ordningen	-10.8591
▁växte	-10.8594
▁språkstyrelsen	-10.8597
▁fuolaha	-10.8597
▁gott	-10.8603
▁ráđiid	-10.8605
▁viiddiduvvon	-10.8608
luoiti	-10.8609
▁njuolggo	-10.861
▁fylkkagielddat	-10.8616
▁bidragsstyrelse	-10.8616
▁erohusaid	-10.8622
eahta	-10.8624
▁mearriduvvot	-10.8624
▁daddjojuvvo	-10.8626
när	-10.8628
▁attityder	-10.8628
geatnegasvuohta	-10.8629
máhtu	-10.8631
ele	-10.8634
▁ägare	-10.8634
▁háliid	-10.8635
▁demens	-10.8637
nos	-10.864
▁báikkis	-10.8641
fitnodaga	-10.8644
erejuvvo	-10.8645
▁skriftliga	-10.8647
▁joatk	-10.8647
▁heiveheami	-10.8649
▁juhkkojuvvon	-10.865
▁förvaltar	-10.8652
▁organet	-10.8653
▁árbe	-10.8656
studeantta	-10.8657
▁distribuera	-10.8661
▁funktionshinder	-10.8661
▁obbalaččat	-10.8661
▁olámuttos	-10.8661
▁ovddabealde	-10.8661
▁avskaffa	-10.8661
▁high	-10.8661
▁järn	-10.8661
▁muhtumi	-10.8661
▁fuomášumi	-10.8661
▁sirdin	-10.8661
▁trans	-10.8662
▁iešguđetlágán	-10.8663
▁fargga	-10.8664
▁váldojuvvot	-10.8664
▁flyg	-10.8665
.1.2	-10.8665
▁begärt	-10.8666
▁tidsfrist	-10.8668
▁vuođđuduvvo	-10.8669
iskkadeapmi	-10.8671
▁invändning	-10.8672
▁övervägande	-10.8675
▁bostads	-10.8676
▁dutk	-10.8676
gilvvu	-10.8678
sdirektoratet	-10.868
▁nordområdena	-10.868
▁sáva	-10.8681
▁heivehuvvot	-10.8682
hkii	-10.8683
▁antagit	-10.8688
▁orrut	-10.8689
buktagiid	-10.8694
suo	-10.8694
▁saker	-10.8699
▁unniduvvo	-10.87
▁juohkin	-10.8702
▁högskola	-10.8703
bihtá	-10.8705
up	-10.8706
▁ramar	-10.8707
▁bransch	-10.8709
smyndigheterna	-10.8709
kv	-10.8711
▁68	-10.8716
▁áššin	-10.8717
▁död	-10.8717
utövare	-10.8718
2018	-10.8719
▁ruoššas	-10.872
eaiggát	-10.8721
▁utsatta	-10.8723
▁revidera	-10.8729
▁fiskar	-10.8729
▁forr	-10.873
branschen	-10.8733
▁kg	-10.8734
▁naturlig	-10.8737
bargit	-10.8742
lágas	-10.8745
▁nubbin	-10.8747
▁suohkanii	-10.8747
▁sáddejuvvot	-10.875
vdna	-10.8753
▁webbplatsen	-10.8754
▁manno	-10.8754
▁listu	-10.8755
doavttir	-10.8755
▁goabbat	-10.8755
▁resultera	-10.8755
▁almmatge	-10.8755
▁behöva	-10.8755
▁boaittobeal	-10.8755
▁davábealde	-10.8755
▁ombudsmännen	-10.8755
▁skåden	-10.8755
▁synnerhet	-10.8755
▁tanavassdraget	-10.8755
▁medvetna	-10.8755
▁buohkanas	-10.8755
▁trosten	-10.8755
▁lyft	-10.8755
▁färdigheter	-10.8756
▁jurddašuvvon	-10.8756
▁rekryteringen	-10.8756
▁almmolaččat	-10.8756
▁driva	-10.8756
▁1985	-10.8757
▁begränsningar	-10.8759
▁báikkiin	-10.8766
▁leamen	-10.8767
▁valkretsar	-10.8769
▁doarjjastivrra	-10.8769
▁renodling	-10.877
hälso	-10.8775
effekterna	-10.8775
▁jensen	-10.8777
serbjudande	-10.8779
▁eaiggát	-10.878
▁arbetsområde	-10.8781
▁fylkkaid	-10.8785
▁badje	-10.8788
vuođain	-10.8789
ráđđe	-10.879
▁kapitlet	-10.8791
▁berätta	-10.8799
▁anställd	-10.8806
ohcan	-10.881
samarbetsavtalet	-10.8812
▁båt	-10.8813
▁överensstämm	-10.8814
rrá	-10.8815
▁riegád	-10.8817
servviin	-10.8818
kommišuvnna	-10.8819
pedagogalaš	-10.882
▁lämnade	-10.882
žiid	-10.8821
orohaga	-10.8821
▁orgánat	-10.8821
arbetare	-10.8822
▁huksejuvvon	-10.8824
▁begränsade	-10.8825
nama	-10.8832
▁bálval	-10.8833
▁medveten	-10.8835
▁ot	-10.8838
centra	-10.884
lándda	-10.884
▁värd	-10.8843
kvot	-10.8845
▁avsatt	-10.8847
▁livskraftig	-10.8851
.09.10	-10.8851
▁oasus	-10.8851
▁ersätta	-10.8851
▁legitimitet	-10.8851
▁stanna	-10.8851
▁erkänna	-10.8853
▁gearggusvuođa	-10.8853
▁nuora	-10.8854
▁bátnedearvvaš	-10.8854
▁marken	-10.8857
▁dárkilit	-10.8859
2012	-10.8859
▁ämnena	-10.8859
▁register	-10.8862
▁arbetade	-10.8864
▁statistihkalaš	-10.8866
▁nannejit	-10.8868
gal	-10.8873
▁juksan	-10.8876
▁hållit	-10.8876
▁prioriterat	-10.8877
dárbbuid	-10.8881
▁kulturráđi	-10.8882
pmo	-10.8882
▁árvvut	-10.8885
lot	-10.8885
processen	-10.8889
▁definere	-10.8895
▁sil	-10.8897
▁höst	-10.8901
▁kapasitehta	-10.8902
▁slå	-10.8903
▁presenterar	-10.8904
▁sámeálbmot	-10.891
▁72	-10.8914
dárbu	-10.8916
giellaguovddážat	-10.8918
▁joavkkut	-10.8918
▁loahpahuvvon	-10.8925
▁dáhkádus	-10.8928
▁almmuhuvvo	-10.8933
reaiddu	-10.8934
▁familjer	-10.8935
▁johtalus	-10.894
▁mihttomearit	-10.8945
aŋkk	-10.8947
▁kombinera	-10.8947
▁motivering	-10.8947
▁olycklig	-10.8947
riektái	-10.8947
▁ljud	-10.8947
▁ruoná	-10.8947
▁import	-10.8947
▁saari	-10.8947
▁vanligtvis	-10.8947
▁vuolggasaji	-10.8947
▁massán	-10.8947
▁förstod	-10.8949
▁vilja	-10.8949
▁rávis	-10.8949
huksen	-10.8951
▁beviljats	-10.8951
▁vuosttašgiellan	-10.8953
▁ođđasit	-10.8954
▁använde	-10.8956
▁dieđalaš	-10.8956
tillkännagivande	-10.8957
▁informerat	-10.8958
▁álggahuvvot	-10.8958
programmen	-10.8959
▁bargiide	-10.896
▁buoridan	-10.8961
▁språkanvändning	-10.8962
▁just	-10.8965
▁dutkamiid	-10.8968
▁várjjat	-10.897
▁gustot	-10.897
▁instituhtta	-10.8971
▁protokollet	-10.8971
▁sámegielaide	-10.8974
▁holm	-10.8979
▁regioner	-10.8979
sforskning	-10.8982
▁finansminister	-10.8987
▁anställningen	-10.8987
▁söka	-10.8991
1)	-10.8994
▁välfärd	-10.9002
▁ansök	-10.9003
▁kvinno	-10.9007
▁vuolláičáll	-10.9009
ovddidan	-10.9013
▁renbete	-10.9015
▁flyttar	-10.9016
information	-10.9017
▁omedelbart	-10.9018
▁skriver	-10.9021
▁konstnärs	-10.9024
▁lever	-10.9028
institutet	-10.9029
▁orsak	-10.903
eiseválddit	-10.9039
.02.12	-10.904
▁sätta	-10.9041
▁bilagor	-10.9044
▁elisabeth	-10.9044
▁govttolaš	-10.9044
▁identifisere	-10.9044
▁religion	-10.9044
▁sajádaga	-10.9044
▁uppleva	-10.9044
▁searvegotti	-10.9044
▁telemark	-10.9044
mátki	-10.9045
▁searvá	-10.9046
▁dal	-10.9047
▁norskisering	-10.9049
▁áššemeannudan	-10.9051
▁seammalágan	-10.9053
▁nyligen	-10.9053
medicin	-10.9055
▁oahpaheddjiide	-10.9055
▁1980-	-10.9059
▁video	-10.9063
▁saba	-10.9063
▁renodlings	-10.9064
▁operativ	-10.9065
stivrii	-10.9066
▁moai	-10.9067
goahtit	-10.9067
▁vinst	-10.9069
elv	-10.9071
bivdo	-10.9071
vejolašvuođat	-10.9073
čoahkkimat	-10.9075
▁detaljerade	-10.9076
ovttas	-10.9081
▁supmi	-10.9084
▁prop	-10.9084
359	-10.9086
ásahus	-10.9086
einar	-10.9089
zz	-10.9091
▁valkretsen	-10.9092
▁fámu	-10.9093
geatnegasvuođa	-10.9093
▁fritids	-10.9095
vuogit	-10.9095
affärsverksamhet	-10.9098
▁regel	-10.9102
▁ulbmiliin	-10.9103
▁váidal	-10.9104
andel	-10.9104
▁rapporterade	-10.9104
▁sáhttán	-10.9106
prográmmii	-10.9108
historjjá	-10.9111
ipmárdus	-10.9116
▁bedömningen	-10.9117
avsnitt	-10.9117
▁kandidater	-10.9117
ulbmiliidda	-10.9117
čoahkkimiid	-10.9119
”.	-10.9119
splaner	-10.912
▁ung	-10.9121
▁penšuvdna	-10.9123
fálaldagat	-10.9125
▁3.5	-10.9125
geatnegas	-10.9129
suodjalusa	-10.913
jakt	-10.9139
▁speciellt	-10.9141
čoakkáldaga	-10.9142
▁absolut	-10.9142
▁avsevärt	-10.9142
▁förläggare	-10.9142
▁styrelseledamot	-10.9142
▁ledarskap	-10.9142
▁sohkabeliid	-10.9142
▁lagamus	-10.9142
▁förnorskning	-10.9142
▁order	-10.9142
▁lahtuin	-10.9142
▁dustet	-10.9143
▁otne	-10.9146
▁renskötare	-10.9146
▁stuorru	-10.9151
▁samhällsområden	-10.9151
▁juovlamánus	-10.9152
▁namuhit	-10.9152
▁eatnamiidda	-10.9154
6)	-10.9154
▁kulturarvsrådet	-10.9155
festivála	-10.9157
undersökning	-10.9157
▁siv	-10.916
▁duojár	-10.916
registr	-10.9165
▁deaddu	-10.9165
▁pilotprojekt	-10.9167
šuvnnaid	-10.9172
▁pe	-10.9173
juogu	-10.9173
▁riev	-10.9174
▁álgá	-10.9175
▁guolásteddjiid	-10.918
▁rehkenastojuvvo	-10.9187
▁avsikt	-10.9189
personal	-10.9191
saččat	-10.9192
ihkalaš	-10.9192
▁2018:	-10.9194
▁meahcis	-10.9197
▁revisions	-10.9201
▁oassái	-10.9203
fal	-10.9204
▁ráđđádalla	-10.921
197	-10.9212
áigodaga	-10.9212
▁mátkeealáhus	-10.9214
▁mearrideaddjin	-10.9218
finnmark	-10.9218
poasta	-10.922
dilálašvuođa	-10.922
▁trä	-10.9224
▁gud	-10.923
▁orro	-10.9237
▁dáhtona	-10.9241
▁negatiiva	-10.9241
▁čáhce	-10.9241
▁lakselv	-10.9241
▁1979	-10.9241
▁automáhtalaččat	-10.9241
▁språkkunskaper	-10.9241
▁čuovvoleapmái	-10.9241
▁pettersen	-10.9242
▁kyrkofrågor	-10.9242
čállosi	-10.9242
centret	-10.9243
▁giellan	-10.9244
▁orolig	-10.9245
▁staket	-10.9246
▁skyddet	-10.9249
▁fievrriduvvo	-10.925
▁ákka	-10.9252
havssamiska	-10.9254
▁nve	-10.9255
▁váikkuh	-10.9255
▁east	-10.9258
▁evaluere	-10.9258
▁intresserade	-10.9259
▁guđ	-10.9266
▁polisen	-10.9266
▁divttasvuona	-10.9274
▁ovdalaš	-10.9275
▁yrke	-10.9278
▁gávpogiin	-10.9282
▁sámegielalaš	-10.9284
▁čállojuvvon	-10.9286
ddái	-10.9288
▁heaik	-10.9294
festivalen	-10.9294
▁áigumušaid	-10.9299
▁kompetensen	-10.9302
▁fievrridi	-10.9304
▁šadde	-10.9305
modealla	-10.9311
▁resor	-10.9314
bestämmelser	-10.9317
▁nät	-10.9317
eatnama	-10.9318
intäkter	-10.9319
▁kursa	-10.9322
▁konflikter	-10.9329
fierpmádaga	-10.9336
▁viidodaga	-10.9336
över	-10.9337
▁insats	-10.9338
övning	-10.934
▁stift	-10.934
▁julevsáme	-10.934
▁deaŧalažžan	-10.9341
▁obbalaš	-10.9341
▁ömsesidig	-10.9341
▁bestäms	-10.9341
▁fállet	-10.9341
▁språkcentren	-10.9341
▁gielh	-10.9341
▁engagera	-10.9341
▁värdefull	-10.9341
▁språkarbete	-10.9343
▁sigbjørn	-10.9343
▁kulturviesuid	-10.9343
▁hartvik	-10.9344
▁supu	-10.9345
▁dutkamuša	-10.9345
plikt	-10.9347
hålogaland	-10.9347
▁stuorradigge	-10.9348
/98	-10.935
▁tearbma	-10.9352
eaba	-10.9358
lávdegottiin	-10.9362
▁dásiin	-10.9362
hál	-10.9363
guoddi	-10.9369
studie	-10.9371
▁giellaguovddáš	-10.9376
▁cealkámuš	-10.938
▁eleven	-10.9381
▁poäng	-10.9381
▁ahkejoavkku	-10.9382
áŋgiruššansuorgi	-10.9386
▁faller	-10.9388
försäkring	-10.9389
▁kulturarvet	-10.9389
▁ekologiskt	-10.9394
▁samarbetar	-10.9398
hörande	-10.9398
▁ute	-10.9399
instituhtta	-10.9401
myndigheterna	-10.9404
▁cealkámušaid	-10.941
▁kraftigt	-10.941
▁plenarmöte	-10.9415
▁motiveras	-10.9418
årig	-10.942
buhtadus	-10.9422
prošektii	-10.9423
aktien	-10.9423
beskrivning	-10.9424
▁dilálašvuođa	-10.9429
▁iežan	-10.9429
▁förutsägbar	-10.9436
loga	-10.9438
▁ohccit	-10.9439
▁anordna	-10.9442
▁inverkan	-10.9442
▁snoasa	-10.9442
firma	-10.9442
▁bijai	-10.9442
▁hilgu	-10.9443
3)	-10.9443
digaštallamii	-10.9444
▁vástida	-10.9445
▁juogadit	-10.9445
▁lek	-10.9446
▁návccat	-10.9446
guovddážiidda	-10.9448
hálddašeapmái	-10.9448
▁duodjeealáhusa	-10.9449
▁geasuheaddji	-10.945
▁registreras	-10.9451
▁ovddasta	-10.9452
▁effektivt	-10.9453
hisvuođa	-10.9453
▁förlorade	-10.9463
▁historjjás	-10.9463
/06	-10.9466
uvvet	-10.9469
▁arkivera	-10.9472
▁láigoh	-10.9473
▁buoriduvvo	-10.9477
▁ságastallan	-10.9481
▁árvvoštallamiid	-10.9482
▁jearah	-10.9482
▁ställa	-10.9483
▁allmänt	-10.9483
ealli	-10.9484
verksamhet	-10.9488
▁gávnnahan	-10.9489
▁sch	-10.9489
▁psykala	-10.9492
olbmo	-10.9494
▁proseassaid	-10.9499
▁synlig	-10.9499
▁högt	-10.9507
bedömning	-10.9508
språket	-10.9514
▁hållits	-10.9517
▁dálu	-10.9519
gažaldaga	-10.9521
▁inrättande	-10.9521
▁bifogas	-10.9524
▁centrumet	-10.9524
▁träning	-10.9524
▁hálddašuvvo	-10.9526
studenter	-10.9526
teavstta	-10.9526
ovdáneapmi	-10.9527
standard	-10.9527
norga	-10.953
▁1.3	-10.9533
▁kompensation	-10.9533
▁minoritetsspråk	-10.9535
▁jor	-10.9538
▁diehtun	-10.9538
▁aiddo	-10.9541
tihka	-10.9542
▁färdig	-10.9544
▁dáhtto	-10.9544
▁gokčá	-10.9544
▁1988	-10.9544
▁ganska	-10.9544
▁suodjaluvvo	-10.9544
nivån	-10.9544
▁oktanaga	-10.9544
▁duoddar	-10.9544
▁instämm	-10.9544
▁övervaka	-10.9544
▁bakte	-10.9544
▁vattendrag	-10.9544
departe	-10.9545
-2010	-10.9545
▁luođi	-10.9546
▁johtolat	-10.9546
▁rådfråga	-10.9546
▁govda	-10.9547
▁överföras	-10.955
▁ovttalágan	-10.955
▁hushåll	-10.9551
eaddjin	-10.9555
▁ssb	-10.9556
▁förbud	-10.9557
oahti	-10.9557
guovddážii	-10.9558
▁blå	-10.9562
botn	-10.9563
▁element	-10.9566
▁renbetesområden	-10.9567
dieđihuvvon	-10.9567
buvttadeapmi	-10.9571
▁kulturråd	-10.9578
▁veahkeha	-10.9587
▁tidningen	-10.9589
▁servet	-10.9593
norsk	-10.9597
titieministeriet	-10.9602
▁válddahall	-10.9606
▁sträck	-10.9607
▁fastighet	-10.961
doaimmain	-10.9611
▁ságastallami	-10.9611
▁kall	-10.9617
delen	-10.9618
▁mångfalden	-10.9623
▁röstade	-10.9625
▁marin	-10.9625
▁hábmejuvvo	-10.9627
▁str	-10.9628
gymnasieskolorna	-10.9631
▁opmodaga	-10.9632
bearráigeahču	-10.9632
áigodat	-10.9632
kurssa	-10.9632
▁vil	-10.9632
lágádus	-10.9632
utmaningar	-10.9633
▁pláne	-10.9634
▁kantuvrra	-10.9636
vl	-10.9638
▁punkter	-10.9641
▁oažžun	-10.9641
▁tilldelats	-10.9644
mol	-10.9645
▁dadjan	-10.9647
▁examen	-10.9647
▁farggamusat	-10.9647
▁finbog	-10.9647
▁läroböcker	-10.9647
▁ruvdnui	-10.9647
▁vuordámušat	-10.9647
▁önskvärt	-10.9647
▁duođas	-10.9647
▁helene	-10.9647
▁istället	-10.9647
▁ibland	-10.9648
▁demokratiija	-10.9648
▁placeras	-10.9648
vuođđoealáhusain	-10.9648
▁gildii	-10.9648
▁čohkkejuvvon	-10.9649
▁ingick	-10.965
▁guovdilis	-10.9651
▁gruv	-10.9652
▁ordföranden	-10.9653
▁politihkalaččat	-10.9655
▁2006:	-10.9656
▁vuođđudan	-10.9658
▁fágasuorggis	-10.9658
▁driften	-10.9659
%)	-10.966
▁dutkanráđđi	-10.9663
▁báhcán	-10.9668
▁gymnasieskolor	-10.9668
▁ekonomin	-10.9671
–2	-10.9676
▁tidig	-10.9681
▁anpassat	-10.9687
central	-10.9688
▁guhki	-10.969
▁källor	-10.969
▁grundskola	-10.9692
▁áššemeannudeami	-10.9698
▁bisso	-10.9699
doarjagiid	-10.97
▁flod	-10.9701
▁birger	-10.9702
▁konferánsa	-10.9712
teknik	-10.9714
▁ealu	-10.9719
▁ráđđehusas	-10.9725
orna	-10.9726
▁porsáŋggus	-10.9727
▁čilgejuvvon	-10.9729
barggut	-10.9733
▁jođiheaddjin	-10.9738
▁interneahtas	-10.9743
ställer	-10.9746
medvetet	-10.9749
▁johtti	-10.975
▁boazu	-10.9751
▁earenoamážiid	-10.9751
▁evttohii	-10.9751
▁lagstadgad	-10.9751
▁måluppfyllelse	-10.9751
▁niillas	-10.9751
▁oanvänd	-10.9751
▁stuorradiggái	-10.9751
▁áššebáhpira	-10.9751
▁evenes	-10.9751
▁nákce	-10.9751
▁behålla	-10.9751
▁dietnasa	-10.9751
kropp	-10.9752
▁dimensionen	-10.9752
▁eavttuin	-10.9752
▁máhttá	-10.9754
▁eksámen	-10.9754
▁ealáhussearvi	-10.9758
▁drag	-10.9758
▁statistiken	-10.9759
▁áddet	-10.976
▁hamn	-10.9763
▁bušeahttajagi	-10.9765
▁erik	-10.9766
▁samediggi	-10.9767
▁kulturmuitoráđi	-10.9767
▁doarjjaortnegat	-10.9767
▁varsi	-10.9771
▁partner	-10.9772
▁leago	-10.9772
▁införlivas	-10.9773
aff	-10.978
▁prd	-10.978
▁plánet	-10.9785
assii	-10.9787
▁josefsen	-10.9789
▁ovddideame	-10.9794
▁gohčodi	-10.9797
▁gávdn	-10.9799
▁tabellen	-10.98
▁ávkkástall	-10.9803
▁dahkkot	-10.9803
produktionen	-10.9806
▁atnet	-10.9807
▁varierat	-10.9809
▁luodda	-10.9809
lok	-10.9809
▁geatnegahttá	-10.9812
dieđuid	-10.9812
▁sivva	-10.9813
▁6.2	-10.9813
▁rivttiid	-10.9814
▁miljöer	-10.9817
isttalaš	-10.9817
dikšu	-10.982
▁synn	-10.9821
bmi	-10.9825
▁rádja	-10.9827
▁báikenamat	-10.9833
▁74	-10.9836
▁samråda	-10.984
▁målgrupp	-10.9843
register	-10.9846
avgift	-10.9851
▁svår	-10.9852
sso	-10.9854
lágán	-10.9855
▁buohcce	-10.9856
▁halvorsen	-10.9856
▁people	-10.9856
▁regiovdna	-10.9856
▁skilje	-10.9856
▁upphäv	-10.9856
▁sosial	-10.9856
▁ávvir	-10.9856
▁heajut	-10.9856
▁beskriva	-10.9857
▁materiála	-10.9858
▁arbetsmarknad	-10.9858
▁namaid	-10.9859
▁soaitá	-10.9859
▁mötesdatum	-10.9859
▁1997:	-10.9859
▁raporteren	-10.9859
▁byggandet	-10.9859
▁geatnegahtton	-10.986
▁sávza	-10.986
▁nämnts	-10.9861
▁vuolláičálli	-10.9864
haug	-10.9864
fál	-10.9866
▁namat	-10.987
stjänst	-10.9875
▁ona	-10.9879
▁förbättring	-10.9879
▁almmuheami	-10.988
▁tagits	-10.988
chef	-10.9883
▁act	-10.9883
ämne	-10.9883
▁1970-	-10.9885
▁frivillig	-10.9886
▁bortfall	-10.9887
▁diliin	-10.9889
▁duohtan	-10.9889
▁fonderna	-10.9892
▁förhållandena	-10.9892
eahpe	-10.9894
▁avvisa	-10.9894
▁ávki	-10.9895
38	-10.9895
diggeválgga	-10.9895
▁vuođđud	-10.9897
náli	-10.99
▁avsatte	-10.9901
▁jahki	-10.9904
▁stáhtas	-10.9906
▁doaimmaha	-10.9906
trädde	-10.9908
oahpaheapmi	-10.9909
ruđa	-10.9915
▁faktor	-10.9915
▁representerade	-10.992
▁anställning	-10.9924
▁meld	-10.9926
▁föreningen	-10.9932
▁orgánaid	-10.9933
▁vuoigatvuođaide	-10.9933
▁användes	-10.9934
-15	-10.9936
▁rättvis	-10.9936
▁ortnegat	-10.9938
árvvoštallam	-10.9938
▁julggaštusa	-10.9945
▁regleras	-10.9947
▁höj	-10.9947
▁olgoriikkas	-10.995
kraft	-10.9953
▁čuvvo	-10.9957
▁čoahkkimiidda	-10.9958
▁frågorna	-10.9959
▁ovdamearkan	-10.9961
▁petter	-10.9962
▁lyssna	-10.9963
▁ealáhuseallima	-10.9963
▁gávcci	-10.9963
▁kvalsund	-10.9963
▁objekt	-10.9963
▁preliminär	-10.9963
▁studeanta	-10.9963
vuorkká	-10.9963
▁fállojuvvo	-10.9963
▁drog	-10.9964
▁máŋggakultuvrra	-10.9965
uora	-10.9965
▁mått	-10.9965
▁skolhistoria	-10.9966
ráiddu	-10.9967
▁ruhtadeapmi	-10.9968
▁rájá	-10.9969
–2013	-10.9977
▁tack	-10.9988
▁juolludeamit	-10.9992
myndigheten	-10.9992
▁urbefolkningar	-10.9992
▁sr	-10.9998
▁stivrii	-10.9998
▁vuoruh	-11
▁čállá	-11.0003
▁revidere	-11.0006
▁ledaren	-11.0007
▁bargosaji	-11.001
▁nora	-11.0012
▁fond	-11.0013
▁valde	-11.0014
▁vuolle	-11.0017
▁utöka	-11.0017
▁bry	-11.002
▁kommentar	-11.0021
bálvalusat	-11.0022
▁álkibu	-11.0025
▁handlingar	-11.0026
▁sändning	-11.0029
▁urval	-11.003
blad	-11.0031
▁addojuvvot	-11.0033
▁dulkon	-11.0035
▁oahppoplánat	-11.0037
▁grundskolor	-11.0037
▁prt	-11.0043
sökningsformulär	-11.0045
▁oahppočuoggá	-11.0046
▁meahci	-11.0046
▁od	-11.0048
▁fylkkain	-11.0049
▁iskka	-11.0052
▁doarjagis	-11.0057
goahtán	-11.0059
▁vuolit	-11.0064
▁geavahusas	-11.007
▁prov	-11.007
mönster	-11.007
▁sorjjasmeahttun	-11.007
▁dispens	-11.007
▁gulaskuddamis	-11.007
▁renbesättning	-11.007
▁magne	-11.007
▁áitojuvvon	-11.007
▁version	-11.007
▁easkka	-11.007
▁växa	-11.0071
▁vuorká	-11.0071
▁luhtte	-11.0072
ministr	-11.0072
erie	-11.0072
▁fylkkadiggi	-11.0073
▁gullevašvuohta	-11.0075
hkki	-11.0075
▁stod	-11.0076
▁hota	-11.0087
strategin	-11.0089
▁goappašiid	-11.009
▁enheter	-11.0097
etáhta	-11.0098
▁kombinations	-11.0099
fámus	-11.01
▁čađaha	-11.0101
▁anár	-11.0103
eiseválddi	-11.0103
▁máksojuvvon	-11.011
guovddážiin	-11.0114
▁slutsatser	-11.0118
▁barggai	-11.0119
▁evttohussii	-11.0119
▁kulturminister	-11.0128
▁manai	-11.0136
▁čállán	-11.0138
▁förstår	-11.0139
fördelningen	-11.0139
▁julggaštus	-11.0144
▁djup	-11.0146
▁oainnuid	-11.0147
▁dárkil	-11.0149
▁webbplatser	-11.015
lösning	-11.0151
▁bisuhuvvo	-11.0151
▁nuoraidskuvlla	-11.0154
▁ivar	-11.0155
▁variationer	-11.0158
▁árvvoštallamii	-11.0159
▁skador	-11.0159
▁foto	-11.0159
▁geah	-11.016
reglerna	-11.0166
▁fokusområdet	-11.0167
▁eatnama	-11.0173
ordförandeskapet	-11.0174
▁höra	-11.0175
bidjan	-11.0176
▁hal	-11.0176
labour	-11.0176
▁översätta	-11.0177
▁gieđa	-11.0179
ávnnas	-11.0179
konstruktion	-11.0179
▁fängelse	-11.0179
▁girjjálašvuohta	-11.0179
▁praktihkalaš	-11.0179
▁stängd	-11.0179
▁uhcimus	-11.0179
▁yngre	-11.0179
▁återuppliva	-11.0179
▁bolagsordning	-11.0179
▁fysalaš	-11.0179
▁dubbel	-11.0179
▁figuvr	-11.0179
▁riikaantikvára	-11.0179
▁sáddii	-11.0179
▁originalspråk	-11.0179
málliid	-11.0179
▁sávahahtti	-11.0179
▁oaivad	-11.0179
▁pensionsfond	-11.018
▁kveana	-11.018
▁čállingoddi	-11.018
▁årsverk	-11.0181
▁gaskkustan	-11.0183
▁fritt	-11.0184
▁saknas	-11.0185
▁ráhkaduvvojit	-11.0187
▁skrev	-11.0187
▁juolludeami	-11.0189
▁begreppet	-11.019
skovi	-11.0191
▁mátkkošt	-11.0194
▁stipendiet	-11.0194
▁govada	-11.0196
▁fria	-11.0202
utbudet	-11.0202
▁preassadieđáhus	-11.0202
rktalaš	-11.0205
fondii	-11.021
▁vugiid	-11.021
▁mie	-11.0218
▁dehe	-11.022
áiggis	-11.0221
▁använt	-11.0233
▁váttisvuođat	-11.0237
▁fy	-11.0239
▁seminarier	-11.0248
▁guorahallojuvvo	-11.0256
▁hanterar	-11.0257
▁6.1	-11.0257
▁áddejupmi	-11.026
▁giđđa	-11.0263
▁76	-11.0263
▁rein	-11.0264
▁guollebiebman	-11.0264
▁gull	-11.0269
eriid	-11.027
▁hárjehallan	-11.027
▁davviguovllu	-11.0271
▁initiativet	-11.0275
▁šiehtadusas	-11.0279
▁árvvoštallamat	-11.0279
▁vänta	-11.0279
▁kulturráđđi	-11.028
▁förhandla	-11.028
earri	-11.0281
▁orohagaid	-11.0282
▁stå	-11.0287
materiála	-11.0288
.5.1	-11.0288
dilálašvuohta	-11.0289
▁hämta	-11.0289
▁kuhmunen	-11.0289
▁regelbundet	-11.0289
▁tråante	-11.0289
▁álbmogin	-11.0289
▁överväger	-11.0289
▁čázi	-11.0289
▁nöd	-11.0289
▁kommunicera	-11.0289
▁ádjá	-11.0289
rämmande	-11.0289
▁bistá	-11.0289
▁elgå	-11.029
▁delegationen	-11.029
ordförande	-11.029
▁skánii	-11.0291
▁ságastallat	-11.0294
gažaldagaid	-11.0294
▁områdestyrelsen	-11.0295
▁mieđih	-11.0295
/2012	-11.0296
▁jurddašit	-11.0297
▁vuođđudus	-11.0299
▁7.1	-11.0308
▁religiösa	-11.0311
logut	-11.0312
juolludus	-11.0315
▁1900	-11.0315
▁teavsttaid	-11.0318
▁rievdadeami	-11.032
▁120	-11.0321
▁heivehuvvo	-11.0321
▁mielddisbukt	-11.0322
▁oktavuođaid	-11.0326
▁slutföras	-11.0328
▁oaivvilduvvo	-11.0333
ologalaš	-11.0335
▁sök	-11.0337
▁direktör	-11.0342
ränta	-11.0342
▁kulturmiljö	-11.0343
film	-11.0349
▁njuolggodoarjag	-11.0349
▁utbilda	-11.0353
▁bosatta	-11.0353
váldin	-11.0356
▁fátmmasta	-11.0359
▁dator	-11.0361
dieđut	-11.0366
▁strategin	-11.0369
▁vásáhus	-11.037
▁borramuša	-11.0371
▁106	-11.0374
▁testa	-11.0377
▁månad	-11.0378
ombudsmannen	-11.0379
duopmostuolu	-11.0381
pass	-11.0384
čujuhus	-11.0385
lágádusa	-11.0391
▁meahcceealáhusa	-11.0391
▁prošeavttain	-11.0392
eaddjái	-11.0395
▁2001:	-11.0396
▁movttiidahtt	-11.0396
fatnasii	-11.0398
▁progress	-11.04
▁jearaldaga	-11.04
▁njuovahaga	-11.04
▁education	-11.04
▁neahttasiidduin	-11.04
▁njiejai	-11.04
▁ođđajagemánu	-11.04
▁påbörja	-11.04
▁regelbundna	-11.04
▁utsåg	-11.04
▁deavdá	-11.04
▁sávva	-11.04
▁bostäder	-11.04
förändringar	-11.0401
▁vuorrasiid	-11.0401
▁folkpartiet	-11.0401
▁gollan	-11.0401
revišuvnna	-11.0402
▁álgu	-11.0402
fuola	-11.0402
▁beställning	-11.0402
▁beaska	-11.0404
▁ämnesområdet	-11.0405
▁löp	-11.0405
▁hemmet	-11.0405
▁domstolarna	-11.0406
▁moms	-11.0407
▁suddje	-11.0407
cealkámuš	-11.0407
nummir	-11.0409
organisationen	-11.0409
▁renbetesområde	-11.041
▁fysiska	-11.0411
▁gollo	-11.0411
▁searvva	-11.0412
▁1917	-11.0413
▁molsašu	-11.0414
▁čearddalašvuođa	-11.0414
raporta	-11.0417
jurdaga	-11.0417
▁ilus	-11.0422
▁stáhtaráđi	-11.0424
▁regionerna	-11.043
▁160	-11.0437
ostnadsberäkning	-11.0439
▁driftsstöd	-11.0439
▁gieđahallan	-11.044
▁goluide	-11.044
▁initieras	-11.0441
▁7.2	-11.0441
▁perspektiivvas	-11.0441
väl	-11.0445
antagna	-11.0446
▁minsta	-11.0447
▁vuolggasadjin	-11.0447
▁definerejuvvo	-11.045
▁2017:	-11.0451
▁20%	-11.0454
▁dovdet	-11.0455
sátnejođiheaddji	-11.0457
▁samiskspråkig	-11.0458
▁dihtomielalaš	-11.046
▁mottagare	-11.0461
▁čujuhusa	-11.0474
under	-11.0475
▁divttasvuonas	-11.0475
65	-11.0477
▁kvoter	-11.048
lohk	-11.0483
▁skole	-11.0489
▁79	-11.0495
gođii	-11.0498
▁organiserade	-11.0499
trøndelaga	-11.05
▁konferenser	-11.0504
ägs	-11.0505
▁oaneh	-11.0507
daterat	-11.051
▁vuoste	-11.051
▁gálvo	-11.0512
▁engelska	-11.0512
▁protect	-11.0512
▁minuhta	-11.0512
▁sávaldaga	-11.0512
utvikling	-11.0512
▁2009-2013	-11.0512
▁čohkká	-11.0512
▁árvvoštallamis	-11.0513
▁beroštusat	-11.0513
▁lávga	-11.0513
▁oassálastima	-11.0513
bara	-11.0513
▁uppenbar	-11.0513
▁fievrridan	-11.0513
▁jeavddalaččat	-11.0513
▁oidne	-11.0513
▁viidásat	-11.0514
▁troligen	-11.0514
▁förkasta	-11.0514
▁besökte	-11.0514
▁albma	-11.0515
▁čálii	-11.0517
meantta	-11.0518
▁resa	-11.0518
▁vuoruhuvvot	-11.0519
▁budgetbehov	-11.052
▁direktoráhta	-11.0521
▁siri	-11.0522
▁92	-11.0523
▁samiskolan	-11.0524
▁juos	-11.0524
rätten	-11.0525
▁finnmárkkuláhka	-11.0526
ijii	-11.0526
ilo	-11.0526
ráji	-11.0527
▁styrelsens	-11.0528
gul	-11.053
hápmi	-11.0533
▁priset	-11.0534
▁jämföra	-11.0537
portalen	-11.0541
▁guolástusa	-11.0545
▁informa	-11.0548
▁guolásteapmi	-11.0551
▁lönsam	-11.0552
▁diskussioner	-11.0556
rek	-11.0559
▁nai	-11.056
▁čađat	-11.0563
▁värdeskapandet	-11.0564
▁filmer	-11.0567
juogus	-11.057
▁sága	-11.0576
▁luondduresurssa	-11.0576
▁koppla	-11.0578
population	-11.0579
▁reformen	-11.0583
▁dagordning	-11.0583
hasa	-11.059
▁fritid	-11.059
▁avgift	-11.0593
▁talare	-11.0595
▁147	-11.0598
▁alt	-11.0599
ráđiin	-11.0605
▁stiftelsen	-11.0606
soahpamuša	-11.0608
▁eanandoalus	-11.061
listtu	-11.0613
sperspektiv	-11.0615
▁84	-11.0618
▁geassemánus	-11.0619
▁eatni	-11.0622
▁eatnamiin	-11.0622
joatkkaoahpahusa	-11.0626
▁heritage	-11.0626
▁lärohjälpmedel	-11.0626
▁mihkkege	-11.0626
▁nordsletta	-11.0626
▁ovdanbuktit	-11.0626
▁árbevirolačča	-11.0626
▁detaljerat	-11.0626
▁sträva	-11.0626
ovdánahttimii	-11.0626
▁jienastaga	-11.0626
▁geasuh	-11.0626
sektion	-11.0626
ph	-11.0627
▁sohpe	-11.0627
▁mehtera	-11.0627
▁formellt	-11.0627
▁enkelt	-11.0627
▁sirre	-11.0628
árvvu	-11.063
▁kulturarvslagen	-11.063
suodjaleapmi	-11.0632
▁dahkkojuvvojit	-11.0636
▁deattuhuvvojit	-11.0637
▁arbetslivet	-11.0638
▁christin	-11.0638
huksema	-11.0638
borg	-11.0639
▁ássiid	-11.0639
▁ovdáneamis	-11.064
▁177	-11.064
undersökningar	-11.0642
▁odla	-11.0645
▁europeisk	-11.0647
▁mearrádussii	-11.0648
▁oamast	-11.0649
musea	-11.0651
▁buktojuvvon	-11.0656
▁parallell	-11.0657
▁vuoruha	-11.0659
▁kvalitets	-11.0659
skriv	-11.0661
geavaheapmái	-11.0662
visti	-11.0662
▁108	-11.0662
▁utsatt	-11.0665
▁dol	-11.0668
▁áigumušain	-11.0668
▁balanserad	-11.067
mánu	-11.067
▁beaivve	-11.0672
▁duogáža	-11.0672
ruk	-11.0673
▁lohkkojuvvo	-11.0674
▁áššiiguin	-11.0679
▁park	-11.068
▁parlamentsval	-11.0682
▁uppfattas	-11.0682
▁šiehtadall	-11.0687
▁flyttade	-11.0687
gilv	-11.0688
▁byggnads	-11.0696
buvttadeaddji	-11.0696
klass	-11.07
▁buohkaid	-11.0702
▁máksin	-11.0703
▁doaimmahus	-11.0709
▁stivrras	-11.0711
▁användbar	-11.0727
sprocessen	-11.0732
▁ávvud	-11.0734
srapporten	-11.0736
▁valperiod	-11.0738
▁fastställd	-11.0738
delegation	-11.074
dimension	-11.074
▁lahtto	-11.0741
▁akershus	-11.0741
▁felaktig	-11.0741
▁fosterhem	-11.0741
▁mávsse	-11.0741
▁dulkka	-11.0741
▁fjellheim	-11.0741
▁kopia	-11.0741
▁girjáivuođa	-11.0741
▁jahkebeali	-11.0741
▁vägnar	-11.0741
▁sårbar	-11.0742
▁geavahussii	-11.0742
▁2-1	-11.0742
▁áššelistu	-11.0743
▁ovddastit	-11.0743
ásahusa	-11.0746
▁lokalsamhällen	-11.0747
överföring	-11.075
förståelse	-11.0751
kapitel	-11.0751
▁formála	-11.0752
▁ássit	-11.0754
▁meannuduvvojit	-11.0755
▁juolludusaid	-11.0757
▁föreningar	-11.0757
eddjiiguin	-11.0762
▁historien	-11.0767
svis	-11.0771
▁doaibmabijuin	-11.078
▁mänsklig	-11.0781
▁vuođđogiella	-11.0781
▁mental	-11.0785
▁mearr	-11.0786
▁belopp	-11.0787
▁strategisk	-11.0789
▁njunuš	-11.0792
ealla	-11.0795
▁jovkui	-11.0798
fisk	-11.0798
▁heivehan	-11.0801
▁1,5	-11.0805
▁máilmmis	-11.0805
▁skogs	-11.0806
huksemii	-11.0812
▁máŋggaid	-11.0816
assá	-11.0818
▁kapihttalii	-11.0819
▁stipendi	-11.0821
▁buvttadeapmái	-11.0823
▁biire	-11.0834
▁olah	-11.0834
▁arbetsplats	-11.0834
▁vardagen	-11.0837
▁beavdegirj	-11.0849
▁ulbmilat	-11.0857
▁smávit	-11.0857
▁beaivválaččat	-11.0857
▁dehálažžan	-11.0857
▁komplex	-11.0857
▁tillgodose	-11.0857
▁ägde	-11.0857
▁biergo	-11.0857
▁straff	-11.0857
▁avdelningschef	-11.0858
▁fápmuda	-11.0859
▁egendom	-11.0861
▁språkanvändare	-11.0862
▁gáivuonas	-11.0863
▁fátmmastit	-11.0863
▁sänd	-11.0864
präst	-11.0865
joavkkut	-11.0865
tyder	-11.0868
▁tvinga	-11.0869
organisation	-11.0869
doibmii	-11.087
sajit	-11.0871
▁makt	-11.0871
▁dialogmöte	-11.0875
osiin	-11.0875
▁vissis	-11.0877
▁bedömas	-11.0878
▁minns	-11.0882
▁svarade	-11.0886
áige	-11.0886
či	-11.0892
byggnader	-11.0892
▁betonat	-11.0895
vuogádagaid	-11.0896
▁minskningen	-11.0896
▁kommišuvnna	-11.0896
▁oainnusin	-11.0898
▁árvvoštallo	-11.09
överensstämmelse	-11.0902
▁tidningarna	-11.0902
▁fasta	-11.0903
hav	-11.0905
▁frihet	-11.0906
▁mottag	-11.0907
ská	-11.0907
▁kommittéerna	-11.0908
▁stuor	-11.091
jahki	-11.091
▁hav	-11.0912
▁strukturer	-11.0915
▁föräldra	-11.092
▁bosättningen	-11.0924
lek	-11.0931
girjái	-11.0932
trøndelágas	-11.0934
schef	-11.0934
▁ohcet	-11.0935
▁påpekas	-11.0935
period	-11.0937
▁parallella	-11.0943
gáibádusa	-11.0946
▁konsulteren	-11.0946
▁kopplad	-11.0947
▁ráŋggáštus	-11.0949
▁ungdom	-11.0951
departemeanttaid	-11.0953
▁anläggning	-11.0956
▁sihkkarastimii	-11.0956
▁kategoriija	-11.0958
kort	-11.0959
▁barnomsorg	-11.0967
bohtosa	-11.0972
bierggu	-11.0975
seminárii	-11.0975
čoahkkádus	-11.0975
▁borgmästare	-11.0975
▁kungskrabba	-11.0975
▁pavall	-11.0975
suodjaleapmái	-11.0975
▁kirkenes	-11.0975
▁eastadan	-11.0975
▁kollektiva	-11.0975
▁muittá	-11.0975
▁närvaro	-11.0975
▁vástideaddji	-11.0975
▁tryckt	-11.0976
▁láhpi	-11.0976
▁rörelse	-11.0976
▁uppfyllda	-11.0976
▁nagodit	-11.0977
▁guhkesáiggi	-11.0978
▁självständig	-11.0979
▁ansökt	-11.0979
▁dohkkehii	-11.098
▁ortnegis	-11.0981
astit	-11.0981
byggande	-11.0982
▁gullan	-11.0982
uvnna	-11.0985
▁lagförslaget	-11.0988
kommišuvdna	-11.0989
▁vuollelis	-11.099
skyltar	-11.099
▁avsedd	-11.0991
▁motiverad	-11.0991
▁överlämnade	-11.0992
principerna	-11.0998
▁davviriikka	-11.1001
▁duohtavuođa	-11.1002
▁giđđat	-11.1003
▁dilálašvuođain	-11.1008
▁sámegielagat	-11.1008
▁dorjon	-11.1009
▁750	-11.101
▁uttrycka	-11.1011
priset	-11.1015
eallimis	-11.1016
isthälsovården	-11.1016
▁omorganisation	-11.1016
▁guora	-11.102
▁parlamentsvalen	-11.1021
juogadeapmi	-11.1025
boazodoalloláhka	-11.1027
▁folkräkningen	-11.1028
▁nivån	-11.1033
▁ráđis	-11.1033
▁doahpaga	-11.1038
▁áigemearri	-11.1042
▁rahpan	-11.1044
sfördelning	-11.1046
▁internáhtta	-11.1048
▁háliidat	-11.1049
ábi	-11.1049
▁iver	-11.1051
▁överföringen	-11.1052
▁hábmejuvvon	-11.1054
▁miessemánus	-11.1058
struktuvra	-11.1062
parti	-11.1066
▁96	-11.1067
skostnader	-11.1067
tyr	-11.107
▁láhtte	-11.1071
▁juolludeapmi	-11.1071
▁avgöra	-11.1073
vind	-11.1073
dagar	-11.1074
▁bokbussar	-11.1074
årsredovisningen	-11.1078
▁ráđđeaddin	-11.1079
saktiviteter	-11.1084
▁täckning	-11.1087
▁guovddášbelloda	-11.1089
▁godkänns	-11.109
▁alcces	-11.1093
▁modeller	-11.1094
tvärvetenskaplig	-11.1094
▁bušehttii	-11.1094
▁doaibmabidjo	-11.1094
▁girjebusse	-11.1094
▁iešmearrideami	-11.1094
▁partapuoli	-11.1094
▁erhålla	-11.1094
▁uppgav	-11.1094
▁eurohpa	-11.1094
▁dohkkehuvvui	-11.1094
▁internatskolan	-11.1095
▁háhkan	-11.1095
▁heiveheapmi	-11.1095
▁meahcásteapmi	-11.1096
▁masse	-11.1096
▁befinn	-11.1096
▁boazodoallit	-11.1098
▁dávista	-11.1099
▁rámmas	-11.1101
▁ordet	-11.1101
▁osäkerhet	-11.1101
▁váhnemiidda	-11.1102
áddje	-11.1102
▁bargovugiid	-11.1103
▁ställs	-11.1104
▁utarbetande	-11.1106
▁delmål	-11.1106
▁reaidduid	-11.1106
▁oahpahan	-11.1107
▁utgång	-11.1107
▁räkna	-11.1107
▁förskolelärar	-11.111
bor	-11.1112
govva	-11.1112
kunskap	-11.1113
ruovttu	-11.1113
▁tillväxten	-11.1116
▁centra	-11.1117
gánnáhahttivuođa	-11.112
ämning	-11.112
▁kulturskydd	-11.112
▁praktisk	-11.1122
rakt	-11.1122
▁expert	-11.1124
serbjudanden	-11.1125
▁eallima	-11.1125
▁álgoálbmogiidda	-11.1126
gáibádus	-11.113
▁förändringarna	-11.1131
▁5.4	-11.1131
▁šadda	-11.1132
▁ersättningen	-11.1134
▁godkännas	-11.114
▁čielggadeapmi	-11.1143
▁fáttáin	-11.1143
gaskkusteapmi	-11.1143
▁ipmil	-11.1145
proseassas	-11.1146
▁radios	-11.1149
▁nammaduvvo	-11.1152
▁øy	-11.116
▁fortsatte	-11.116
vuorut	-11.1162
▁organiseret	-11.1162
▁mångsidigt	-11.1163
▁problemet	-11.1163
▁lämplig	-11.1165
▁skábmamánus	-11.1166
▁plánemii	-11.1168
▁detaljerad	-11.1175
▁árv	-11.1176
▁nannemis	-11.1177
▁kristine	-11.1177
▁internt	-11.1179
▁gean	-11.1179
sfrämjandet	-11.118
▁ávkkástallama	-11.1181
▁ipmird	-11.1186
▁1970	-11.1189
▁vg	-11.1192
▁ansvarsområde	-11.1192
▁planerar	-11.1192
▁pasieanttaid	-11.1194
▁orohagat	-11.1199
uohta	-11.1199
▁ovttasbarg	-11.1201
▁2.6	-11.1202
▁guldal	-11.1205
▁čuvvojuvvo	-11.121
▁arenan	-11.1212
▁uppdatera	-11.1214
flottan	-11.1214
▁boastut	-11.1214
▁falástallan	-11.1214
▁födelse	-11.1214
▁interneahtta	-11.1214
▁knappa	-11.1214
▁melleby	-11.1214
▁stänga	-11.1214
▁väsentlig	-11.1214
▁demeansa	-11.1214
▁drivs	-11.1214
▁exakt	-11.1215
jalg	-11.1215
▁váikkuhanfámu	-11.1216
▁uppskatta	-11.1217
▁minimi	-11.1217
arbeid	-11.1217
▁femte	-11.1218
▁ledamoten	-11.1218
▁digaštall	-11.1219
▁fred	-11.122
pedagogihka	-11.122
▁erke	-11.122
sdomstolen	-11.1221
▁länsstyrelsen	-11.1221
▁lihkostuvvat	-11.1221
▁juolludemiid	-11.1222
▁ipmirdit	-11.1224
▁rekrutterema	-11.1224
▁regiovnnalaš	-11.1225
▁barnbidrag	-11.1227
▁web	-11.1227
▁álggahuvvojit	-11.1228
▁parlamentsvalet	-11.123
▁praktiskt	-11.1231
42	-11.1239
▁rájis	-11.124
▁2004:	-11.124
villkor	-11.1241
▁respektera	-11.1241
▁fastighets	-11.1243
▁semináras	-11.1248
▁bargosajit	-11.125
yta	-11.1253
báikin	-11.1256
▁finnmárkui	-11.1257
▁suorgi	-11.1258
▁civil	-11.126
▁kultuvrralaččat	-11.1262
▁utsläpp	-11.1265
▁digitaliseren	-11.1266
álaččat	-11.1266
▁duodjeinstituht	-11.1267
▁guovllustivrra	-11.127
sson	-11.1273
▁vuoliduvvo	-11.1273
▁válggain	-11.1275
▁kulturskuvlla	-11.1278
▁dras	-11.1282
▁01.01.	-11.1282
▁folkräkning	-11.1283
▁hol	-11.1283
åd	-11.1286
.4.4	-11.1289
▁viiddi	-11.129
▁båtar	-11.1291
▁begränsat	-11.1295
körning	-11.1296
▁gjordes	-11.1302
▁informationen	-11.1303
dagaid	-11.1306
sird	-11.1308
juohkima	-11.1309
▁enighet	-11.131
▁pasieanttat	-11.1313
▁arbetsordningen	-11.1314
vägar	-11.1318
▁meannudi	-11.1323
▁systematisk	-11.1323
▁befattning	-11.1323
bun	-11.1325
▁báikegotti	-11.1326
miljön	-11.1332
▁fatnasiid	-11.1332
▁viidá	-11.1333
loven	-11.1333
vuđđosa	-11.1335
▁urbefolkningen	-11.1335
▁legitim	-11.1335
▁4.4	-11.1336
▁undertecknade	-11.1336
▁bealušt	-11.1336
▁beslutsfattande	-11.1336
▁gammal	-11.1336
▁gymnasium	-11.1336
▁kontinuitet	-11.1336
▁lohppii	-11.1336
▁obligatorisk	-11.1336
▁sávzza	-11.1336
▁unionen	-11.1336
▁vealtameahttun	-11.1336
▁återbetalas	-11.1336
▁sohppojuvv	-11.1336
▁faremo	-11.1336
▁gollegiella	-11.1336
▁váldde	-11.1336
▁sverre	-11.1336
fáktor	-11.1336
▁barggolašvuođa	-11.1337
▁beliin	-11.1337
▁eanandollui	-11.1337
▁urheim	-11.1337
▁lágiduvvui	-11.1337
▁gávpogiidda	-11.1337
▁bivddii	-11.1338
▁tisdag	-11.1338
▁doarjagiin	-11.1338
▁topp	-11.1339
▁allaskuvlii	-11.1343
▁forskar	-11.1344
áŋgiruššamis	-11.1344
dál	-11.1344
▁áittardeaddjit	-11.1347
▁dor	-11.135
▁systematiskt	-11.135
ávdnasat	-11.1351
▁kilo	-11.1351
beliid	-11.1352
▁beloppet	-11.1352
če	-11.1354
▁1,2	-11.1356
politiskt	-11.1356
▁digge	-11.1357
▁veta	-11.1358
áddejumi	-11.1359
skador	-11.136
praxis	-11.1361
foto	-11.1361
▁organiseras	-11.1362
▁áv	-11.1365
/12	-11.1365
▁vuostáiváld	-11.1368
▁lohke	-11.1368
på	-11.1371
▁valkretsarna	-11.1371
▁fastställas	-11.1373
▁rádio	-11.1377
▁karin	-11.1377
▁jearrat	-11.1381
laččain	-11.1382
▁infektion	-11.1385
säsong	-11.1386
industrier	-11.1387
▁bedriva	-11.1387
▁duohtavuođas	-11.1388
▁nationalpark	-11.1389
▁uttryckte	-11.1393
▁ságastallama	-11.1394
▁tider	-11.1397
▁vuolggahi	-11.1405
▁850	-11.141
▁areal	-11.1411
▁planera	-11.1412
▁skylt	-11.1413
folk	-11.1414
▁slutföra	-11.1414
olli	-11.1416
▁normalt	-11.1417
▁álggu	-11.1418
▁sajiin	-11.1425
▁áššemeannud	-11.1429
▁synliga	-11.1432
▁450	-11.1437
▁1980	-11.144
▁uttryckt	-11.1446
▁håk	-11.1448
etalningsvillkor	-11.1452
▁fie	-11.1452
snedsättning	-11.146
▁ceavzilvuođa	-11.146
▁emrip	-11.146
▁hjärt	-11.146
▁individuála	-11.146
▁kollektiiva	-11.146
▁liŋk	-11.146
▁medborgerliga	-11.146
▁molssaeavttu	-11.146
▁resolušuvnna	-11.146
▁searvama	-11.146
▁dovdá	-11.146
▁narvik	-11.146
▁soađi	-11.146
▁lahkon	-11.146
▁lávki	-11.146
▁1986	-11.146
▁ägt	-11.146
▁juoidá	-11.146
direktevrra	-11.146
▁1800-	-11.146
komišuvdna	-11.146
renbetesdistrikt	-11.146
▁principiell	-11.146
▁diehtojuohkima	-11.146
▁fuolla	-11.1461
▁ovanstående	-11.1461
▁fylkkadikki	-11.1462
▁rievdá	-11.1462
▁amund	-11.1463
▁sjukdomar	-11.1464
▁visste	-11.1464
▁utövande	-11.1466
▁spår	-11.1467
▁dkk	-11.1467
▁godkänna	-11.1468
▁närmast	-11.147
▁lonuh	-11.1471
beslutsprocesser	-11.1473
▁genomsnittet	-11.1474
▁varierar	-11.1474
▁luohttámuš	-11.1477
▁organiserejuvvo	-11.1477
åldern	-11.1479
▁inspektion	-11.1482
gått	-11.1484
▁lohka	-11.1485
▁samutbildning	-11.1485
▁nymo	-11.1486
inkomst	-11.1488
láhkai	-11.1492
förhållandena	-11.1493
tradition	-11.1497
von	-11.1497
avdrag	-11.1501
▁uppdela	-11.1502
▁ávžžuhusa	-11.1502
▁oaččut	-11.1505
árvalus	-11.1507
▁gárta	-11.1512
▁rahča	-11.1517
▁bargiin	-11.1523
▁kandidat	-11.1527
▁láhkamearrádusa	-11.1529
▁oaivvilduvvon	-11.1535
▁byggnaden	-11.1537
duvvo	-11.1538
valljodaga	-11.154
▁fil	-11.1546
▁beta	-11.1551
▁meddelandet	-11.1561
▁nammasa	-11.1561
▁havsområden	-11.1564
▁iežat	-11.1566
▁åsikt	-11.1568
oahpus	-11.1571
▁almmuha	-11.1571
sáb	-11.1572
▁muddejuvvo	-11.1572
▁utskott	-11.1573
▁försörjning	-11.1575
▁130	-11.1578
▁suodjaleapmi	-11.1578
▁multi	-11.158
▁identiteten	-11.1583
▁utrustning	-11.1584
▁flyttsamelista	-11.1585
▁kompensera	-11.1585
▁molssaeaktu	-11.1585
▁mångkulturell	-11.1585
▁möjliggör	-11.1585
▁oassálaste	-11.1585
▁sutnje	-11.1585
▁unesco	-11.1585
hivvodaga	-11.1585
▁ministrarna	-11.1585
▁covid	-11.1585
▁vázze	-11.1585
▁duodjái	-11.1585
▁yle	-11.1586
▁laxfiske	-11.1586
▁ráhkadeapmái	-11.1587
pmái	-11.1587
▁plánemis	-11.1588
▁effekter	-11.1589
httisápmelaččaid	-11.1591
▁proposišuvnna	-11.1595
gaskaoapme	-11.1597
▁vástid	-11.1597
▁kanála	-11.1598
▁uppnått	-11.1598
▁uppstår	-11.1599
guovddážin	-11.16
▁bearrašii	-11.1601
návccaid	-11.1602
▁uppgå	-11.1606
▁genomsnitt	-11.1607
▁variation	-11.1609
▁ássanguovlluin	-11.1609
▁doalut	-11.1609
muttus	-11.161
▁uppgifterna	-11.1612
liiss	-11.1612
▁referánsa	-11.1614
▁sihk	-11.1614
▁3)	-11.1615
ohcama	-11.1616
ze	-11.162
strand	-11.1621
▁davviguovlluin	-11.1632
ägarna	-11.1634
▁konkret	-11.1634
▁tillgängligt	-11.1635
earru	-11.1635
▁förskolorna	-11.164
unskapsfrämjande	-11.1643
▁stivret	-11.1644
▁gohččun	-11.1647
girji	-11.165
▁kvenska	-11.1651
▁njuolggadusaide	-11.1654
▁maŋimusa	-11.1658
▁artister	-11.1663
▁förklaringen	-11.1665
▁ställas	-11.1666
gaska	-11.1668
fitnodagaid	-11.1669
▁upplevelse	-11.167
▁ipmárdus	-11.1674
▁laglig	-11.1677
jordbruksavtalet	-11.168
▁försöka	-11.1682
▁vintern	-11.1683
▁muttus	-11.1684
▁anmärkningar	-11.1687
full	-11.1688
▁fokusområdena	-11.1689
uođ	-11.1689
▁vuostáiváldi	-11.169
bagadus	-11.1697
▁dagai	-11.17
hálddahussii	-11.17
31	-11.1708
čázádaga	-11.1711
gihppaga	-11.1711
▁framgångsrik	-11.1711
▁álgoálbmogin	-11.1711
▁áŋgir	-11.1711
várjjaga	-11.1711
▁bohciid	-11.1711
▁committee	-11.1711
▁givssideami	-11.1711
▁nidaros	-11.1711
▁sijti	-11.1711
▁siskkilda	-11.1711
▁ohcamis	-11.1711
▁opposition	-11.1711
vetenskap	-11.1712
▁váddás	-11.1712
▁vásihusat	-11.1712
▁snpl	-11.1712
▁företagsförvärv	-11.1712
▁avverkning	-11.1712
▁vadsø	-11.1712
▁kristiansen	-11.1712
▁riido	-11.1712
▁snarare	-11.1712
löst	-11.1712
▁session	-11.1713
▁genetisk	-11.1713
▁plenar	-11.1713
▁nče	-11.1713
▁nagodan	-11.1714
▁utmanande	-11.1714
▁internáhtas	-11.1717
▁vän	-11.1718
▁olggobeale	-11.172
▁innebar	-11.1721
▁vuovdima	-11.1721
dik	-11.1724
▁ovttastahtt	-11.1726
ortnegiidda	-11.1727
smetoder	-11.1728
▁nio	-11.1729
▁1998:	-11.173
▁kulturguoddi	-11.173
organisašuvnnain	-11.1732
▁effektiva	-11.1735
▁termin	-11.1737
▁tonna	-11.1741
▁fältet	-11.1742
▁mánáiguin	-11.1743
prinsihpa	-11.1744
transport	-11.1745
njuolggadusain	-11.1746
jahkásaš	-11.1746
lasáhus	-11.1751
lahttu	-11.1751
asiid	-11.1751
▁tillfälle	-11.1753
▁upplevelser	-11.1753
álbmot	-11.1755
perspektiiva	-11.1759
▁strider	-11.1762
▁ráđđái	-11.177
▁1960	-11.1777
▁válddahuvvo	-11.1779
▁boađusin	-11.1782
▁forumet	-11.1785
.1.3	-11.1788
▁europa	-11.1788
▁vuostálas	-11.1798
▁jurddaš	-11.18
▁juhkko	-11.18
▁individ	-11.1801
▁láigo	-11.1801
▁olmmošlaš	-11.1802
▁fullt	-11.1809
jupmi	-11.181
▁fånga	-11.1811
▁priser	-11.1813
▁2014:	-11.1813
▁áŋgiruššamii	-11.1817
▁báz	-11.1818
▁kommittémedlemm	-11.182
▁ramplan	-11.1823
delad	-11.1827
betande	-11.183
▁čuovvovačča	-11.1833
bálvalussii	-11.1834
▁bargguide	-11.1837
stáhta	-11.1838
ovddideamis	-11.1838
85	-11.1839
▁utvidgning	-11.184
bálkkašupmi	-11.184
▁maŋiduvvo	-11.184
▁uppfostran	-11.184
▁árvalit	-11.184
▁ortnamn	-11.184
▁vahát	-11.184
▁vuvdojuvvo	-11.184
▁čuovvuleapmi	-11.184
▁deltagarna	-11.184
eastadeaddji	-11.184
▁vistelse	-11.184
latnja	-11.184
▁dovdo	-11.184
▁viesso	-11.184
▁buohcciviesu	-11.184
▁10%	-11.184
▁labourpartiet	-11.1841
▁vuđolaččat	-11.1841
▁áiddi	-11.1842
▁nordnorge	-11.1844
▁grön	-11.1845
▁bargoeallim	-11.1845
▁logaldal	-11.1846
▁gávdnan	-11.1848
▁vuođđoskuvlao	-11.1848
▁lapp	-11.185
▁inslag	-11.185
förbrukning	-11.1853
▁tilldelades	-11.1854
▁heter	-11.186
suohkaniin	-11.1861
▁resurssaide	-11.1863
com	-11.1867
▁bagadusa	-11.1867
▁foanda	-11.1871
diimmu	-11.1877
gáhtten	-11.1879
diehto	-11.1879
regel	-11.188
▁plánejuvvo	-11.188
▁dáhp	-11.1882
tjänst	-11.1883
▁3,5	-11.1884
▁britt	-11.1884
▁bilder	-11.1885
giidda	-11.1886
▁daiguin	-11.1888
norska	-11.1889
▁vuoruhuvvo	-11.1892
nuppástus	-11.1892
▁fertii	-11.1897
▁situationer	-11.1899
▁gávppaš	-11.1901
ahpaheaddjioahpu	-11.1903
smedel	-11.1903
▁stig	-11.1917
▁320	-11.192
▁dávvir	-11.1922
čállosa	-11.1925
▁tillfällen	-11.1927
▁lágida	-11.1933
▁sohkabeali	-11.1939
.3.4	-11.1939
▁dáhpáhusa	-11.1941
▁mielddus	-11.1942
beroštus	-11.1945
stödet	-11.1945
männen	-11.1945
▁birrasis	-11.195
▁gulle	-11.1956
▁gullo	-11.1962
▁guliid	-11.1962
▁gaskavuođa	-11.1963
linnjá	-11.1963
6.2	-11.1964
standárdda	-11.1967
rike	-11.1968
▁mihtilmas	-11.1969
vuoiŋŋa	-11.1969
▁maximal	-11.1969
▁oasálasti	-11.1969
▁omlokalisering	-11.1969
▁ođasmuvvi	-11.1969
▁småningom	-11.1969
▁tyvärr	-11.1969
▁övertyga	-11.1969
vuođustuvvon	-11.197
▁váccii	-11.197
vutnii	-11.197
fiilla	-11.197
rusttet	-11.197
komišuvnna	-11.197
-2007	-11.197
▁unjárga	-11.197
▁sámeradio	-11.197
▁dássedis	-11.1971
▁čielggaduvvon	-11.1971
▁vealaheapmi	-11.1971
▁čađaheapmi	-11.1971
▁máhte	-11.1972
▁lifjell	-11.1972
eigga	-11.1972
▁dieđe	-11.1973
▁sagt	-11.1974
▁vuoruhuvvojit	-11.1974
▁dieđiheapmi	-11.1976
sekreterare	-11.1976
▁oza	-11.1976
▁loahpaha	-11.1976
▁gierd	-11.1977
▁sfp	-11.198
▁dutkat	-11.1982
▁festiválat	-11.1982
▁jämförelse	-11.1982
sátni	-11.1982
▁sisaboađu	-11.1983
▁justera	-11.1987
▁mihttu	-11.1987
▁duopmostuoluid	-11.1991
lärarutbildning	-11.1992
buvttadeapmái	-11.1992
▁93	-11.1992
▁merkejuvvon	-11.1998
▁áviissaid	-11.1998
▁skick	-11.2003
▁ovttaoaivil	-11.2005
▁eatnamat	-11.2006
bálkkašumi	-11.2009
pre	-11.2009
geavaheaddji	-11.201
vatten	-11.201
▁budgetförslag	-11.2017
▁bustáva	-11.2019
▁fina	-11.2022
▁lk	-11.2025
▁bosatt	-11.2025
▁finsk	-11.2026
▁rekruteren	-11.2028
▁váill	-11.2029
▁lágádusaid	-11.2029
bestämmelserna	-11.2031
▁muitaluvvo	-11.2037
▁áittardeaddji	-11.2042
▁justitie	-11.2048
finn	-11.206
lotte	-11.2064
▁ändringarna	-11.2067
▁kulturministtar	-11.2067
▁antagits	-11.2071
▁integrerad	-11.2075
udgetförfaranden	-11.2076
▁ávdnasat	-11.2076
▁rie	-11.2077
čilgehus	-11.2077
▁långsiktigt	-11.2078
▁strid	-11.208
▁försvars	-11.2085
▁säg	-11.209
▁föreslagits	-11.2091
▁förändras	-11.2094
eaiggáda	-11.2097
▁varumärke	-11.2099
▁betoning	-11.2101
▁därefter	-11.2101
▁känt	-11.2101
▁matematihkka	-11.2101
▁nannosit	-11.2101
▁skogerbø	-11.2101
▁trygve	-11.2101
▁tyckte	-11.2101
dimenšuvnna	-11.2101
▁beaivádeami	-11.2101
▁muorra	-11.2101
▁pedagogik	-11.2101
▁máksineavttut	-11.2101
▁duhát	-11.2101
▁beaivái	-11.2101
bestämning	-11.2102
personer	-11.2102
▁sammansättning	-11.2103
▁fredag	-11.2103
▁veahkaváldi	-11.2103
▁antagande	-11.2105
▁láhkaaddi	-11.2105
boende	-11.2105
▁närings	-11.2109
▁inkluderande	-11.2109
▁čoahkkinortnega	-11.211
▁geahčadan	-11.2112
ministara	-11.2114
▁unjárggas	-11.2114
▁tillräckliga	-11.2115
▁davvisámi	-11.2116
▁svf	-11.2116
juohkin	-11.2121
▁kulturpolitik	-11.2122
ledamöterna	-11.2123
▁kulturásahusat	-11.2123
730	-11.2125
▁kopplat	-11.2128
dra	-11.2134
▁asa	-11.2135
skuvlii	-11.2136
▁lasihuvvon	-11.214
suodjalan	-11.2142
ráhkkanahtti	-11.2143
duođaštus	-11.2144
meannudeami	-11.2144
guovl	-11.2145
jahkái	-11.2146
▁áŋgiruššamiid	-11.2146
▁tillgänglighet	-11.2148
▁tolkningstjänst	-11.216
gje	-11.216
▁hatti	-11.2163
▁doahpagi	-11.2164
▁mielváikkuh	-11.2166
▁sohka	-11.2168
▁birget	-11.217
▁125	-11.2173
▁köpa	-11.2174
▁betesmark	-11.2177
▁uppdaterad	-11.2177
▁julevsámegielas	-11.2179
språkiga	-11.218
ealáhusat	-11.2183
ođđa	-11.2183
▁buhtad	-11.2186
▁havssamisk	-11.219
direktoráhtain	-11.2191
▁bálkkašumi	-11.2194
▁2,5	-11.2197
▁orohagain	-11.2206
dieđiheaddji	-11.2207
▁moderna	-11.2209
▁gro	-11.2211
imatförändringar	-11.2212
báikkiin	-11.2215
▁struktuvra	-11.2216
fel	-11.2222
▁árjja	-11.2222
▁relation	-11.2223
▁gái	-11.2227
njuolggadus	-11.2227
▁čovdosat	-11.2227
▁suodj	-11.223
▁hálddašanplána	-11.2231
▁folke	-11.2232
▁kapitála	-11.2232
gaskamearálaččat	-11.2234
statsautoriserad	-11.2234
▁belysa	-11.2234
▁friluftsliv	-11.2234
▁föreskriver	-11.2234
▁gelddolaš	-11.2234
▁guovdageidnui	-11.2234
▁slutfördes	-11.2234
▁valkeapää	-11.2234
▁dagahii	-11.2234
▁prentejuvvo	-11.2234
▁affärsmetoder	-11.2234
▁deavdit	-11.2234
▁jáhkehahtti	-11.2234
▁náital	-11.2234
▁försoning	-11.2235
▁fárus	-11.2235
▁veahkkeneavvu	-11.2235
▁máttasámegiela	-11.2235
eaktu	-11.2235
▁čuovvuluvvo	-11.2235
▁čielggaduvvot	-11.2235
▁máhttoloktema	-11.2236
▁kvinna	-11.2236
▁imf	-11.2236
▁dagisbjudande	-11.2238
▁hupmat	-11.2238
▁högskole	-11.2238
▁siidaosiid	-11.2238
sexuella	-11.2239
▁tvist	-11.2239
▁bágge	-11.224
▁hábmemis	-11.2241
▁rösträtt	-11.2241
▁upprättats	-11.2242
ealáhusaide	-11.2243
▁gården	-11.2244
▁honom	-11.2246
▁vuord	-11.2247
sammanhang	-11.2249
sátnegirjji	-11.225
▁djo	-11.2256
▁valle	-11.2257
▁lyngen	-11.2258
▁várrelahttun	-11.2262
sschema	-11.2265
ologiija	-11.2268
▁vägra	-11.2268
växt	-11.227
oahpahusas	-11.2274
▁ossodagas	-11.2275
▁partier	-11.2276
čuoggá	-11.2279
lagstiftning	-11.2282
▁jienasteaddji	-11.2285
mihttu	-11.2285
▁mávssu	-11.2285
jahke	-11.2285
▁konto	-11.2286
svensk	-11.2286
▁tvåspråkig	-11.2291
▁pedagogisk	-11.2291
▁formell	-11.2292
▁riikkasearv	-11.2293
oassái	-11.2294
▁tidsfrister	-11.2295
▁resurssa	-11.2299
▁gohčču	-11.2301
▁planerat	-11.2301
▁eaiggádušša	-11.2302
▁studeanttaide	-11.2303
romssa	-11.2303
▁suohkanlaš	-11.2305
▁stivralahtu	-11.2306
ibm	-11.2307
▁hehttet	-11.2308
▁galledi	-11.231
▁insamling	-11.2311
▁muitalusa	-11.2313
stivrema	-11.2314
rádji	-11.2315
guovddážiid	-11.2317
žžu	-11.2321
▁referens	-11.2322
hallat	-11.2324
▁praktik	-11.2325
▁dialogen	-11.2333
gaard	-11.2345
▁fidnet	-11.2346
▁geografiskt	-11.235
eallimii	-11.2359
▁initierat	-11.236
girjjiid	-11.2363
▁merošt	-11.2365
▁rievddada	-11.2368
▁snabb	-11.2368
fylk	-11.2368
▁cuiggod	-11.237
▁diehttelas	-11.237
gieđahallama	-11.237
▁bådåddjo	-11.237
▁dállodoalu	-11.237
▁innovašuvnna	-11.237
▁kreativ	-11.237
▁kvalitativ	-11.237
▁márkomeannu	-11.237
▁sajádat	-11.237
▁ságaškušša	-11.237
▁čiekŋud	-11.237
▁rievttes	-11.237
▁sorjá	-11.237
flöde	-11.237
▁mearrideami	-11.237
▁loatna	-11.237
▁verdde	-11.237
valáštall	-11.237
▁julevsámegillii	-11.237
▁spridd	-11.237
▁ersätter	-11.2371
▁čálihuvvon	-11.2371
▁flytt	-11.2371
▁vuoruid	-11.2371
▁arbetskraft	-11.2371
▁sáddejuvvui	-11.2371
▁davvisámegiella	-11.2372
▁sihkarvuođa	-11.2372
▁gárren	-11.2372
▁edvin	-11.2372
▁njávdámis	-11.2372
▁stipendium	-11.2373
▁báikenammalága	-11.2373
blick	-11.2375
▁mátkkoštan	-11.2378
▁karen	-11.2379
▁myndigheten	-11.238
▁upphandling	-11.2383
▁83	-11.2383
▁språkutbildning	-11.2389
▁eahpesihkar	-11.24
▁báikegottiin	-11.2401
djon	-11.2402
skol	-11.2402
▁ohcanskovv	-11.2402
▁stortings	-11.2405
▁oččod	-11.241
förfarande	-11.241
▁kunglig	-11.2411
wi	-11.2414
▁slakterier	-11.2416
dilálašvuođaid	-11.2416
▁rájiid	-11.2418
dássái	-11.2421
▁váldoášši	-11.2423
▁nummer	-11.2428
historjjálaš	-11.2429
▁avsikten	-11.2431
▁speciell	-11.2431
▁geasi	-11.2436
ddji	-11.2438
▁vásiha	-11.2439
▁behandlats	-11.2441
▁stivralahtuid	-11.2442
▁investeringarna	-11.2446
principen	-11.2446
▁ovddidemiin	-11.2447
fámu	-11.2451
lösningar	-11.2452
▁kyrka	-11.2458
▁boarráse	-11.246
▁2015:	-11.2473
▁foruma	-11.2473
▁standard	-11.2474
▁vägar	-11.2475
åriga	-11.2476
▁operativa	-11.2476
▁149	-11.2479
▁kulturfond	-11.2481
▁real	-11.2485
▁upprätthåll	-11.2487
▁duođaštusa	-11.2488
politisk	-11.2491
mihá	-11.2494
▁beviljade	-11.2498
▁váidin	-11.2501
▁investeremiid	-11.2503
▁utmana	-11.2506
▁avlägsna	-11.2506
olmmožin	-11.2507
▁berättelser	-11.2507
▁giddagas	-11.2507
▁lullisámegillii	-11.2507
▁magister	-11.2507
▁sturrosa	-11.2507
▁čuhcet	-11.2507
▁garanti	-11.2507
förbundet	-11.2507
▁fordran	-11.2507
▁cealkaga	-11.2507
▁åldersgrupper	-11.2507
▁lobálaš	-11.2507
▁soria	-11.2507
▁manndalen	-11.2507
▁gruvdrift	-11.2507
▁vinterbete	-11.2507
▁aktiiva	-11.2507
▁oahpaheddjiin	-11.2507
▁namahuvvon	-11.2508
▁inblandade	-11.2509
▁scen	-11.2509
dolliid	-11.2509
▁rihkko	-11.251
▁orui	-11.251
–2009	-11.2511
▁rievdadeapmi	-11.2513
▁ávžžuhit	-11.2513
▁meahcásteami	-11.2514
▁produceras	-11.2514
▁vilda	-11.2514
julggaštus	-11.2521
valtningsorgan	-11.2522
▁galggaše	-11.2525
▁láhkaásahusain	-11.2527
▁enskil	-11.2527
▁2-3	-11.2529
bargiide	-11.253
▁platsen	-11.2533
▁pekar	-11.2535
birrasiiguin	-11.2539
▁utvärderas	-11.2539
timis	-11.2539
▁mediain	-11.2541
▁planeringen	-11.2542
▁hund	-11.255
▁term	-11.2551
▁vårdtjänst	-11.2552
ministariin	-11.2555
▁girkolaš	-11.2555
▁bovdejuvvon	-11.2556
▁dilálašvuođat	-11.2558
márkan	-11.2559
▁hyres	-11.2559
▁rättvisa	-11.2561
vuostáiváldi	-11.2561
▁rávvagat	-11.2561
dutkamii	-11.2562
ovdáneapmái	-11.2562
gáibádusaid	-11.2565
▁betesmarker	-11.2568
rling	-11.2568
konsultašuvnnain	-11.2568
▁erfarenheterna	-11.2571
▁störst	-11.2571
bank	-11.2571
ställning	-11.2577
▁lagkommitté	-11.2585
bjudande	-11.2585
▁långa	-11.2588
▁part	-11.259
bohtosii	-11.2591
bbo	-11.2591
▁earáiguin	-11.2597
▁filmmaid	-11.26
▁rehkenast	-11.2604
guolásteapmái	-11.2604
▁näm	-11.2607
förändringarna	-11.2609
▁luosa	-11.2611
oahppa	-11.2614
▁560	-11.2618
▁genomförd	-11.2625
▁galli	-11.2628
duogáš	-11.2634
▁gelbbolaš	-11.2636
▁rensköt	-11.2638
▁sexuell	-11.2641
meanta	-11.2644
▁olgeš	-11.2645
vásihus	-11.2645
duopmostuollu	-11.2645
jođihangoddái	-11.2645
vuđđui	-11.2645
▁dikkanen	-11.2645
▁vuolgit	-11.2645
▁válljii	-11.2645
▁vássán	-11.2645
▁árvvoštallet	-11.2645
▁čavga	-11.2645
▁argument	-11.2645
▁stoppa	-11.2645
▁vasara	-11.2645
▁áiggo	-11.2645
diagnos	-11.2645
▁hálddus	-11.2645
▁medborgare	-11.2645
▁språkarenor	-11.2645
fuođđar	-11.2645
▁savio	-11.2645
▁export	-11.2645
▁dávda	-11.2645
▁gift	-11.2646
▁vásihusaid	-11.2646
bláđi	-11.2646
▁eahpid	-11.2646
▁gárvvistuvvot	-11.2646
áddjá	-11.2646
▁vårdpersonal	-11.2647
▁romsii	-11.2647
▁vearu	-11.2648
▁klargör	-11.2648
▁kompletterande	-11.2648
▁avvisades	-11.2649
luotta	-11.2649
▁framöver	-11.2649
teknolog	-11.2652
73	-11.2653
▁oamastan	-11.2653
83	-11.2655
▁olgo	-11.2657
▁inlämnade	-11.2659
▁lusa	-11.266
▁540	-11.2661
▁eanetlohko	-11.2662
▁fuolahuvvo	-11.2664
parlamentet	-11.2666
.1.4	-11.2666
▁giellaráđi	-11.2668
nim	-11.2671
▁čuohca	-11.2672
▁implementering	-11.2673
lea	-11.2675
▁bidragsnämnd	-11.2676
3%	-11.2681
förslaget	-11.2682
▁gemenskap	-11.2689
deamen	-11.2693
▁öronmärkt	-11.2693
▁2.7	-11.2701
brott	-11.2704
kapacitet	-11.2705
drift	-11.2705
▁vetenskap	-11.2706
lohii	-11.2706
fáddá	-11.271
▁lokte	-11.2711
ádusa	-11.2712
▁kvensk	-11.2712
gaskaoapmin	-11.2712
▁doala	-11.2712
▁vuoruhemiide	-11.2713
naturförvaltning	-11.2713
▁tillfällig	-11.2714
▁eo	-11.2715
▁skriftligen	-11.2715
▁rad	-11.2717
–19	-11.2719
▁antag	-11.2721
samarbetsprojekt	-11.2721
▁ealá	-11.2725
▁joavkkuin	-11.2726
álbmogii	-11.2727
▁gielain	-11.2728
▁giliid	-11.2733
prosedyra	-11.2733
servodateallimii	-11.2733
klagandenämnd	-11.2734
▁rom	-11.2735
▁2016)	-11.2735
hemiin	-11.2736
allamis	-11.2738
▁mols	-11.2739
▁utgångspunkten	-11.2741
▁alkohol	-11.2743
▁rek	-11.2749
▁socialtjänst	-11.275
resursanvändning	-11.2753
▁meannuduvvon	-11.2761
▁majoritehta	-11.2761
▁104	-11.2762
▁kommišuvdna	-11.2769
▁planerna	-11.2769
rusttegii	-11.2771
avdelningen	-11.2775
▁muntligt	-11.2776
▁utbildningsnivå	-11.278
luondduhálddašan	-11.278
▁lyfta	-11.2786
kvalitetssäkring	-11.2786
▁cultur	-11.2786
▁dakkaviđe	-11.2786
▁evenášši	-11.2786
▁koronavirus	-11.2786
▁lađđasii	-11.2786
▁miellagiddevaš	-11.2786
▁mobiila	-11.2786
▁prosentii	-11.2786
▁sturrodat	-11.2786
▁telefovdna	-11.2786
▁önskar	-11.2786
▁förfogande	-11.2786
▁nieiddat	-11.2786
▁doallá	-11.2786
▁onsdagen	-11.2786
▁upplevde	-11.2786
▁dievdoolbmot	-11.2786
övre	-11.2786
▁gáivuotna	-11.2787
▁fakta	-11.2787
▁maori	-11.2787
gåvor	-11.2787
▁opera	-11.2787
▁seaguh	-11.2787
▁sihkku	-11.2787
▁investeremat	-11.2787
▁almmuhuvvui	-11.2788
▁lihku	-11.2788
▁ofelačča	-11.2789
▁euro	-11.2791
▁fjordarna	-11.2794
▁skjuta	-11.2794
eappo	-11.2795
▁eaiggátvuođa	-11.2795
▁boskap	-11.2796
▁(§	-11.2796
▁gozihan	-11.2796
▁giellabarggu	-11.2798
▁bargamušaid	-11.2799
▁barga	-11.2801
▁dokumeanttaid	-11.2802
budget	-11.2806
▁användbart	-11.2809
▁sjukvårds	-11.2812
▁bestånd	-11.2816
▁vuotnaguovlluid	-11.282
▁olmmošlogu	-11.2826
▁heaittih	-11.2826
forvaltning	-11.2828
▁jorgaluvvon	-11.2828
miiguin	-11.2832
▁lasi	-11.2836
smaterialet	-11.2842
áigemearri	-11.2843
mátkki	-11.2846
▁deattuhuvvon	-11.2848
▁šiehtadallamiin	-11.2849
försäljning	-11.285
(	-11.285
föreskrifter	-11.2853
förklaring	-11.2854
utsättningarna	-11.2861
láhkaásahusa	-11.2862
värd	-11.2864
kontroll	-11.2865
skyldigheten	-11.287
2.2.1	-11.2872
▁15.00	-11.2875
▁dávisti	-11.2879
riska	-11.2879
▁álgán	-11.2883
▁galgan	-11.289
▁sektorer	-11.2893
▁gažaldagaide	-11.2901
▁sum	-11.2908
▁lihka	-11.2915
▁begrepp	-11.2917
astta	-11.292
▁mielke	-11.2921
hälsovården	-11.2921
▁minoritehtaid	-11.2924
▁sámediggeáiras	-11.2929
▁ovdanbuktin	-11.2929
▁tillhandahålls	-11.2929
▁báhčin	-11.2929
▁hedmárkku	-11.2929
▁koncentrera	-11.2929
▁mánáidoaju	-11.2929
▁reanttu	-11.2929
šilju	-11.2929
▁1959	-11.2929
medisiinna	-11.2929
▁olahusjoavku	-11.2929
▁standardisering	-11.293
▁váhnemiin	-11.293
▁iešmearrideapmi	-11.293
▁ordböcker	-11.2931
ehtalaš	-11.2932
▁medicinsk	-11.2932
▁árbevierut	-11.2934
▁sihkkaris	-11.2934
▁doarjjaohcan	-11.2936
stått	-11.2936
▁doktorsexamen	-11.2936
▁čuožžilit	-11.2936
▁gohččuma	-11.2937
▁affärer	-11.2938
▁bott	-11.2939
vra	-11.294
kvoter	-11.294
▁áirasiidda	-11.2941
▁ansvarsområden	-11.2945
▁beasai	-11.2947
▁válggaid	-11.2949
httima	-11.2951
▁eamiálbmogiidda	-11.2956
ohcamiid	-11.2962
.6.1	-11.2963
▁oassálastán	-11.2963
▁juogaduvvon	-11.2966
▁lanjaid	-11.2973
▁ráji	-11.2976
noš	-11.2979
▁flyttat	-11.2985
▁ássiide	-11.2988
▁mearraluossa	-11.2995
utskottet	-11.2997
▁statistisk	-11.2998
media	-11.3001
vieru	-11.3011
▁fágasurggiid	-11.3011
▁operation	-11.3014
▁partners	-11.3017
▁107	-11.3018
▁pressmeddelande	-11.302
▁tolkar	-11.302
ásahusain	-11.302
▁servodatfága	-11.3022
budgeten	-11.3022
▁ruđain	-11.3022
gáhttema	-11.3029
▁märke	-11.303
▁ove	-11.3033
▁frivilliga	-11.3033
▁čovdosa	-11.3034
geahčastagas	-11.3036
oamasteaddji	-11.3039
▁museain	-11.3039
▁relatera	-11.304
50.000	-11.3042
▁kulturindustrin	-11.3043
▁anmäl	-11.3046
▁arbetslöshet	-11.3046
.03.18	-11.3046
▁tidning	-11.3046
externa	-11.3048
▁ungdomspolitisk	-11.305
▁dokumeanta	-11.3053
sbaserad	-11.3055
▁valdes	-11.3055
▁miellahtu	-11.3057
fitnodagat	-11.306
▁positionen	-11.3063
stipend	-11.3067
begränsning	-11.3068
ássi	-11.3072
▁side	-11.3072
▁chefen	-11.3073
▁beroštit	-11.3074
▁flexibel	-11.3074
▁havslaxfiske	-11.3074
▁ikraftträdande	-11.3074
▁läkemedel	-11.3074
▁miellaguottu	-11.3074
▁släpp	-11.3074
▁ulbmilolahusa	-11.3074
▁undersökt	-11.3074
▁önskemål	-11.3074
▁dutnje	-11.3074
▁gokčojuvvo	-11.3074
▁gávpoga	-11.3074
▁strøm	-11.3074
▁överträdelse	-11.3074
▁vuolgá	-11.3074
▁adress	-11.3074
▁rhf	-11.3074
.2017	-11.3074
▁einnostahtti	-11.3074
▁fidnooahppi	-11.3075
▁fylkagieldda	-11.3075
▁olaglig	-11.3075
▁003/1	-11.3076
▁001/1	-11.3076
▁skriftspråk	-11.3076
▁minerallagen	-11.3078
▁ovddimus	-11.3078
▁áhku	-11.3078
▁hindra	-11.3078
▁viidodat	-11.308
▁valdagen	-11.3081
▁rummet	-11.3082
▁geavatlaččat	-11.3082
konsumtion	-11.3084
▁avslutas	-11.3086
▁gálvvuid	-11.3087
▁bevis	-11.3087
▁dahke	-11.3088
▁kvener	-11.3092
▁mjölkproduktion	-11.3094
biebmu	-11.3095
▁konsultation	-11.3096
källa	-11.3097
▁beroštumiide	-11.3098
vad	-11.3101
árvu	-11.3106
▁giellaoahpahusa	-11.3107
▁genomförde	-11.3108
▁sekretariatet	-11.3109
▁meroštalla	-11.311
▁sjø	-11.3112
▁kulturminne	-11.3112
oasálaččat	-11.3113
▁samhällslivet	-11.3117
föreställning	-11.3118
ádaga	-11.3121
▁buolvvaide	-11.3125
nangen	-11.3128
▁språkpolitik	-11.3129
prosedyraid	-11.3129
▁eaiggádi	-11.313
protokoll	-11.3131
belopp	-11.3132
fierpmádat	-11.3136
guovddážis	-11.3139
▁kulturskuvla	-11.3142
▁fund	-11.3143
váttisvuođat	-11.3145
effekt	-11.3146
organisašuvdna	-11.3146
▁varierad	-11.3148
▁čilgejuvvot	-11.3157
▁muntlig	-11.3157
▁gárte	-11.3165
httii	-11.3165
▁lang	-11.3166
beroštumiid	-11.3168
teori	-11.3172
▁soga	-11.3173
▁tjäna	-11.3174
gáibádusat	-11.3177
▁användaren	-11.3186
▁jođ	-11.3189
▁sambo	-11.3193
skj	-11.3195
dovddu	-11.3198
▁doarjjaortnet	-11.3203
laččaide	-11.3208
▁avser	-11.3211
▁ohcal	-11.3214
▁eallimis	-11.3216
▁avslutade	-11.3217
▁dutkit	-11.322
▁missbruk	-11.3221
▁eŋgelas	-11.3221
▁koncept	-11.3221
▁oččoš	-11.3221
▁placering	-11.3221
▁álbmotmeahci	-11.3221
gealbbu	-11.3221
▁2012/2013	-11.3221
▁bååstede	-11.3221
▁dávjjibut	-11.3221
▁humaniora	-11.3221
▁indigenous	-11.3221
▁kárášjohkii	-11.3221
▁lagstifta	-11.3221
▁riksantikvarie	-11.3221
registtar	-11.3221
▁buljo	-11.3221
▁luondu	-11.3221
▁nordreisa	-11.3221
▁åldersgruppen	-11.3221
▁ersätts	-11.3221
▁hárve	-11.3221
▁deavdde	-11.3221
▁guoddal	-11.3221
▁geigii	-11.3221
▁rávesolbmuid	-11.3221
▁fack	-11.3221
▁new	-11.3221
forbund	-11.3222
▁kyrkoliv	-11.3222
▁sávzadoalu	-11.3222
▁vardera	-11.3222
▁ohcanskovi	-11.3222
▁moria	-11.3222
▁ellet	-11.3223
▁snabbare	-11.3223
▁004/1	-11.3223
▁budgetår	-11.3223
▁taget	-11.3223
portála	-11.3224
▁guođohan	-11.3224
▁biddjojuvvui	-11.3224
▁sisdollui	-11.3225
▁kvalificerade	-11.3226
▁fágasurggiin	-11.3227
▁gártá	-11.3228
▁samarbetsreform	-11.3228
▁ipmirdan	-11.3229
▁boanddaid	-11.323
▁čakča	-11.3233
▁bargodili	-11.3241
▁meahcást	-11.3245
▁beliide	-11.325
▁lasáhusa	-11.3251
konstitutionella	-11.3257
▁teáhtera	-11.3257
▁guhkiduvvo	-11.3258
▁fångar	-11.3258
savdelningen	-11.3263
fálaldahkii	-11.3266
kanal	-11.3267
▁guolásteaddji	-11.3268
fár	-11.327
▁ráđđehussii	-11.3272
▁iskkademiid	-11.3274
▁reda	-11.3278
▁fylkkaplána	-11.3279
▁30%	-11.3284
nou	-11.3287
▁gáhttet	-11.3291
▁materialet	-11.3293
▁sihkkarvuođa	-11.3295
▁stáhtaráđis	-11.3296
▁målgruppen	-11.3296
iskkadeami	-11.3297
dillái	-11.3302
▁čállojuvvo	-11.3303
ána	-11.3304
▁mákso	-11.3306
▁sárdni	-11.3309
▁bajid	-11.3312
protokollet	-11.3313
divššu	-11.3313
▁log	-11.3314
spel	-11.332
▁hábmemii	-11.332
▁bargagoaht	-11.3326
▁divššohas	-11.3326
▁2002:	-11.3329
▁gidde	-11.3331
mearr	-11.3337
gova	-11.3338
förvärv	-11.3339
▁ovddidanbarggu	-11.3343
irras	-11.3349
ung	-11.3351
▁drabba	-11.3352
▁tilldelade	-11.3354
ständiga	-11.3355
▁avsätta	-11.3356
▁beal	-11.3358
▁arbetsliv	-11.3359
▁árra	-11.3362
▁čohkken	-11.3363
▁650	-11.3363
reivve	-11.3366
tuvra	-11.3366
▁osäker	-11.3367
eatnamis	-11.3369
▁butenschøn	-11.337
▁duopmostuollo	-11.337
gieđahallamii	-11.337
▁gieđahallá	-11.337
▁slutgiltig	-11.337
▁spännande	-11.337
▁indikator	-11.337
▁válmmas	-11.337
▁šibit	-11.337
▁čađahii	-11.337
▁vurke	-11.3371
▁fárrui	-11.3371
▁dominera	-11.3371
▁riikarevišuvnna	-11.3371
intyg	-11.3371
▁folkförsäkrings	-11.3371
▁aktivitehta	-11.3372
lem	-11.3372
▁lyckats	-11.3372
▁005/1	-11.3373
▁1983	-11.3373
▁trodde	-11.3374
▁bredare	-11.3377
▁čále	-11.3377
▁frukt	-11.3378
bidragsstyrelsen	-11.3378
▁margret	-11.338
▁framåt	-11.338
▁storfjord	-11.3381
▁mearriduvvojit	-11.3383
▁searvevuođa	-11.3384
▁språkcentret	-11.3384
▁vindkraftverk	-11.3385
▁jorgalan	-11.3386
▁girjjiid	-11.3388
▁vuođđudit	-11.339
▁vuoras	-11.3391
▁vanlig	-11.3393
▁oainná	-11.3394
producenter	-11.3399
▁álggaheami	-11.3399
▁förekomsten	-11.34
▁synliggör	-11.34
▁veara	-11.3404
▁risten	-11.3404
areálaid	-11.3411
▁förnybara	-11.3411
▁stáhtaministar	-11.3412
▁dovddahi	-11.3414
▁eatnigiella	-11.3414
▁registrerejuvvo	-11.3415
▁rett	-11.3417
▁buktet	-11.3417
ávkkástallamii	-11.3424
▁searve	-11.3427
ekryteringsandel	-11.3429
landshövdingarna	-11.3434
▁jämförbar	-11.3436
gaskaoapmi	-11.3442
▁migration	-11.3445
▁ráđđádallamiid	-11.3448
museet	-11.3452
statistik	-11.3452
servodat	-11.3452
▁rekrutere	-11.3454
pel	-11.3459
fallet	-11.3467
ashi	-11.3472
▁čuovvola	-11.3473
oahpaheddjiid	-11.3474
▁lagändringar	-11.3492
▁áŋgirušš	-11.3494
▁meahcástan	-11.3508
▁låga	-11.351
funktion	-11.3512
▁gáhtten	-11.3513
emiiguin	-11.3516
▁tillfälligt	-11.3517
profiila	-11.3522
árbevierru	-11.3522
▁aktevrrat	-11.3522
▁aktiebolag	-11.3522
▁guoddevaš	-11.3522
▁lavangen	-11.3522
▁rikstäckande	-11.3522
▁specificera	-11.3522
▁sämre	-11.3522
▁utfrågning	-11.3522
▁workshop	-11.3522
▁čilgii	-11.3522
vuogádahkii	-11.3522
▁arkitekt	-11.3522
▁buvttii	-11.3522
gielddus	-11.3522
▁inlandsfisk	-11.3522
▁jämn	-11.3522
▁egenproducerad	-11.3522
koartta	-11.3522
▁förenkla	-11.3522
▁sanks	-11.3522
paket	-11.3522
scentret	-11.3522
▁renmärke	-11.3523
undersökningen	-11.3523
▁002/1	-11.3524
▁beteende	-11.3524
▁duođašta	-11.3524
▁lundui	-11.3524
▁fosen	-11.3524
▁märkning	-11.3524
▁gávnnaha	-11.3525
doaimmaheaddji	-11.3527
▁nammadeapmi	-11.3527
▁guorra	-11.3528
▁bargamušat	-11.3529
čilgehusa	-11.353
▁dárkilis	-11.353
▁háve	-11.353
ssammansättning	-11.3534
▁leds	-11.3538
▁befattningar	-11.3538
▁juolluduvvojit	-11.3542
▁tvång	-11.3547
▁addojuvvojit	-11.3547
sprocesserna	-11.3553
▁7.3	-11.3556
▁språkcenter	-11.3556
▁6.4	-11.3559
▁birrasiin	-11.356
▁bisuhuvvot	-11.3561
▁2019:	-11.3561
▁jie	-11.3563
▁rädd	-11.3564
▁doalaha	-11.3568
▁plenarmötet	-11.3575
▁solid	-11.3576
▁pasieanttaide	-11.3579
▁almmuhuvvot	-11.3586
▁oaiviliid	-11.3587
▁ollá	-11.3588
▁punkterna	-11.3591
▁oalge	-11.3593
▁valberedningen	-11.3593
▁rámi	-11.3597
▁1960-	-11.3603
goaski	-11.3607
statistihka	-11.3608
instrument	-11.3608
länder	-11.3608
▁lágidan	-11.3609
▁dievas	-11.3609
▁viiddiduvvo	-11.3609
▁mitten	-11.361
▁láve	-11.3611
turism	-11.3611
▁vahkkui	-11.3614
smodeller	-11.3614
▁konsešuvnna	-11.3615
.2.5	-11.3617
▁barge	-11.3618
▁bekräftelse	-11.3623
våg	-11.363
skild	-11.3638
▁lönsamheten	-11.3643
▁juogadeami	-11.3649
▁dutki	-11.3649
röst	-11.365
▁plánema	-11.3651
proseassaid	-11.3651
▁ansökningarna	-11.3652
▁samkonvention	-11.3654
▁löner	-11.3658
▁guoskkaha	-11.3659
▁lihkostuvv	-11.366
▁bargojuvvo	-11.3663
▁hástalusaide	-11.3666
▁tänka	-11.3669
part	-11.3673
elever	-11.3673
ealáskahttin	-11.3676
renbeitedistrikt	-11.3676
▁ansåg	-11.3676
▁avslöja	-11.3676
▁hattfjelldal	-11.3676
▁njuovžil	-11.3676
▁náittos	-11.3676
▁rønbeck	-11.3676
▁åhrén	-11.3676
▁upprepa	-11.3676
▁växer	-11.3676
▁čađahedje	-11.3676
▁formalisera	-11.3676
▁boađe	-11.3676
▁dikšo	-11.3676
▁muosá	-11.3676
nákca	-11.3676
▁1966	-11.3676
dubbla	-11.3676
ruoktu	-11.3676
▁máksinávžžuhus	-11.3676
▁vahkko	-11.3676
▁viđá	-11.3676
ceahkk	-11.3676
▁háliit	-11.3676
▁ássat	-11.3676
▁geassesiidda	-11.3677
▁grönland	-11.3677
▁luohte	-11.3677
▁översatt	-11.3677
▁hállat	-11.3678
▁gažaldahkii	-11.3678
fidnu	-11.3678
▁siidaandel	-11.3678
jovna	-11.3679
▁morten	-11.3679
▁dahkamuš	-11.3681
ussan	-11.3681
▁resurssaiguin	-11.3682
▁váidit	-11.3683
joavkkuide	-11.3684
▁buolvvaid	-11.3685
▁muddenplána	-11.3685
strategiijaplána	-11.3685
▁suohkaniiguin	-11.3685
▁skickats	-11.3686
▁loahpalaččat	-11.3687
▁hå	-11.3688
▁sámepolitihkka	-11.3689
▁bära	-11.3693
vttoh	-11.3694
▁guhtege	-11.3696
myndigheter	-11.3696
institušuvnnaid	-11.3699
▁orgánain	-11.3701
▁vuostáiváldit	-11.3703
befolkning	-11.3706
särenden	-11.3706
▁heite	-11.371
▁formuleringen	-11.3716
▁25%	-11.3722
▁bilda	-11.3725
▁várren	-11.3727
▁instruktioner	-11.3727
▁hadde	-11.3732
eará	-11.3737
möjligheter	-11.374
▁resan	-11.3742
▁samene	-11.3744
▁ráfáiduhttin	-11.3745
▁dárbbašmeahttu	-11.3748
movttiidahttin	-11.3761
diđolaš	-11.3765
medlem	-11.3765
storlek	-11.3766
siffror	-11.3767
tabealla	-11.3767
jfr	-11.3767
▁begära	-11.3767
▁utmarken	-11.3777
▁grav	-11.3783
aktiv	-11.3785
▁höger	-11.3789
▁oahpahuvvo	-11.3791
baserat	-11.3791
undervisningen	-11.3794
▁áimmahušš	-11.3794
▁vuovdit	-11.3796
▁hárjehalla	-11.3802
▁nissonolbmuide	-11.3802
1999	-11.3804
▁lärlingar	-11.3806
start	-11.3808
lektioner	-11.3809
▁vuosttald	-11.3817
aktion	-11.382
medlemmar	-11.382
▁lagförslag	-11.3822
▁överföra	-11.3823
reguler	-11.3824
▁guovdil	-11.3826
lohpádus	-11.3828
▁gearggus	-11.3828
förbindelse	-11.383
▁investeringen	-11.3831
.12.2018	-11.3832
johtolaga	-11.3832
vägagångssätt	-11.3832
▁eahpečielggas	-11.3832
▁generellt	-11.3832
▁illustrera	-11.3832
▁kollektivtrafik	-11.3832
▁mikkola	-11.3832
▁njálmmálaččat	-11.3832
▁onödig	-11.3832
▁semester	-11.3832
▁utbetald	-11.3832
▁ovcci	-11.3832
▁volontär	-11.3832
▁neahtas	-11.3832
▁čuovvuleami	-11.3832
▁dovdomearka	-11.3832
▁jarnge	-11.3832
▁čanastaga	-11.3832
▁váfist	-11.3832
oahppolávdegoddi	-11.3832
▁konkurrenskraft	-11.3832
▁dearvvašvuhtii	-11.3833
buolva	-11.3833
▁detalj	-11.3833
▁eatnigiela	-11.3833
▁nation	-11.3833
▁bivde	-11.3834
▁pedagogiskt	-11.3834
vuodjin	-11.3835
▁hil	-11.3836
▁nášuvnnala	-11.3838
▁hástalusain	-11.3838
▁budgetbeslut	-11.3838
▁gássa	-11.3839
▁organisering	-11.384
áhtu	-11.384
▁balans	-11.384
▁dáhpáhuvai	-11.3841
klinik	-11.3843
▁jođiheami	-11.3847
rusttegiidda	-11.3848
▁kulturbyggnader	-11.3852
▁samerelaterade	-11.3852
▁gávdná	-11.3852
▁arter	-11.3853
lund	-11.3857
fol	-11.3858
▁1,6	-11.3859
▁ulbmillaččat	-11.3863
▁earre	-11.3865
ealáhusšiehtadus	-11.3865
▁diskuterade	-11.3868
▁69	-11.387
barnombudsmannen	-11.3872
leverantörer	-11.3876
▁siskkáldasat	-11.3877
servodatsurggiin	-11.3877
▁sent	-11.3881
hal	-11.3883
dahkki	-11.3883
doaibmabijuiguin	-11.3886
▁kända	-11.3886
▁utställning	-11.3888
▁funktionell	-11.3888
kurssaid	-11.3897
▁kulturskolan	-11.3897
▁guorahallamis	-11.3899
▁bellodagaid	-11.3902
avgifter	-11.3902
▁kunskapsbas	-11.3906
▁ulbmilii	-11.3908
▁sporter	-11.391
▁fatnasa	-11.3911
ibi	-11.3912
▁mihttun	-11.3915
▁váttisin	-11.3915
traditioner	-11.3918
▁vuolggasadji	-11.3924
rájá	-11.3927
uppdrag	-11.3929
ealáhussii	-11.3933
rättslig	-11.3934
▁geografisk	-11.3937
▁orron	-11.3939
▁biebm	-11.3942
čielggadusa	-11.3943
▁vuostáiváldin	-11.3953
mušaid	-11.396
▁dieid	-11.3961
bete	-11.3961
čálus	-11.3962
▁lösningen	-11.3962
pedagog	-11.3964
▁botta	-11.3964
▁mudden	-11.3964
▁duppal	-11.3966
▁planerad	-11.3967
gullevaš	-11.3969
▁kulturarvsråd	-11.3973
▁girjerádjo	-11.3974
▁bilden	-11.3975
▁áirasii	-11.3976
▁arenaid	-11.3976
dárkkist	-11.3982
grepp	-11.3984
▁internáhta	-11.3984
▁avsnittet	-11.3985
sfas	-11.3988
▁hupme	-11.3988
▁komplettera	-11.399
nuoskkid	-11.3991
prosessii	-11.3991
čájálmas	-11.3991
▁bedriver	-11.3991
▁business	-11.3991
▁förlängning	-11.3991
▁iešheanalis	-11.3991
▁maŋidit	-11.3991
▁njiedjá	-11.3991
▁norway	-11.3991
▁utländsk	-11.3991
▁čázádat	-11.3991
▁engerdal	-11.3991
▁förälder	-11.3991
▁goassige	-11.3991
▁strikt	-11.3991
▁devdet	-11.3991
▁bagadallan	-11.3992
▁markant	-11.3992
▁007/1	-11.3993
▁márkanfievrrid	-11.3994
▁riikasearvvi	-11.3994
▁1973	-11.3994
▁gealbu	-11.3994
▁gieldi	-11.3995
▁dovddus	-11.3995
▁fatnasiidda	-11.3997
▁avsett	-11.3999
▁museaide	-11.4004
▁mielkebuvttad	-11.4007
▁jođánit	-11.4008
bivdi	-11.4011
▁gozihuvvo	-11.4015
før	-11.4017
joatkkaskuvllain	-11.4022
positiivvalaččat	-11.4025
funktioner	-11.4027
▁3.6	-11.4028
gaskkusteapmái	-11.4028
▁vuoruheami	-11.4029
▁ealáhusaiguin	-11.4029
▁gielaide	-11.4031
▁hedjonan	-11.4031
▁girjeráju	-11.4032
▁válgalávdegotti	-11.4035
bibliotek	-11.4038
duođaštusaid	-11.4039
erbjudanden	-11.4044
▁referensgrupp	-11.4047
▁musei	-11.4049
▁ansökte	-11.4052
▁hyra	-11.4053
▁čalmmustahttá	-11.4055
▁fitnodagain	-11.4058
▁háliidi	-11.4058
cca	-11.4059
iimet	-11.406
beallái	-11.4061
▁allvarliga	-11.4061
▁čilgen	-11.4068
fatnasat	-11.4071
▁vealah	-11.4072
▁osiide	-11.4083
▁arbetsgivaren	-11.4083
▁gávpogii	-11.4083
.2.6	-11.4083
▁digitalisere	-11.4086
mávssu	-11.4091
▁civila	-11.4092
följande	-11.4092
áigemeari	-11.4092
ekonomiija	-11.4093
hild	-11.4095
supmi	-11.4097
▁vuođđoealáhusat	-11.4099
▁diskussionen	-11.41
vald	-11.4101
▁sihkkar	-11.4104
ohppiid	-11.4109
▁jávkan	-11.411
▁busse	-11.4115
resor	-11.4115
▁idé	-11.4118
▁luohttámuša	-11.4119
▁kárta	-11.4134
dep	-11.4136
▁eksámena	-11.4148
▁jul	-11.4151
▁diskriminera	-11.4152
uppgörelse	-11.4152
▁aktevrraiguin	-11.4152
▁ambition	-11.4152
▁bedöms	-11.4152
▁bibehålla	-11.4152
▁bihtánsámi	-11.4152
▁deattuhuvvui	-11.4152
▁inkludering	-11.4152
▁matematihka	-11.4152
▁rights	-11.4152
▁sottinen	-11.4152
▁čuolmmaid	-11.4152
▁föddes	-11.4152
▁ráissa	-11.4152
▁bággo	-11.4152
▁veahka	-11.4152
▁utomhus	-11.4152
▁dievdoolbmuid	-11.4152
sekšuvdna	-11.4152
▁legitimitehta	-11.4152
▁dorske	-11.4153
▁ovddiduvvui	-11.4153
▁bisán	-11.4153
▁meahcci	-11.4153
▁skolchef	-11.4155
▁bargomárkan	-11.4155
▁válgabeaivvi	-11.4155
▁servodateallin	-11.4156
▁stáhtabušeahtta	-11.4156
▁2005/06	-11.4156
▁vuogas	-11.4157
intensiv	-11.4158
▁nammadii	-11.4158
▁dgt	-11.4158
▁háldo	-11.4158
▁bajidit	-11.4162
▁kategorier	-11.4162
▁publicerades	-11.4164
▁omständigheter	-11.4164
▁justis	-11.4167
▁láhkaevttohusa	-11.4167
▁infördes	-11.417
–6	-11.417
▁oadjebasvuođa	-11.4173
▁förnya	-11.4175
▁jorgalit	-11.4177
▁eeo	-11.4177
▁verkligheten	-11.4177
ásahussan	-11.4185
▁sihkkarasto	-11.4186
▁ráŋggášt	-11.4188
▁celkojuvvo	-11.4188
▁máhcc	-11.4188
▁iskat	-11.4189
▁may	-11.4193
▁140	-11.4197
inni	-11.4209
▁dagordningen	-11.4217
▁antagning	-11.4219
▁förvalta	-11.4223
▁10.00	-11.4223
konto	-11.4224
▁samarbetsmöte	-11.4224
▁analysera	-11.4224
▁uppdraget	-11.423
ikka	-11.4232
▁viktigare	-11.4236
▁närhet	-11.4241
▁pedagogiska	-11.4244
▁passa	-11.4255
▁förlusten	-11.4256
šiehtadallamiin	-11.4257
váttisvuođaid	-11.4258
lassáneapmi	-11.4258
ládje	-11.4261
▁public	-11.4262
datum	-11.4263
▁vástidan	-11.4269
▁oainn	-11.4275
▁guorrasa	-11.4276
▁fylla	-11.4284
ole	-11.4289
▁buvttadangolu	-11.4303
▁affärsavtal	-11.4306
5.2	-11.4307
▁fitno	-11.4312
givning	-11.4313
▁placera	-11.4314
▁fastställt	-11.4315
njárga	-11.4315
čuolbma	-11.4316
orohahkii	-11.4316
utjämningsmandat	-11.4316
▁anhöriga	-11.4316
▁duhtavaččat	-11.4316
▁illustration	-11.4316
▁ratificera	-11.4316
▁sápmelažžan	-11.4316
▁sávaldat	-11.4316
▁anaya	-11.4316
▁permišuvnna	-11.4316
▁driver	-11.4316
▁spendera	-11.4316
▁stolt	-11.4316
▁miesse	-11.4316
▁gávdnamis	-11.4316
▁1950-	-11.4317
▁almmustahtti	-11.4317
▁veahkadat	-11.4317
▁digaštallama	-11.4317
▁lullisámegiella	-11.4317
▁boine	-11.4317
▁oskku	-11.4318
▁deaddil	-11.4318
ohka	-11.4318
▁gáržžiduvvo	-11.4319
▁girjejuvvon	-11.4319
▁miljöskydd	-11.4319
rasttildeaddji	-11.432
▁jorgaleapmi	-11.4321
▁ráhkadeapmi	-11.4322
▁joksat	-11.4322
▁överleva	-11.4323
▁oastin	-11.4323
▁ealáhuseallin	-11.4323
▁joatkkaoahpu	-11.4324
▁biebmoministtar	-11.4325
▁ovddidanfoandda	-11.4325
▁minerálalága	-11.4327
positioner	-11.4329
▁sirdojuvvojit	-11.4332
inriktad	-11.4334
▁jienastat	-11.4336
▁bearráigeahčč	-11.4337
▁gáibid	-11.4338
idrott	-11.4338
▁oktavuhtii	-11.4338
▁dollojuvvon	-11.4339
▁helge	-11.4342
▁goappaša	-11.4343
▁fidne	-11.4344
▁sárg	-11.4348
förberedelser	-11.4351
▁oahppočuoggáid	-11.4356
loktema	-11.4359
▁branscherna	-11.4362
förberedelse	-11.4368
▁deastta	-11.4369
▁leverans	-11.4374
eanta	-11.4375
▁earálágan	-11.4376
systemáhtalaš	-11.4376
▁bett	-11.4386
▁gie	-11.4396
áfáidahttojuvvon	-11.44
▁mötesplats	-11.4403
▁badjelii	-11.4405
▁tillfälliga	-11.4406
▁govve	-11.4407
▁vuolid	-11.441
▁elev	-11.4411
▁investere	-11.4411
fält	-11.4411
▁1.4	-11.4412
▁utnämningen	-11.4413
▁eanadaga	-11.4414
förhandlingar	-11.4414
källor	-11.4427
gjorde	-11.4428
trafik	-11.4428
museum	-11.4429
status	-11.4432
girjj	-11.4445
▁dohkke	-11.4452
▁effekten	-11.4455
▁allvar	-11.4463
▁församlingar	-11.4465
▁beavttálmahtti	-11.447
▁seg	-11.4471
voll	-11.4472
▁mediafálaldaga	-11.4477
▁definierade	-11.4479
▁pasieantta	-11.448
skohter	-11.4482
institušuvdna	-11.4483
▁barentshavet	-11.4483
▁celkkii	-11.4483
▁dialekt	-11.4483
▁hástaleaddji	-11.4483
▁jáhkán	-11.4483
▁kollektivt	-11.4483
▁korrigera	-11.4483
▁landsbygden	-11.4483
▁leavnnja	-11.4483
▁láhčet	-11.4483
▁militär	-11.4483
▁omplacering	-11.4483
▁självmord	-11.4483
▁sullasačča	-11.4483
▁tillämplig	-11.4483
▁äldsta	-11.4483
▁oapmahaččaid	-11.4483
▁gaskaneaset	-11.4483
▁issoras	-11.4483
▁oanehaččat	-11.4483
▁raimo	-11.4483
▁1981	-11.4483
▁álgin	-11.4483
▁mötesböcker	-11.4483
▁suorge	-11.4483
▁stött	-11.4483
▁ovddastuvvon	-11.4483
▁ovdamunni	-11.4483
▁motsatt	-11.4484
▁fördelat	-11.4484
▁ereno	-11.4484
▁gárvvistuvvon	-11.4485
▁geahčen	-11.4485
margit	-11.4485
▁gaskkal	-11.4485
utdanning	-11.4485
▁vuoruheapmi	-11.4486
▁osku	-11.4486
▁kärnområde	-11.4489
▁vuođđudeapmi	-11.4489
▁investeremiidda	-11.4489
▁anderssen	-11.4489
▁kruvdnui	-11.4489
▁godkändes	-11.449
▁kortare	-11.4491
▁jurddašan	-11.4491
▁suomagiela	-11.4491
▁duođašt	-11.4492
▁nissoniin	-11.4493
▁barta	-11.4493
▁eallinvuogi	-11.4494
handlade	-11.4495
▁mw	-11.4496
▁doaibmaguovlu	-11.4497
sámekonvenšuvnna	-11.45
▁nordic	-11.45
▁oahppoprográmma	-11.4501
žii	-11.4504
▁geavahusa	-11.4504
▁utbetalning	-11.4506
▁2-2	-11.4507
.03.2018	-11.4511
▁bokbuss	-11.4511
▁stiftelse	-11.4514
▁ássanguovllu	-11.4515
huksejeaddji	-11.4518
▁dáhpáhusain	-11.4519
▁samlingar	-11.4519
▁kulturlandskap	-11.452
▁partierna	-11.4526
▁40%	-11.4526
▁organisatoriska	-11.4533
▁läsning	-11.4541
▁arbetsplatsen	-11.4547
▁könsfördelning	-11.4548
▁uppmuntrar	-11.4555
▁plánaproseassa	-11.4557
▁juolludusreivv	-11.4565
▁reser	-11.4566
▁utökad	-11.4566
▁signe	-11.4567
▁skatter	-11.4567
▁dutkiid	-11.4573
näringen	-11.4577
valet	-11.4581
▁ipmilbálvalusa	-11.4582
hálddašeaddji	-11.4582
▁boazoguohtun	-11.4583
▁nubbingiella	-11.4586
oainnusmahttit	-11.4587
1,7	-11.4587
muttu	-11.459
mielalašvuohta	-11.4593
▁turi	-11.4598
▁boarrás	-11.4599
gemenskap	-11.4599
evenemang	-11.46
fartyg	-11.46
duottarmuseat	-11.4601
áŋgiruššan	-11.4601
höll	-11.4603
▁hanteringen	-11.4604
▁formulering	-11.4608
▁gaskkust	-11.4609
▁arenain	-11.4622
▁aktör	-11.4628
▁målinrikta	-11.4631
954	-11.4635
nämnd	-11.4637
▁självstyre	-11.4641
▁bahá	-11.4645
▁2013)	-11.4647
▁döda	-11.4649
frågan	-11.4651
▁paul	-11.4652
▁avvikelser	-11.4652
infrastruktuvrra	-11.4652
▁assimilering	-11.4652
▁bearjadaga	-11.4652
▁fokstad	-11.4652
▁gymnása	-11.4652
▁jacobsen	-11.4652
▁oarjelsámi	-11.4652
▁porsáŋgu	-11.4652
▁potentiell	-11.4652
▁råvaror	-11.4652
▁røyrvik	-11.4652
▁stängs	-11.4652
▁tillkännage	-11.4652
▁álgoálbmogiin	-11.4652
▁implementere	-11.4652
▁kápihttal	-11.4652
▁loahpageahčen	-11.4652
▁rovspel	-11.4652
.06.2018	-11.4652
lunddolaččat	-11.4652
▁sirdima	-11.4652
▁föreskrivs	-11.4652
▁revidering	-11.4652
▁áhči	-11.4652
▁entreprenörskap	-11.4652
▁dáruiduhttima	-11.4652
▁förorening	-11.4652
▁stáhtii	-11.4653
▁vänner	-11.4653
▁moatti	-11.4653
▁boazoeaiggádat	-11.4653
▁jienastuvvon	-11.4653
▁överfördes	-11.4653
▁fjordfiske	-11.4654
▁nammaduvvui	-11.4654
▁uttryckligen	-11.4654
▁dyr	-11.4655
▁girkonjárgga	-11.4655
▁music	-11.4655
▁samlärare	-11.4656
▁medlemmen	-11.4656
▁tilldelat	-11.4657
▁torsdag	-11.4659
▁vuostálaga	-11.4659
▁heaittiheami	-11.4659
▁nammadeami	-11.466
váldojuvvui	-11.4665
vold	-11.4666
▁kulturásahusain	-11.467
▁partnerskap	-11.4673
▁rättsväsendet	-11.4677
▁underskott	-11.4678
ansvaret	-11.4678
▁lägsta	-11.4683
fonderna	-11.4685
▁2.11	-11.4685
licenser	-11.4688
hisvuohta	-11.4689
▁industriell	-11.4695
▁árvoháhkamii	-11.4697
doaimmaheapmái	-11.4698
▁astoáigge	-11.47
▁divššohasaid	-11.4703
100	-11.4704
▁meroštallama	-11.4705
▁alkohola	-11.4705
▁giellaoahpahus	-11.4707
▁begärde	-11.4708
▁tillämpning	-11.4713
▁socialtjänsten	-11.4716
▁gäll	-11.472
▁láhkarievdad	-11.4737
givna	-11.4738
▁muntliga	-11.4741
▁almmuhus	-11.4744
▁godkänn	-11.4745
▁fylkkamánne	-11.4759
▁govaid	-11.4759
förändring	-11.476
▁uttrycker	-11.4761
▁modellen	-11.4761
▁dör	-11.4765
▁hände	-11.4767
▁dokumentet	-11.4774
mearka	-11.4775
ráhkadeami	-11.4775
virgi	-11.4776
▁ramavtal	-11.478
▁inspektioner	-11.478
utbyte	-11.4786
▁virgád	-11.4793
▁dagligen	-11.481
šiehtad	-11.4813
válljema	-11.4817
åkte	-11.4824
▁solbakk	-11.4824
orgánii	-11.4824
politihkkárat	-11.4824
▁afghanistan	-11.4824
▁askeladden	-11.4824
▁doalvu	-11.4824
▁kvernmo	-11.4824
▁restaurering	-11.4824
▁stockfleth	-11.4824
▁arbeiderparti	-11.4824
▁differentie	-11.4824
▁riikii	-11.4824
▁sámedikke	-11.4824
▁ägna	-11.4824
▁tvekan	-11.4824
▁oklar	-11.4825
▁áhkku	-11.4825
▁redskap	-11.4825
behtet	-11.4825
▁dárkkistan	-11.4825
▁språkcentrumen	-11.4825
▁áibmo	-11.4825
▁1972	-11.4825
pmosit	-11.4825
teoriija	-11.4825
bártni	-11.4825
▁luossabivddu	-11.4826
▁överfört	-11.4826
▁varierande	-11.4826
▁böter	-11.4826
▁öppenhet	-11.4826
▁arbetsvillkor	-11.4826
▁ovddos	-11.4827
▁vuonain	-11.4827
▁angiv	-11.4827
gávppi	-11.4828
▁specialisering	-11.4828
▁tidsperiod	-11.4829
▁tung	-11.4829
▁marja	-11.4829
▁rådgivning	-11.4829
▁eallindili	-11.4831
▁bajitdási	-11.4831
[...]
